e </w>
t h
d </w>
s </w>
t </w>
n </w>
, </w>
th e</w>
e r
a n
. </w>
y </w>
o </w>
o u
i n
o r
f </w>
an d</w>
l </w>
o f</w>
e d</w>
a r
t o</w>
m </w>
in g
er </w>
h a
h i
o n
l l</w>
ing </w>
r e
i n</w>
th e
a </w>
e n
w i
o n</w>
e s</w>
y ou
s t
h </w>
e n</w>
th </w>
h e</w>
r o
a t</w>
i s</w>
or </w>
l i
a t
a s</w>
r </w>
m e</w>
r i
v e</w>
a l
o w
e s
you </w>
a n</w>
a c
I </w>
s e</w>
b e
h e
s a
i t
th at</w>
l e</w>
w h
s e
r a
s t</w>
hi s</w>
' </w>
wi ll</w>
l e
f or</w>
k </w>
er e</w>
` </w>
` `</w>
c o
l y</w>
w as</w>
t i
i d</w>
o d</w>
c a
n o
n d</w>
i t</w>
wi th</w>
g h
or d</w>
m a
b e</w>
u r
u n
' '</w>
d e
l d</w>
p e
u t</w>
; </w>
T he</w>
s i
ro m</w>
no t</w>
o p
e v
f rom</w>
the y</w>
a ll</w>
L ord</w>
the m</w>
f i
on e</w>
ar e</w>
d i
hi m</w>
en t</w>
p </w>
l o
A nd</w>
l a
k e</w>
th er</w>
ha ve</w>
you r</w>
c e</w>
f or
i r</w>
er s</w>
a b
a y</w>
c h</w>
ou t</w>
ow </w>
a s
ar </w>
wh o</w>
t s</w>
h o
G od</w>
' s</w>
m y</w>
s ha
at i
d s</w>
T h
gh t</w>
m i
a h</w>
1 </w>
the ir</w>
u s</w>
s h
a g
2 </w>
: </w>
b y</w>
d e</w>
sa id</w>
g </w>
t e
3 </w>
0 </w>
e l</w>
a l</w>
4 </w>
5 </w>
w e
m e
w ere</w>
ha d</w>
H e</w>
g i
? </w>
op le</w>
g o
6 </w>
a m
s o</w>
co m
pe ople</w>
r u
l l
7 </w>
w </w>
c on
on s</w>
k ing</w>
t a
t er</w>
sha ll</w>
p o
th is</w>
8 </w>
t o
r ou
p ro
n e
m an</w>
f a
ou </w>
w hi
s u
d o
w or
9 </w>
ow n</w>
ha t</w>
c h
c i
s on</w>
v er
I s
t ed</w>
d o</w>
a d</w>
s o
! </w>
a v
p l
f e
b ut</w>
e t</w>
ou r</w>
m o
Is ra
v er</w>
u s
es s</w>
u p</w>
ha s</w>
ing s</w>
o f
T he
a d
v i
ou n
ou ld</w>
on g</w>
h er</w>
m b
u se</w>
es t</w>
whi ch</w>
y s</w>
ac e</w>
ati on</w>
B ut</w>
m an
The y</w>
l and</w>
Isra el</w>
p i
Th en</w>
w ay</w>
e ar
c e
b o
k n
th ere</w>
g e</w>
for e</w>
t y</w>
ag a
g h</w>
co me</w>
it y</w>
p re
be ca
wh en</w>
t er
ar d</w>
l d
m en</w>
m u
W h
p er
i r
f u
a m</w>
u d
s er
d ay</w>
an t</w>
se l
w hat</w>
p ar
Y ou</w>
) </w>
( </w>
t ur
w e</w>
in to</w>
' t</w>
a u
l ed</w>
n 't</w>
o se</w>
s es</w>
q u
e x
b u
ev er</w>
m or
m p
v es</w>
it s</w>
J e
f o
n o</w>
th ing</w>
ma de</w>
k ed</w>
s ed</w>
li ke</w>
c hi
in e</w>
fi r
g re
h ou
i c
p ri
a p
r an
o ther</w>
d id</w>
a f
un d
I t</w>
ev er
m ent</w>
k e
f er
o k</w>
r y</w>
beca use</w>
or d
at e</w>
S o</w>
v ed</w>
ca me</w>
g u
g a
d ed</w>
s h</w>
al so</w>
in st</w>
1 9
t w
i l
aga inst</w>
o ver</w>
v en</w>
g o</w>
J o
n ed</w>
be fore</w>
y ing</w>
c u
th ose</w>
un to</w>
t t
w ent</w>
ou nd</w>
k i
ti on</w>
be en</w>
er e
e st
M o
e l
s pe
J es
f e</w>
ab out</w>
F or</w>
d own</w>
a ys</w>
i l</w>
ou r
u p
hou se</w>
s he</w>
er ed</w>
n a
d es
k s</w>
en t
w o
i f</w>
c an</w>
Jes us</w>
s p
ti me</w>
ac k</w>
ou s</w>
d u
p t</w>
t e</w>
1 0</w>
I n</w>
s c
in d</w>
it i
b r
c l
the se</w>
ma ke</w>
s w
at ed</w>
ar i
s ons</w>
1 2</w>
b </w>
1 1</w>
th y</w>
n i
an g
> </w>
ma y</w>
gi ve</w>
e m</w>
n ess</w>
re e</w>
D av
Wh en</w>
- </w>
i m
J er
a way</w>
sel f</w>
th ings</w>
C h
re n</w>
B e
Dav id</w>
w ould</w>
the n</w>
a th</w>
an y</w>
p p
c al
in s</w>
1 3</w>
tw o</w>
v ing</w>
n ing</w>
l es</w>
ac h</w>
b ro
e p</w>
c </w>
sa y</w>
th an</w>
1 4</w>
c ity</w>
p ut</w>
w at
th ou
1 5</w>
mor e</w>
of fer
kn ow</w>
ati ons</w>
en d</w>
an ts</w>
T his</w>
t ri
wh o
le t</w>
f t</w>
c k</w>
h and</w>
th ou</w>
1 6</w>
m on
b re
s s</w>
pl ace</w>
he ar
b ur
at t
fu l</w>
- -</w>
s hi
g e
an d
i </w>
ar y</w>
1 7</w>
c es</w>
k en</w>
n ow</w>
chi ld
af ter</w>
ser v
s ent</w>
th rou
J ud
en ce</w>
mu st</w>
p h
a st</w>
t ing</w>
na me</w>
o l
up on</w>
fa ther</w>
1 8</w>
ra i
child ren</w>
A </w>
mb er</w>
st i
b l
A b
i g
go od</w>
en ts</w>
0 0
se e</w>
ur e</w>
c oun
th ers</w>
Je ho
2 0</w>
c t</w>
g ra
ta ke</w>
I f</w>
fir st</w>
Mo ses</w>
si de</w>
an ds</w>
al em</w>
Jer us
Jerus alem</w>
it es</w>
e y
man y</w>
1 9</w>
si on</w>
r in
or y</w>
b ack</w>
r ed</w>
ear s</w>
b or
a h
wh ere</w>
a li
t re
gre at</w>
a st
ear th</w>
al ly</w>
an s</w>
en d
ll ed</w>
ab le</w>
t ru
Jud ah</w>
an ce</w>
ev en</w>
m in
m er
do m</w>
to ok</w>
l s</w>
E g
a k</w>
ever y</w>
2 1</w>
R e
throu gh</w>
am ong</w>
S o
rou ght</w>
the e</w>
c ar
h u
j u
Eg y
he av
b le</w>
ver y</w>
m s</w>
f l
an i
ri ght</w>
l t</w>
d ays</w>
r e</w>
ga ve</w>
c re
b rought</w>
j o
so me</w>
de st
li fe</w>
w s</w>
2 2</w>
wi th
com p
on ly</w>
s po
sa ying</w>
v en
com m
st re
n g
i th</w>
D o</w>
ac h
h ar
c lo
y ears</w>
e ar</w>
cal led</w>
t ra
v e
di s
s he
li ve</w>
sh ed</w>
y ed</w>
H is</w>
sa ys</w>
y e</w>
gi ven</w>
2 3</w>
s s
p s</w>
sh ould</w>
com man
x </w>
sa w</w>
ca p
an sw
Ch ri
st r
it e</w>
y thing</w>
p u
al s</w>
or s</w>
s ou
au l</w>
M y</w>
N ow</w>
v o
c t
li st
m ar
ri ed</w>
se t</w>
to ld</w>
t es</w>
2 4</w>
ha th</w>
ho ld</w>
us ed</w>
N e
pi ri
S e
wor k</w>
l ong</w>
p la
c le
aga in</w>
c tion</w>
he ard</w>
d one</w>
be t
m ed</w>
O </w>
Egy pt</w>
le a
v ah</w>
Y ah
le ft</w>
Yah we
Yahwe h</w>
2 5</w>
fa mi
on g
ag e</w>
con t
ere fore</w>
br ing</w>
Jeho vah</w>
ta in</w>
W e</w>
we ll</w>
ow er</w>
en ed</w>
f ound</w>
en e
d y</w>
ti l</w>
y one</w>
S t
Th ere</w>
sel ves</w>
i ce</w>
hear t</w>
st ri
in ed</w>
st er</w>
i m</w>
ac c
s in
ev il</w>
n s</w>
offer ing</w>
dest ro
mp le</w>
w ord</w>
p as
fo ll
h ow</w>
th ree</w>
un til</w>
ca l</w>
c ha
p he
es s
bor n</w>
wat er</w>
wor ds</w>
c ould</w>
tur ned</w>
be g
he l
e ach</w>
at es</w>
2 00
ro w
ar s</w>
tur n</w>
und er</w>
st e
g rou
lo o
he ad</w>
2 6</w>
o ld</w>
h or
re p
Chri st</w>
n or
e at</w>
e d
hi m
au gh
al l
w ri
of f</w>
I n
i ah</w>
2 7</w>
K ing</w>
pre s
ey es</w>
un i
piri t</w>
ho ly</w>
de ath</w>
n u
d augh
m es</w>
s ac
iti es</w>
st o
c er
H e
mo st</w>
do es</w>
lo ve</w>
who m</w>
i d
shi p</w>
w al
C o
an other</w>
sa me</w>
ne w</w>
es e</w>
W hat</w>
ce i
g l
t ow
fir e</w>
T e
g et</w>
beca me</w>
m on</w>
u l
j ud
par t</w>
A s</w>
e li
2 8</w>
him self</w>
est s</w>
ow ed</w>
n e</w>
n ations</w>
ri gh
b lo
n er</w>
S he</w>
er n</w>
pro phe
so me
ju st</w>
wo man</w>
P e
L et</w>
h er
te ll</w>
i s
3 0</w>
re s</w>
ha pp
ge ther</w>
fo o
c ed</w>
en ti
w ays</w>
l ar
s in</w>
c ted</w>
th ir
ord ing</w>
l ess</w>
m oun
c ho
on es</w>
h ere</w>
to gether</w>
al t
r ac
si l
p ra
A ll</w>
f ace</w>
it ed</w>
y ear</w>
c ur
m ents</w>
i gh
serv ant</w>
wor ld</w>
o b
whi le</w>
E li
pri est</w>
ri fi
G i
go ld</w>
n ever</w>
st s</w>
2 9</w>
with out</w>
c or
be ing</w>
Y our</w>
r on
h ands</w>
kn own</w>
ar ound</w>
di e</w>
le ad
st ru
d d
ab </w>
li ght</w>
be li
la w</w>
n or</w>
n am
st and</w>
ran ce</w>
mu ch</w>
A r
a ke</w>
s ur
ow s</w>
g en
s la
heav en</w>
A f
t en</w>
w ar
answ ered</w>
p a
se ven</w>
se e
fami ly</w>
tt le</w>
ro w</w>
t ry</w>
we en</w>
A l
p ower</w>
ca use</w>
si d
des c
be come</w>
und er
L i
j e
on al</w>
you r
_ </w>
S aul</w>
ni ght</w>
t u
H o
per son</w>
y l
wi fe</w>
M i
bet ween</w>
as ked</w>
of fi
mi es</w>
acc ording</w>
k es</w>
J ac
h on
c ked</w>
op </w>
en s</w>
d re
h und
V ></w>
in es</w>
pri ests</w>
n g</w>
ou th</w>
o b</w>
you ng</w>
T hat</w>
su ch</w>
in i
w ard</w>
st or
ou s
blo od</w>
go ing</w>
c la
1 8
y -
P hi
A n
e th</w>
ke ep</w>
ch es</w>
ch ar
c ti
ta ken</w>
3 1</w>
de ad</w>
z </w>
Th ese</w>
ne ar</w>
the m
p h</w>
w a
in d
li es</w>
po s
t ers</w>
bo dy</w>
L ev
at er</w>
sti ll</w>
D e
fe et</w>
tt en</w>
U n
di ed</w>
l ong
c ities</w>
li ttle</w>
serv ants</w>
hi gh</w>
pl ac
m al
Jac ob</w>
' ll</w>
hund red</w>
S he
R o
mo ther</w>
k ing
alt ar</w>
L o
b i
sac rifi
g ed</w>
d rin
bo th</w>
thou s
spe ak</w>
ver ed</w>
f our</w>
le as
L e
mi ght</w>
Isra eli
fo od</w>
thou gh</w>
re st</w>
ur ing</w>
righ te
il t</w>
t en
re cei
G o
ha l
or t</w>
vo ice</w>
Wh y</w>
s k
de li
N o
z e</w>
ord er</w>
cle an</w>
ro o
po in
F a
e p
v in
A ar
si g
u e</w>
ow ing</w>
c en
e ld</w>
en g
li ving</w>
ever ything</w>
ll s</w>
att le</w>
S am
ap pe
bro ther</w>
it u
< N
re ad
ki lled</w>
s al
co l
Aar on</w>
no thing</w>
re n
f ac
in ter
as se
B ab
he ar</w>
c our
i ther</w>
u b
le y</w>
se en</w>
g es</w>
on d
ab o
fu l
Af ter</w>
O n</w>
spo ke</w>
s ing</w>
3 2</w>
them selves</w>
c he
who le</w>
g ar
ti mes</w>
com es</w>
c y</w>
st and
f fer
fi ve</w>
t al
se a</w>
G er
ar ed</w>
ha m</w>
Bab yl
f er</w>
com ing</w>
re gi
hel p</w>
M a
Wh o</w>
pro mi
rai se</w>
s y
ch ed</w>
th in
bu i
N o</w>
e f</w>
b a
th s</w>
Ab ra
b ir
gen er
H a
coun try</w>
d ra
sil ver</w>
M ar
z ed</w>
t ly</w>
ll ing</w>
grou nd</w>
se con
sw ord</w>
cont in
pe ace</w>
l ing</w>
p ed</w>
te mple</w>
ar e
re e
ta ins</w>
w ant</w>
m er</w>
Jo h
d ge</w>
R i
tur e</w>
ci al</w>
Israeli tes</w>
3 3</w>
i es</w>
thous and</w>
f ar</w>
comman ded</w>
so l
sto od</w>
A t</w>
str ong</w>
So lo
k ings</w>
at e
iti on</w>
d ar
in cl
f lo
de par
go t</w>
v al
st ed</w>
m p</w>
re ma
Solo mon</w>
drin k</w>
gl ory</w>
t rou
ic </w>
es h</w>
o l</w>
wo men</w>
D </w>
J u
read y</w>
wi se</w>
to o</w>
ar my</w>
m outh</w>
[ </w>
B en
ser ve</w>
Th erefore</w>
o ver
beg an</w>
Jo se
bre ad</w>
c ut</w>
p or
fe ar</w>
ene mies</w>
S pirit</w>
B a
F rance</w>
fu ll</w>
d ing</w>
] </w>
wri tten</w>
sha lt</w>
secon d</w>
ho me</w>
ter ed</w>
o be
desc end
es sed</w>
p ur
e y</w>
e le
O ne</w>
Jose ph</w>
offer ings</w>
pl es</w>
daugh ter</w>
c k
w ar</w>
f ind</w>
Z e
king dom</w>
bu ilt</w>
d er</w>
z z
ou t
m at
A mer
go ds</w>
dis ci
c ri
S on</w>
su b
al ong</w>
Amer ic
lo ok</w>
Babyl on</w>
B o
H i
Fa ther</w>
H ow</w>
i mp
b it
3 4</w>
st ar
fi eld</w>
per i
stre ng
fi ed</w>
li sh</w>
fa ith</w>
r ing</w>
ang er</w>
y et</w>
me mber</w>
ig n</w>
th erefore</w>
t own</w>
at ing</w>
A m
f ri
M e
di vi
stand ing</w>
re l
Phi list
s ins</w>
en ing</w>
A u
ou gh</w>
destro y</w>
z e
at u
we l
c ro
nam ed</w>
bro thers</w>
H im</w>
y er</w>
p rin
l an
wh ose</w>
b ed</w>
li ved</w>
a o
e ast</w>
sh u
for th</w>
f ron
3 5</w>
t ro
tri be</w>
p e</w>
i th
i ght</w>
nu mber</w>
wi cked</w>
C on
b as
f ru
sh ow</w>
i on</w>
ha ving</w>
le ad</w>
pas s</w>
— </w>
la st</w>
mor ning</w>
g r
t ment</w>
C an
Abra ham</w>
ha st</w>
t ent</w>
for ever</w>
p uni
b and</w>
19 9
g one</w>
li ed</w>
ki ll</w>
fa thers</w>
Joh n</w>
G o</w>
th er
m y
w he
mal e</w>
regi on</w>
b li
f all</w>
an ything</w>
M ay</w>
descend ants</w>
t or
an ce
mi gh
bur n
s end</w>
un e</w>
i a</w>
g s</w>
en ds</w>
re f
a ma
ra id</w>
d uring</w>
destro yed</w>
sa ith</w>
S ha
o thers</w>
E ng
nor th</w>
w ine</w>
n ation</w>
Lev ites</w>
an yone</w>
al ways</w>
' m</w>
b es</w>
mi l
jo y</w>
s ma
d en</w>
do ing</w>
0 0</w>
she ep</w>
mu l
pro du
Je ws</w>
er t</w>
s le
pi e
ar ds</w>
M an
pu bli
u m</w>
tow ard</w>
v el
P har
or t
ever yone</w>
af raid</w>
y ri
N a
migh ty</w>
fi f
x t</w>
spe a
P ar
wh y</w>
fi lled</w>
sin ce</w>
u </w>
fron t</w>
p le</w>
de cl
F rom</w>
thin k</w>
co vered</w>
3 6</w>
st one</w>
at s</w>
Ab i
mon th</w>
er i
s pirit</w>
loo ked</w>
w o</w>
e ve</w>
lar ge</w>
, 00
comp le
chi ld</w>
c row
p leas
T o</w>
w est</w>
c an
l u
ki ah</w>
kn ow
a ds</w>
P aul</w>
N or
ven ant</w>
t on</w>
li ves</w>
as on</w>
th or
re ly</w>
st ory</w>
ke pt</w>
Phar ao
thir d</w>
lea se</w>
c ks</w>
re turn</w>
wi t
shu a</w>
Pharao h</w>
s ing
lead ers</w>
prophe t</w>
st a
th ered</w>
la y</w>
gu e</w>
burn t</w>
mi d
prophe ts</w>
wor ship</w>
b ri
mo ved</w>
o il</w>
mb </w>
incl ud
list en</w>
s an
disci ples</w>
ati onal</w>
ance st
as k</w>
si ons</w>
j ah</w>
for e
A d
Be cause</w>
po ss
S u
op e</w>
S i
fl esh</w>
E ph
3 7</w>
t y
A ha
C al
O R
sa ge</w>
ir e</w>
' ve</w>
W hi
spo ken</w>
D i
gra in</w>
s we
th ere
l in
streng th</w>
contin u
c ts</w>
sma ll</w>
Philist ines</w>
Un ited</w>
sou l</w>
as h
r un
con cer
p al
th re
ent ly</w>
hal f</w>
Jo shua</w>
f in
b attle</w>
ra m</w>
B ri
min i
ch ari
vi ce</w>
Th us</w>
wi s
le dge</w>
ter ri
ou d</w>
st ing</w>
C a
ra l</w>
depar tment</w>
po or</w>
lea ve</w>
cu l
plac es</w>
Ho ly</w>
,00 0</w>
si ght</w>
ne xt</w>
an im
4 0</w>
s or
co venant</w>
ci r
p raise</w>
c c
t ree</w>
daugh ters</w>
un clean</w>
s ho
Te mple</w>
li on</w>
a se</w>
op en</w>
tru e</w>
c ru
me mb
fa ith
P ro
mon ey</w>
jud g
L a
tru th</w>
d ness</w>
di re
I sa
c r
ous ness</w>
ex ce
w all</w>
n ers</w>
B ar
ca mp</w>
go ver
d ri
The ir</w>
oun t</w>
m es
ca st</w>
B ></w>
w r
u ary</w>
th r
re turned</w>
f al
sa ve</w>
T ho
for m</w>
si x</w>
g ate</w>
fe ll</w>
st ra
the s</w>
t ran
3 8</w>
moun tain</w>
su pp
f oun
ne ither</w>
ver s
Pe ter</w>
u t
beli ev
s en</w>
thou ght</w>
abo ve</w>
la h</w>
kn ess</w>
ord an</w>
wis dom</w>
beli eve</w>
g er</w>
t ou
te ach
u r</w>
Americ an</w>
J ordan</w>
c ated</w>
ca ll</w>
some thing</w>
si ble</w>
wo od</w>
e f
p er</w>
se ven
w ind</w>
th an
ld ers</w>
b es
bet ter</w>
ful ly</w>
b an
j am
pl an
ha t
c a</w>
cu b
k ind</w>
el s</w>
P as
Th ou</w>
comman d
ach ed</w>
s sed</w>
s l
qu i
I s</w>
me di
h ur
in her
L OR
ta in
u el</w>
d ly</w>
LOR D</w>
wor ks</w>
on i
roo m</w>
pp ed</w>
your selves</w>
W or
be hold</w>
d a
l la
h us
answ er</w>
sh ou
ow ever</w>
ga thered</w>
di ffer
l ands</w>
c ation</w>
ou ght</w>
in v
on ce</w>
b us
po li
ld er
h un
t ab
chi ef</w>
f la
ste ad</w>
on ed</w>
er ful</w>
Ben jam
l ater</w>
b er
rou nd</w>
i do
3 9</w>
in stru
are a</w>
tt ing</w>
as h</w>
moun tains</w>
ang el</w>
as ha
ma ster</w>
al ed</w>
fru it</w>
W i
er n
anim als</w>
en ter</w>
M or
trou ble</w>
re c
¶ </w>
with in</w>
know ledge</w>
ap poin
c ry</w>
f ree</w>
of fer</w>
obe y</w>
gi r
m ind</w>
M e</w>
di es</w>
19 7
e -
Can a
th -
pres ence</w>
Be hold</w>
tre es</w>
righte ous</w>
pre sent</w>
t able</w>
ld ing</w>
p ti
E </w>
clo thes</w>
b all</w>
at ure</w>
wat ers</w>
th ern</w>
di st
righte ousness</w>
. .</w>
ser ved</w>
rai sed</w>
s pre
gi ving</w>
me as
ch an
vi sion</w>
G e
ati ve</w>
mu si
ma l</w>
to day</w>
ter n
t wel
p op
st u
la id</w>
di stri
f ur
f y</w>
sou th</w>
sacrifi ce</w>
con sid
rep lied</w>
a i</w>
ang ry</w>
C ar
sol di
i de</w>
' re</w>
mi ah</w>
ti es</w>
mer cy</w>
ic k</w>
A s
s pi
t r
long er</w>
en ty</w>
mes sage</w>
y al</w>
pra y</w>
Ne w</w>
f our
b or</w>
19 8
ancest ors</w>
m pi
in ha
ma kes</w>
le av
lo ved</w>
lder ness</w>
o c
Ri ver</w>
G re
bo ok</w>
bui ld</w>
en ough</w>
for med</w>
h ope</w>
c ou
. ..</w>
t al</w>
ne igh
w ond
su n</w>
fe w</w>
J on
u gh
m a</w>
recei ved</w>
he ld</w>
de fe
b est</w>
le e</w>
de ci
st ones</w>
k er</w>
Co me</w>
t on
ate ly</w>
ear ly</w>
S </w>
k new</w>
ru l
rai m</w>
g la
fi ght</w>
ar ri
e ting</w>
ma king</w>
hou ses</w>
te mp
B y</w>
wr ong</w>
po se</w>
tow ns</w>
bro ken</w>
pop ul
w in
foll owed</w>
ar t</w>
b er</w>
St ates</w>
ac </w>
do or</w>
ar k</w>
an n
he ads</w>
wi lderness</w>
h ard</w>
wal k</w>
t ter</w>
Benjam in</w>
hu man</w>
al one</w>
ac ce
m en
hon or</w>
be l
Mo ab</w>
5 0</w>
v ers</w>
happ ened</w>
jud ge</w>
S a
lan gu
fami lies</w>
w ra
s en
e ds</w>
W ith</w>
your self</w>
st itu
or g
en ly</w>
comm and</w>
v a
thr one</w>
U ni
J ere
be au
bur ned</w>
m ine</w>
some one</w>
re jo
under stand</w>
gre at
heav ens</w>
hi gh
T ake</w>
yri a</w>
u ght</w>
re qu
imp ort
car ried</w>
g ri
chari o
s it</w>
b ra
1 7
ow ers</w>
char ge</w>
o m</w>
mid st</w>
| </w>
P h
ro ck</w>
st ran
Lo ok</w>
Eph raim</w>
ap pro
ag es</w>
4 1</w>
f am
foo t
gi ves</w>
it al</w>
So me</w>
asse mb
th us</w>
re s
lo t</w>
op s</w>
Tho se</w>
ur ch</w>
p ay</w>
ic k
re sp
p ha
w an
so on</w>
or i
l ine</w>
ro ss</w>
li e</w>
ex am
re li
de ed</w>
o th</w>
cu m
B e</w>
li f
ti c</w>
t -
ju sti
bl essed</w>
4 2</w>
ali ty</w>
me ans</w>
i ma
s si
ar ing</w>
m ur
twel ve</w>
b a</w>
out side</w>
bo am</w>
h ind</w>
cho sen</w>
pro f
t op</w>
ru le</w>
19 6
P o
hear ts</w>
s mo
promi se</w>
A ss
my self</w>
t y-
hus band</w>
ro ad</w>
ci p
c ke
ri se</w>
P er
ne ed</w>
s on
er ing</w>
c ried</w>
el ds</w>
ch ang
cer tain</w>
foll owing</w>
k ind
le ar
gh ts</w>
D o
des ert</w>
Jere miah</w>
Sam uel</w>
ca se</w>
se cre
me et</w>
de p
S hi
ev ening</w>
judg ment</w>
M es
E ven</w>
H er
row n</w>
gh out</w>
of ten</w>
est ab
offi c
dar kness</w>
e mp
b ran
ac le</w>
an o
E u
vi lla
pas sed</w>
g ran
op ened</w>
S V></w>
soldi ers</w>
sc ri
recei ve</w>
foll ow</w>
O n
f fi
es cap
s ure</w>
B al
di sa
H ar
f ini
ari a</w>
C </w>
c s</w>
am s</w>
A hi
ld er</w>
inher it
c are</w>
sh ing</w>
te st
ri ch</w>
d on
spre ad</w>
s at</w>
concer ning</w>
ri ver</w>
n one</w>
T o
d we
am es</w>
ll ow</w>
te en</w>
g y</w>
ous ly</w>
wi sh</w>
faith ful</w>
4 3</w>
s ound</w>
ep ing</w>
b le
ir ed</w>
grou p</w>
l ord</w>
whi te</w>
M ount</w>
au thor
Man asse
th i
4 5</w>
st ers</w>
ent y-
je ct</w>
a than</w>
be hind</w>
W ho
m m
cont ro
Jo ab</w>
st ate</w>
s m</w>
Manasse h</w>
inherit ance</w>
v ation</w>
co ver</w>
Y es</w>
in t</w>
c ra
cti ons</w>
in ing</w>
P re
car e
A sh
cir cum
p es</w>
ess eng
be l</w>
appoin ted</w>
throu ghout</w>
ido ls</w>
li ty</w>
mb le</w>
bir th</w>
de m
pie ces</w>
import ant</w>
W e
Z ion</w>
R a
bo y</w>
en ded</w>
Isa ac</w>
r an</w>
resp on
k ers</w>
ene my</w>
v al</w>
s it
th ren</w>
be long
gr ace</w>
pro vin
hat ever</w>
d -
our ed</w>
inha bit
al th</w>
re member</w>
fa v
B l
sa ved</w>
po st
f li
be ar</w>
par ed</w>
tri bes</w>
ru n</w>
offi ci
b order</w>
an t
spe ci
ch ing</w>
cen se</w>
f ine</w>
A ra
d ne
Egy pti
i led</w>
s ci
do th</w>
on y</w>
ab b
bre thren</w>
tw enty</w>
el se</w>
S in
bur n</w>
hor ses</w>
promi sed</w>
in cre
differ ent</w>
si ster</w>
it ted</w>
ac t</w>
spea king</w>
de -
P ri
bre ak</w>
4 4</w>
there of</w>
ir s</w>
se ver
al ready</w>
end ing</w>
e lders</w>
se es</w>
c le</w>
m esseng
j our
sc ho
plac ed</w>
see k</w>
con su
wor shi
si x
C oun
whe ther</w>
g ates</w>
es sion</w>
u res</w>
fir st
wan ted</w>
fi l
c ent
He ze
ct or</w>
I I</w>
li shed</w>
ini qu
d well</w>
ca mp
d ro
b ar
publi c</w>
ac ross</w>
d es</w>
wra th</w>
si a</w>
w n</w>
Gi ve</w>
tran s
n ment</w>
cub its</w>
sacrifi ces</w>
ra in</w>
happ en</w>
fri ends</w>
in ning</w>
O f</w>
p hi
offer ed</w>
t ary</w>
includ ing</w>
Wh ere</w>
in cense</w>
in a</w>
ti sh</w>
g g
at en</w>
ali ve</w>
itu de</w>
A z
in ess</w>
er y</w>
b la
of f
bu ried</w>
appe ared</w>
vi ol
v el</w>
pro vi
cap ti
Heze kiah</w>
c ent</w>
lo cated</w>
pe op
d er
ap ti
ast s</w>
me eting</w>
ro ws</w>
for mer</w>
E ver
1 6
ha ir</w>
b ad</w>
sha me</w>
w ast
in e
wi ves</w>
th o
B i
ti ons</w>
ll -
Eng lish</w>
st ay</w>
lead er</w>
C hi
th ine</w>
us ing</w>
ser vice</w>
Ger man</w>
h an
go es</w>
pro te
or e</w>
loo king</w>
sa ke</w>
mo ve</w>
di a</w>
car ry</w>
wi d
oun ds</w>
l y
nam es</w>
Jon athan</w>
seven th</w>
sk in</w>
de ep</w>
br on
* </w>
musi c</w>
Eu ro
mb s</w>
p ow
fe ct</w>
ga ther</w>
on d</w>
wi de</w>
se ed</w>
ar m</w>
Pe ople</w>
p ure</w>
z er</w>
ti ll</w>
coun t</w>
4 6</w>
deli vered</w>
ac k
re ad</w>
se ar
su ffer
mar ried</w>
re spe
d en
hi ll</w>
g od</w>
pra yer</w>
inhabit ants</w>
M r
ha te</w>
ph er
a ir</w>
K e
B el
Ass yria</w>
beg inning</w>
qu ick
m our
hou se
se par
sk y</w>
g n
re ign</w>
wi ld</w>
Wor ld</w>
sc at
u su
spe cial</w>
Q u
cla im
att ack</w>
f ts</w>
li </w>
for m
cour t</w>
li gh
S h
justi ce</w>
in -
r on</w>
star ted</w>
s qu
ani mal</w>
dd en</w>
ey e</w>
V al
se l</w>
qu est
de f
Se e</w>
T ></w>
< G
or ig
di sc
wal ls</w>
chan ge</w>
S ar
prin ces</w>
ph es
sh es</w>
par ts</w>
st op
b ru
Te ll</w>
v es
e ts</w>
tw enty-
gi ft</w>
pi ll
ord ers</w>
f at</w>
h y
su cc
ar ly</w>
dest ru
en tered</w>
org ani
leas ed</w>
x ed</w>
mat ter</w>
Sam aria</w>
st em</w>
comm une</w>
s m
li an</w>
col le
di se
Ha ve</w>
d ition</w>
- de-
v ari
su rely</w>
he l</w>
H u
w hatever</w>
circum ci
te ly</w>
a th
Jer o
we st
ke y</w>
sig n</w>
1 5
ar es</w>
val ley</w>
so ci
ca used</w>
v ol
Whi le</w>
ern acle</w>
st op</w>
deli ver</w>
Y et</w>
com for
de vel
stru ck</w>
f ra
tru st</w>
ma j
ex i
po sed</w>
du st</w>
comm un
ar ti
peop les</w>
sever al</w>
quick ly</w>
bl ess
mi s
stre t
bron ze</w>
ct uary</w>
r a</w>
Ne bu
fini shed</w>
fa st</w>
zz ar</w>
sal vation</w>
n a</w>
Gi lead</w>
foo t</w>
ur ed</w>
a ki
si ah</w>
fi elds</w>
di an</w>
rou n
w ro
de v
under standing</w>
ho sts</w>
te ach</w>
d ry</w>
J an
E n
N </w>
B u
ig ned</w>
t ory</w>
f all
dd le</w>
C ha
il s</w>
re su
4 7</w>
b ow</w>
go o
H am
ent rance</w>
bl ess</w>
an ces</w>
m pe
Jeho i
happ y</w>
pro phes
tre as
langu age</w>
offici als</w>
E dom</w>
pal ace</w>
continu ed</w>
rel ati
h and
par ti
F o
ir on</w>
S er
li ps</w>
e igh
b ab
rac ti
sin ned</w>
T i
u ri
ti ful</w>
a is</w>
destru ction</w>
H ere</w>
vi e
vers ity</w>
fal se</w>
19 5
ne ws</w>
att ac
e ment</w>
me t</w>
vin ey
rema in</w>
it self</w>
F e
gir l</w>
lo st</w>
author ity</w>
rep or
st en</w>
exce pt</w>
fri end</w>
mon ths</w>
4 8</w>
me at</w>
Se a</w>
tri es</w>
a k
es ses</w>
cour se</w>
1 0
ad a</w>
A n</w>
re ason</w>
ma in</w>
cl oud</w>
ke th</w>
' I</w>
ne y</w>
G a
st atu
foot ball</w>
qu ar
p en
e k</w>
Se p
H an
Eli jah</w>
K i
v est</w>
gre ater</w>
se tt
sal om</w>
teach ing</w>
Mo st</w>
Th y</w>
lif ted</w>
nu mb
sp ring</w>
bui lding</w>
C ol
Eli sha
rejo ice</w>
Eng land</w>
reli gi
crow d</w>
tern al</w>
Au gu
s piri
cre ated</w>
se ason</w>
iniqu ity</w>
ol s</w>
c attle</w>
memb ers</w>
four th</w>
G u
mul t
d ou
ri </w>
re ally</w>
wro te</w>
des ire</w>
W .</w>
poin t</w>
fl u
san ctuary</w>
puni sh</w>
in side</w>
la ws</w>
tri bu
Bri tish</w>
A re</w>
M an</w>
re leased</w>
F or
Aha b</w>
sa u</w>
she pher
distri ct</w>
M u
ch urch</w>
Ab salom</w>
Cal ais</w>
us es</w>
pa in</w>
li a</w>
J ap
ra ther</w>
a w
F ren
cap ital</w>
sh ment</w>
sla ve</w>
pos sible</w>
Pas -de-
Pas-de- Calais</w>
gu l
p ast
en tion</w>
beau tiful</w>
m per
La w</w>
S outh</w>
ac hi
b ones</w>
w on</w>
dar k</w>
Sep te
op er
r or</w>
provin ce</w>
f led</w>
Septe mber</w>
Jero boam</w>
E sau</w>
gu il
h our</w>
B er
g row</w>
ex pe
tru mpe
it t
O r
de fi
ar ms</w>
M er
ro se</w>
offic ers</w>
ang els</w>
gi fts</w>
bes ide</w>
H owever</w>
p lease</w>
t ation</w>
flo ck</w>
cur se</w>
ga in</w>
pre pared</w>
tal k</w>
clo se</w>
wa it</w>
Ger many</w>
E very</w>
b s</w>
p racti
E x
ord in
cou ra
tur ed</w>
wal ked</w>
hu </w>
f -
e t
E l
g est</w>
f fer</w>
believ ed</w>
ani ah</w>
res cu
b apti
su m
be long</w>
devel op
lin en</w>
gu ard</w>
in st
comm on</w>
4 9</w>
sy stem</w>
O c
b b
M ake</w>
i ous</w>
Ph ari
ro yal</w>
ta king</w>
ser ies</w>
in ner</w>
des ol
wit ness</w>
ve ly</w>
pos ition</w>
bo dies</w>
bir ds</w>
pie ce</w>
bur ning</w>
me le
comple tely</w>
W o
tur y</w>
O h</w>
D ani
M ic
s ong</w>
in ted</w>
comp ani
W il
gener ation</w>
se cu
gl ori
sla ves</w>
gla d</w>
y e
en ted</w>
Mar ch</w>
stop ped</w>
S p
Fren ch</w>
z i
g ni
dre w</w>
chang ed</w>
assemb ly</w>
te en
c ess
thir ty</w>
so ld</w>
kn ows</w>
we alth</w>
i de
rema ined</w>
co me
Nebu cha
d iti
W ar</w>
E R
T ur
arri ved</w>
w ind
fif ty</w>
fac t</w>
cle an
al most</w>
p hat</w>
jo ined</w>
e ight</w>
chario ts</w>
r ings</w>
pri son</w>
cur ren
G enti
cle ar</w>
ce le
g ation</w>
cl u
y ond</w>
att ention</w>
H er</w>
l eng
sur roun
ti cal</w>
char ac
c ing</w>
c y
t un
l ow</w>
Egypti ans</w>
M ary</w>
p ast</w>
orig in
Nor th</w>
trou b
bro ke</w>
bl ind</w>
atu res</w>
b ow
e ither</w>
F i
y ers</w>
G ree
Val ley</w>
de vi
Be th
sit ting</w>
cen tury</w>
tain ly</w>
s ati
Ju ly</w>
re ached</w>
estab lished</w>
L ab
Augu st</w>
G en
coun tries</w>
fi sh</w>
z iah</w>
o x
e en</w>
enti re</w>
v ity</w>
n ational</w>
C ity</w>
af ter
comman ds</w>
war ds</w>
me an</w>
divi ded</w>
as ed</w>
M any</w>
sh owed</w>
poss ession</w>
ing -
west ern</w>
S im
No t</w>
E ach</w>
mi li
l ying</w>
acce p
cro ss</w>
Li sten</w>
i ch
in deed</w>
en ces</w>
it ing</w>
J une</w>
re co
Au stra
sid ent</w>
for ce</w>
in stead</w>
sta yed</w>
f ar
ton gue</w>
av es</w>
bran ches</w>
bi g</w>
comp any</w>
h owever</w>
Jan uary</w>
sle ep</w>
z ar</w>
pow erful</w>
contro l</w>
ci ent</w>
por tion</w>
stor m</w>
u n</w>
le tter</w>
pla y</w>
M on
O ur</w>
tu al</w>
G ali
mul ti
to ber</w>
for ty</w>
e aten</w>
a post
p rou
clo th</w>
Gi be
Oc tober</w>
pur su
guil ty</w>
mi ddle</w>
J ames</w>
L u
si ck</w>
l at
O r</w>
ord ered</w>
gover nment</w>
s ses</w>
re ve
wat ch</w>
sh ort</w>
ag o</w>
g ing</w>
I ts</w>
e ded</w>
bas ed</w>
af fli
Wi ll</w>
mi c</w>
abb ath</w>
a i
N i
E B></w>
in no
Chri sti
be ast</w>
ap p
L ond
v est
ta kes</w>
g al</w>
Ba al</w>
ru les</w>
Nebucha dne
w ings</w>
Genti les</w>
Dani el</w>
terri tory</w>
A ng
wor ked</w>
tab ernacle</w>
wi cke
re memb
ing ing</w>
Re ub
teen th</w>
mi les</w>
s wor
- in-
cele br
Z er
p tion</w>
A pri
s n
re de
Who ever</w>
S abbath</w>
Cana an</w>
Al so</w>
S at
Elisha </w>
Apri l</w>
mo ment</w>
dre am</w>
c li
rul er</w>
Lond on</w>
gre w</w>
sing le</w>
than ks</w>
neigh bor</w>
all owed</w>
Nebuchadne zzar</w>
le ast</w>
on -
t est</w>
fe male</w>
er al</w>
A mor
be yond</w>
1 -
l oud</w>
y si
wri te</w>
mele ch</w>
di sp
m ent
mult itude</w>
De ce
pla yed</w>
p oured</w>
ra y</w>
o d
si ve</w>
pi cal</w>
o ks</w>
wh ere
k ne
secre t</w>
har vest</w>
I sh
desc ri
st ud
ag ue</w>
a iah</w>
sh are</w>
foun d
C or
s —
re igned</w>
in du
first born</w>
pro per
sel s</w>
k in
pl ant</w>
bu ll</w>
ann oun
z ar
o live</w>
ag ree
G et</w>
or ed</w>
command ments</w>
200 7</w>
st rai
Y or
Dece mber</w>
sati s
sy n
e cu
Sim on</w>
I V
leng th</w>
a head</w>
sha phat</w>
Phari sees</w>
tri ed</w>
bless ing</w>
al bu
f f
cal ly</w>
tro ops</w>
wor king</w>
dise ase</w>
defe ated</w>
uni cip
du e</w>
lo gy</w>
kind ness</w>
i se</w>
terri ble</w>
an ing</w>
19 0
go ats</w>
escap e</w>
wast e</w>
pri son
fi ll</w>
m ing</w>
st y</w>
l a</w>
messeng ers</w>
we igh
J a
des er
an y
ac her</w>
su p
thre w</w>
ta ught</w>
house hold</w>
usu ally</w>
ast ern</w>
hi lls</w>
de ca
Jeho shaphat</w>
p ati
contin ue</w>
nor thern</w>
es pe
la mbs</w>
sla ugh
a side</w>
ve th</w>
l est</w>
t wi
comm itted</w>
re ali
ll u
f re
Z i
we ak</w>
fav or</w>
2 0
medi ately</w>
gu es</w>
at ch</w>
villa ges</w>
popul ation</w>
lar gest</w>
pla in</w>
hi story</w>
z ation</w>
id es</w>
fac es</w>
No ve
de eds</w>
co ver
Lev i</w>
z ing</w>
consid ered</w>
Mr .</w>
H or
heav y</w>
re moved</w>
f ree
ce d
hu a</w>
F ran
st ars</w>
mi </w>
Hi gh</w>
asha med</w>
at or</w>
-in- law</w>
li g
ing ly</w>
Nove mber</w>
m n
ad v
A ma
test im
K o
cor ds</w>
e ternal</w>
a part</w>
Je wish</w>
decl ares</w>
bre a
un g</w>
rul ers</w>
ref used</w>
fore ig
S te
ac ti
mor row</w>
T y
fe ast</w>
V i
200 6</w>
go at</w>
v ine</w>
S pe
o t</w>
con f
al though</w>
m unicip
scho ol</w>
pres sed</w>
E lea
th rown</w>
for ward</w>
sid es</w>
re stor
ac ts</w>
re gul
o ath</w>
so ver</w>
Ch ar
vi r
gre gation</w>
do ors</w>
cap tured</w>
Uni versity</w>
lo gi
w ash</w>
W al
p ing</w>
pla yer</w>
E s
he aled</w>
d run
p an
you ng
pre ss</w>
see med</w>
f f</w>
exam ple</w>
P lease</w>
ci ous</w>
su ffer</w>
ga me</w>
K ing
ad ed</w>
who ever</w>
gra ss</w>
te le
W est</w>
foo lish</w>
scat tered</w>
te am</w>
ab und
ta ined</w>
i an</w>
f ing
cer tainly</w>
S co
des pi
c ture</w>
an ites</w>
vi ct
ne t</w>
puni shment</w>
E lo
w ash
ari es</w>
gar ments</w>
foo l</w>
D uring</w>
D u
respe ct</w>
th row</w>
i ly</w>
hi de</w>
x es</w>
U zz
fa ir</w>
st ic</w>
sh ut</w>
her self</w>
bl ue</w>
oun ded</w>
0 s</w>
sh own</w>
in ten
go tten</w>
Gali lee</w>
ca ught</w>
foll owers</w>
camp ed</w>
circumci sed</w>
ac count</w>
nor th
agree ment</w>
in ts</w>
b al
bl ack</w>
sig ns</w>
cl ou
bo at</w>
he m</w>
ha ps</w>
oun d
fi gh
r ying</w>
wicke dness</w>
Sin ce</w>
tur ning</w>
ho st</w>
sa fe</w>
1 2
je cted</w>
e mb
sha d
On ly</w>
religi ous</w>
comp as
e qu
' The</w>
fam ine</w>
claim ed</w>
t ents</w>
fam ous</w>
ati c</w>
fil m</w>
fall en</w>
B ra
ste ps</w>
deci ded</w>
o t
T H
ag o
mo on</w>
cla im</w>
tt ers</w>
pra yed</w>
prou d</w>
c up</w>
D an</w>
5 1</w>
se ly</w>
g row
Am mon
u al</w>
Yor k</w>
an ti
su dd
br on</w>
for ced</w>
a z</w>
ten th</w>
ro ll</w>
la mb</w>
bu y</w>
mil k</w>
S al
G ad</w>
Phi li
N ational</w>
ari ah</w>
ex ecu
l or
gener ations</w>
He bron</w>
sudd enly</w>
stre ets</w>
c ting</w>
pleas ed</w>
sh ar
se x
per fect</w>
l ate</w>
flo cks</w>
b it</w>
bru ary</w>
abo min
b owed</w>
ap h
de th</w>
D id</w>
vie w</w>
f ought</w>
in te
Fe bruary</w>
Coun ty</w>
ru led</w>
Elea zar</w>
ong s</w>
ed ge</w>
H ad
W est
cl es</w>
Gre at</w>
ne ck</w>
en e</w>
R u
hi dden</w>
sur vi
sa fe
E ast</w>
w ants</w>
sear ch</w>
pres sion</w>
all ow</w>
Hi story</w>
shi ps</w>
for get</w>
we ight</w>
re fu
ter y</w>
offi cial</w>
appe ar
O M
s mi
pill ars</w>
la bor</w>
cti ve</w>
T </w>
relati ves</w>
t or</w>
P il
In stead</w>
con fi
tal king</w>
' d</w>
in di
ad ul
T a
Le ban
ast er</w>
albu m</w>
. _</w>
mo d
ves sels</w>
ri can
stre ss</w>
sla in</w>
mil lion</w>
cri p
cho se</w>
con du
S y
Go od</w>
is land</w>
Reub en</w>
l ds</w>
commun ity</w>
c ce
P i
ma in
e ty</w>
gran d
speci es</w>
fif th</w>
hur t</w>
hor ns</w>
e ch</w>
Bl essed</w>
acce pt</w>
Elo him</w>
ci ally</w>
b ene
la ugh
Li ke</w>
clo thing</w>
m as</w>
li st</w>
Je hu</w>
te th</w>
man ner</w>
on ship</w>
King dom</w>
e ag
Ze de
e ating</w>
re st
sac red</w>
ou se</w>
% </w>
tu res</w>
ke ep
cour ty
Jo b</w>
foun ded</w>
ld est</w>
B ring</w>
dep end
s per
see ing</w>
Sco t
5 2</w>
k et</w>
Al mighty</w>
stri ke</w>
ar mies</w>
ph ysi
mb led</w>
bu l
statu tes</w>
Ro man</w>
bor e</w>
R us
our s</w>
gar den</w>
br inging</w>
me mor
se at</w>
come th</w>
fl our</w>
f un
ss ing</w>
l and
a am</w>
T ru
some times</w>
ne cess
to tal</w>
ter min
pres ented</w>
r ace</w>
par ty</w>
Re ho
fe lt</w>
ano inted</w>
H en
' You</w>
Be fore</w>
Ever yone</w>
str ong
peri od</w>
Americ a</w>
gu ilt</w>
Ju st</w>
do st</w>
wal king</w>
la mp
ox en</w>
great ly</w>
R ac
con se
g rac
clou ds</w>
for give</w>
flo or</w>
sc or
li ons</w>
di </w>
con gregation</w>
wri ting</w>
u pri
Leban on</w>
ci l</w>
p at
1 4
p our</w>
st ic
proper ty</w>
depar ted</w>
wor kers</w>
Co m
Bal aam</w>
belong s</w>
Jer ich
im mediately</w>
b ound</w>
bus iness</w>
your s</w>
ex peri
cei ved</w>
b on</w>
worshi ped</w>
p ath</w>
strai ght</w>
che m</w>
u te</w>
ra ms</w>
ph y</w>
ct ly</w>
Zede kiah</w>
z a
S .</w>
C y
Re member</w>
Jerich o</w>
te lling</w>
ld en</w>
ch er
reco gni
produ ce</w>
pri de</w>
no ti
is su
lead ing</w>
fe el</w>
pur pose</w>
= =
thou ghts</w>
n ine</w>
y o
m it</w>
swe et</w>
al e</w>
grou ps</w>
gre en</w>
ever y
s li
gra ve</w>
lear n</w>
P rin
th ed</w>
g ro
200 5</w>
de ce
trans gre
spea ks</w>
gener al</w>
apost les</w>
Ge or
Pas sover</w>
Be the
re pro
cu sto
re ward</w>
in t
repor ted</w>
t it
sig ned</w>
She chem</w>
ach ing</w>
wor thy</w>
w ing</w>
emp ty</w>
s is</w>
tr ying</w>
su cce
sor row</w>
pl ans</w>
stret ched</w>
ad ab</w>
testim ony</w>
comple te</w>
attac ked</w>
han ded</w>
Abra m</w>
L </w>
hel ped</w>
par ents</w>
municip ality</w>
ag ed</w>
ag </w>
puni shed</w>
ri es</w>
st an</w>
Amor ites</w>
st ry</w>
succ ess
st ly</w>
ima ge</w>
st ands</w>
sc us</w>
mi rac
form ation</w>
oc cu
Be th-
ab and
di d
br ings</w>
w in</w>
us h</w>
poss ess</w>
l ow
disa p
we a
pro stitu
o x</w>
ri ches</w>
prin ce</w>
f le
& </w>
ter ing</w>
Bethe l</w>
si sters</w>
cho ose</w>
an tly</w>
so ever</w>
hear ing</w>
G il
mar ry</w>
jud ges</w>
cap tain</w>
fe llow</w>
s a</w>
— the</w>
D ama
T er
t ar
quest ion</w>
o gra
rememb ered</w>
bre ath</w>
u de</w>
Z a
si st
lo ves</w>
sou ght</w>
re ed</w>
g ers</w>
ter m</w>
in su
hor se</w>
command ment</w>
desol ate</w>
ra h</w>
qui et</w>
ne w
con dem
peri sh</w>
Pil ate</w>
inno cent</w>
Euro pe</w>
rican e</w>
ke ys</w>
figh ting</w>
do ms</w>
appe ar</w>
meas ure</w>
pa id</w>
6 0</w>
espe cially</w>
hun g
T ar
resu lt</w>
numb ered</w>
ar ose</w>
F ir
tou ched</w>
jour ney</w>
be asts</w>
Ab ner</w>
B ro
p it</w>
So ci
st e</w>
includ ed</w>
fu ture</w>
as hi
viney ard</w>
ma h</w>
dra w</w>
il ing</w>
As a</w>
courty ard</w>
P raise</w>
wa iting</w>
smo ke</w>
Dama scus</w>
n er
A sa
se i
la sting</w>
chario t</w>
war ri
to -
P ut</w>
r s</w>
ran k</w>
mo vi
don key</w>
i or</w>
C OM
ri vers</w>
H ear</w>
sen se</w>
la w
re gar
es h
s wi
comfor t</w>
au </w>
vi s
M al
ca ses</w>
Mic ha
run ning</w>
bir d</w>
coun sel</w>
o s</w>
C an</w>
si onal</w>
je cts</w>
Rac hel</w>
ter ly</w>
man s</w>
li ft</w>
aki m</w>
st on</w>
e b</w>
Jo siah</w>
F </w>
A R
alt ars</w>
w and
appear ance</w>
R ob
pl an</w>
a p</w>
hung ry</w>
lo se</w>
mis sion</w>
comman der</w>
mi xed</w>
deca i</w>
M aster</w>
su per
ur y</w>
Mi ca
re fer
pre p
e over</w>
ha h</w>
fore ign</w>
f lee</w>
e ks</w>
wit n
K P
ex al
est y</w>
dwe lt</w>
T ent</w>
200 8</w>
our selves</w>
con sci
con ne
P ic
sin ful</w>
in flu
atu ral</w>
li c</w>
en n
di ffi
prep are</w>
K or
D IV
bel ow</w>
ad ded</w>
5 3</w>
mini str
We ll</w>
R A
rep ort</w>
le th</w>
all er</w>
Isa iah</w>
confi d
K J
f ord</w>
decl ared</w>
W KP
WKP ></w>
R SV></w>
L T></w>
G ></w>
E V></w>
E ></w>
DIV COM
DIVCOM ></w>
<N I
<G N
< S
< M
< I
< D
< C
dou b
sex ual</w>
p ort</w>
publi shed</w>
st ick</w>
b ands</w>
p ounds</w>
Fir st</w>
tou ch</w>
s y</w>
F in
te eth</w>
mil ar</w>
crow n</w>
ful ness</w>
thous ands</w>
an a</w>
Ty re</w>
Mi ss</w>
st af
mar k</w>
for ces</w>
en se</w>
k ah</w>
incl ude</w>
ha ted</w>
mb ling</w>
fi c</w>
reve aled</w>
i sh</w>
Mor decai</w>
we ap
suffer ing</w>
ha n</w>
gover nor</w>
s ki
je al
cr ying</w>
no on</w>
fe sti
ac i
e ps</w>
we ar</w>
rec ord
plan ted</w>
lear ned</w>
ex c
tur ns</w>
poli tical</w>
decl are</w>
Go ver
syn ago
disa ster</w>
s un
multi p
le ts</w>
e a
S up
S crip
whe at</w>
t to
re jected</w>
re bel
j a
b ought</w>
ho t</w>
Lab an</w>
mili tary</w>
popul ar</w>
Pre sident</w>
dist ance</w>
Philist ine</w>
qu ite</w>
stran ge</w>
de ar</w>
si an</w>
ref use</w>
er o
n on</w>
cover ing</w>
S ay</w>
pres ent
villa ge</w>
ty pe</w>
s ongs</w>
Abi melech</w>
vict ory</w>
spe l</w>
op pos
ex ten
ro d</w>
M ac
sur face</w>
produ ced</w>
en ced</w>
v y</w>
Wil li
P l
hon ey</w>
meas ured</w>
sh on
incre ase</w>
5 4</w>
refu ge</w>
sh ows</w>
p lo
wid ow</w>
Uni on</w>
3 -
you th</w>
do min
Gi de
u tion</w>
hou rs</w>
Ammon ites</w>
king doms</w>
di o</w>
Su rely</w>
t rac
de di
E ar
si milar</w>
des i
de al</w>
z er
end er</w>
th y
hi d</w>
be loved</w>
as s</w>
ni a</w>
n ature</w>
H el
C hal
s now</w>
dri ve</w>
No ah</w>
Le ague</w>
p it
jud ged</w>
be comes</w>
li ke
rescu e</w>
ev id
ci an</w>
sou th
pur ple</w>
s me
spiri ts</w>
l er</w>
vari ous</w>
n al</w>
sil ent</w>
se th</w>
o lder</w>
M at
u m
M ah
ap er</w>
Whi ch</w>
pl ants</w>
vi sit</w>
con o
re mn
kin ds</w>
D es
pla gue</w>
Euro pe
sou thern</w>
l o</w>
wond erful</w>
me aning</w>
asha n</w>
ani sh</w>
fur ther</w>
pre cious</w>
18 9
A cc
– </w>
squ are</w>
care ful</w>
c ere
Sat an</w>
C ap
obe yed</w>
fo l
h ang
fe ll
Ish ma
Shi me
un less</w>
be at</w>
gu ar
G ra
g in</w>
rifi ed</w>
we ll-
re be
k m</w>
er -
leav es</w>
B ashan</w>
S cho
st ub
tow ards</w>
dis covered</w>
E d
ri age</w>
Ch urch</w>
u lt</w>
th a</w>
en coura
Austra lia</w>
shou ted</w>
he at</w>
n atural</w>
cre atures</w>
coun ted</w>
clo sed</w>
In dia</w>
g ent
fe ed</w>
inter pre
prophes y</w>
leav ing</w>
ac tion</w>
e ly</w>
te sti
fi g
offi ce</w>
z a</w>
dire ction</w>
capti vity</w>
shepher d</w>
re move</w>
p ah</w>
at on
me al</w>
S id
C am
A ram</w>
A men</w>
re g
la m</w>
Ze chari
she ke
maj or</w>
for ms</w>
Christi an</w>
dre ssed</w>
tra ve
for ti
escap ed</w>
bit ter</w>
rin k
He bre
lo cal</w>
Chal de
ver se</w>
re sted</w>
consid er</w>
T ab
S ir</w>
pri ce</w>
ligh t
quest i
tele vision</w>
Ch in
p rai
ad dition</w>
staf f</w>
He av
Si me
shad ow</w>
rema ins</w>
en cy</w>
ne ar
Es ther</w>
i al</w>
sheke ls</w>
per formed</w>
wi lling</w>
for est</w>
sc ar
l ower</w>
ge tting</w>
mat eri
record ed</w>
Reho boam</w>
sin ners</w>
d on</w>
cor ru
ca me
fi c
d a</w>
a im</w>
si ze</w>
san cti
K en
rec ord</w>
ord -
troub led</w>
ali ah</w>
mini ster</w>
for gotten</w>
viol ence</w>
ll a</w>
e a</w>
A mal
rejo ic
cl ans</w>
A t
swe ar</w>
supp ort</w>
gh t
e pi
pleas ure</w>
bu lls</w>
Za do
Be th</w>
fl ow</w>
e ign</w>
Gide on</w>
N aph
Ch ina</w>
ed ing</w>
wor th</w>
beau ty</w>
sp ace</w>
in ation</w>
ho od</w>
de termin
Ham an</w>
C he
$ </w>
Zechari ah</w>
Ju de
jo in</w>
divi du
Zado k</w>
ig nor
cul ar</w>
ve ment</w>
5 5</w>
bur y</w>
b ah</w>
Her od</w>
W a
Af ri
sa d</w>
sh out</w>
defi led</w>
Ze bu
star t</w>
origin al</w>
en ever</w>
do gs</w>
Co mm
mpi re</w>
lar ly</w>
ing ton</w>
H itt
5 6</w>
p ity</w>
witn esses</w>
no ise</w>
m ou
gra pes</w>
Europe an</w>
on ia</w>
don keys</w>
Th ough</w>
Mes siah</w>
high est</w>
ar rows</w>
l ted</w>
Y e</w>
B B
Am mon</w>
stre et</w>
oppos ite</w>
d y
Cana anites</w>
ro be</w>
nu mer
inter est</w>
l ines</w>
A sia</w>
wash ed</w>
co ld</w>
temp t</w>
ced ar</w>
respon sible</w>
er ever</w>
stran ger</w>
200 0</w>
la u
mer ci
tre ss</w>
har m</w>
al ing</w>
se v
mo th</w>
te ars</w>
ta li</w>
H ag
m enti
i ed</w>
St ate</w>
six th</w>
l in</w>
an cient</w>
su gg
re bu
leav ened</w>
upri ght</w>
prison ers</w>
de light</w>
trumpe t</w>
I ta
drun k</w>
bapti zed</w>
R ed</w>
ac comp
U ri
spe ech</w>
N ord-
ti red</w>
e k
V </w>
G ate</w>
remn ant</w>
am ar</w>
up per</w>
qu e</w>
d ers</w>
separ ate</w>
rou gh</w>
TH E</w>
200 4</w>
se ll</w>
Ma y
I m
Bel gi
dwe lling</w>
bo ard</w>
Se lah</w>
per secu
messeng er</w>
ke eping</w>
ima ges</w>
he ight</w>
aton ement</w>
as y</w>
1 00</w>
de ep
Nord- Pas-de-Calais</w>
rep a
li c
le -
e dy</w>
t in
fir m</w>
cl an</w>
thin king</w>
in dividu
hor n</w>
do g</w>
sub ject</w>
me tal</w>
comp la
car rying</w>
thir ty-
tro pical</w>
n ah</w>
Jo ash</w>
e g
des ig
de l</w>
' This</w>
mod ern</w>
l es
M c
al o
pro vo
Y es
t ted</w>
con ce
Sam son</w>
T wo</w>
pro c
neigh bor
ho lds</w>
con si
S an
est ed</w>
consu med</w>
con qu
righ t
cei ve</w>
st ation</w>
sacrifi ced</w>
o ck</w>
Sime on</w>
da ily</w>
sett led</w>
ge ts</w>
bur g</w>
P aki
pre gn
G ir
mpi onship</w>
So me
s words</w>
Mor eover</w>
conse cr
ch er</w>
ac qu
b al</w>
Gree k</w>
s us</w>
came ls</w>
as soci
ar med</w>
ab i
Ne ws</w>
A le
moun t</w>
le hem</w>
H ouse</w>
Ca es
A gain</w>
v an
U .
s our
E N
b ac
wo mb</w>
ar gu
Je z
C ali
we eping</w>
ri sh</w>
D ay</w>
Yes hua</w>
th ick</w>
le tters</w>
cha ins</w>
ari </w>
Qu een</w>
ow n
Sar ah</w>
roo ms</w>
oc ca
li vest
in qu
sc roll</w>
ser ving</w>
s na
to mb</w>
te mper
swor e</w>
I .</w>
ow ner</w>
F ri
on e-
Hen ry</w>
glori ous</w>
f it</w>
offic er</w>
t a</w>
suffer ed</w>
satis fied</w>
P </w>
M il
sp rink
ha </w>
pre vi
in th</w>
an g</w>
al -
Jehoi ada</w>
movi e</w>
charac ter</w>
b ly</w>
livest ock</w>
comm it</w>
co at</w>
fl owing</w>
develop ed</w>
O ther</w>
T re
necess ary</w>
ar row</w>
val ue</w>
T ra
seven ty</w>
great est</w>
M ed
si r</w>
l ts</w>
found ation</w>
re al</w>
g ate
stri al</w>
mur der</w>
every where</w>
ter ror</w>
gar ment</w>
con stru
B ur
ever lasting</w>
tre ated</w>
for given</w>
b ound
Naph tali</w>
r us</w>
dem ons</w>
cor re
st at
per haps</w>
tu ally</w>
18 8
bra ss</w>
dis gu
ear th
com pe
believ ers</w>
va in</w>
see ms</w>
list ened</w>
ad vice</w>
pp ing</w>
foreig ners</w>
di stress</w>
So dom</w>
ma y
ma th</w>
ear li
ac ted</w>
loo ks</w>
la bor
pre ss
mour ning</w>
fa ther
P al
1 ,
— and</w>
sum mer</w>
pra yers</w>
clo thed</w>
ran ge</w>
s ite</w>
belong ed</w>
accep ted</w>
spe ar</w>
c ure</w>
b our</w>
In deed</w>
in k</w>
distri bu
Di stri
Jes se</w>
viney ards</w>
val u
Gen eral</w>
ful filled</w>
per sons</w>
he ad
th u
ll er</w>
ide a</w>
I II</w>
s ending</w>
dri ven</w>
am ount</w>
C ent
n y</w>
le vel</w>
Mi z
Beth lehem</w>
tru ly</w>
sur pri
shepher ds</w>
care fully</w>
7 0</w>
win ds</w>
in ches</w>
Aha z</w>
defe at</w>
ea si
co ast</w>
Geor ge</w>
m ate</w>
hor se
cro ssed</w>
M ari
slaugh ter</w>
dra wn</w>
An yone</w>
hi t</w>
g rown</w>
fru its</w>
n on-
ac e
iti z
A na
go lden</w>
cur sed</w>
so le
b bed</w>
pla ys</w>
we ek</w>
re ach</w>
ou ter</w>
ma gi
disap pe
G ed
on ally</w>
ch ur
ob serve</w>
do s</w>
do or
diti ons</w>
iti ons</w>
as es</w>
Jap an</w>
trumpe ts</w>
st ered</w>
langu ages</w>
i e
Ishma el</w>
t op
supp or
ro g
k o
r y
fi er
du ced</w>
ba se</w>
ad ministr
L am
pla ying</w>
sp ent</w>
b right</w>
Israeli te</w>
Acc ording</w>
are as</w>
S il
de gre
r ates</w>
har d
Phili p</w>
L ater</w>
e astern</w>
re lease</w>
ce an</w>
tor n</w>
le gs</w>
Az ariah</w>
young er</w>
mar riage</w>
L ou
thy self</w>
goo ds</w>
F est
pri v
Willi am</w>
200 3</w>
ver eign</w>
did st</w>
s itu
mat ch</w>
the n
t an</w>
T ro
Sp anish</w>
hal f-
an e</w>
pl u
s ent
h on</w>
bo oks</w>
ama h</w>
op ening</w>
bo tto
instru ctions</w>
go spel</w>
Bo ok</w>
v or
ro cks</w>
0 ,000</w>
in depend
off spring</w>
continu ally</w>
c er</w>
mper or</w>
es sional</w>
Scho ol</w>
bes ides</w>
Je ph
t ower</w>
hi stor
s .</w>
divi sion</w>
se em</w>
re vol
sha i</w>
ci d
ash es</w>
Nor man
y es</w>
la ke</w>
a -
regul ar</w>
pro gra
surroun ding</w>
ho lding</w>
S tre
M ini
Ke ep</w>
inv ol
st er
di shon
ce p
mal es</w>
lu n</w>
Zebu lun</w>
5 7</w>
the less</w>
cru shed</w>
pro ble
warri ors</w>
cap tains</w>
shi re</w>
bi lity</w>
be tra
Paki stan</w>
J ab
tre at</w>
so li
pri m
kn owing</w>
an i</w>
com b
beg in</w>
W </w>
ut terly</w>
sc re
d le</w>
as king</w>
c ate</w>
se x</w>
sa ints</w>
Ma j
x i
wat ched</w>
command ers</w>
b ack
Na than</w>
ti ed</w>
sh on</w>
e du
vi l</w>
abund ance</w>
S ch
Re public</w>
a ir
wi lt</w>
si mp
mar ked</w>
c itiz
M in
Jez re
cen ter</w>
at ri
M id
sha ke</w>
ri sing</w>
ho mes</w>
L y
shou lder</w>
ob ject</w>
li fe
mb ers</w>
pu l
curren t</w>
R am
P a
Y </w>
na ked</w>
ke eps</w>
te lls</w>
drin king</w>
Ever ything</w>
Al though</w>
provi de</w>
pati ent</w>
in f
Cali for
wond ers</w>
al le
p .</w>
gu ards</w>
cur tain</w>
u ch</w>
it age</w>
ar m
shi eld</w>
S ho
di sh</w>
wat ching</w>
u tes</w>
reg ard</w>
pro sper
d ens</w>
bl ow</w>
R ev
u re
judg ments</w>
in tro
de b
b loo
Spe ak</w>
Sin ai</w>
she ba</w>
av o
he al</w>
clu b</w>
ag reed</w>
o ldest</w>
e cono
P u
Aha ziah</w>
ru ins</w>
rede e
fal ls</w>
li ar</w>
k no
cal ling</w>
separ ated</w>
Ita lian</w>
se qu
success ful</w>
dev our</w>
coun ty</w>
bur den</w>
1 3
compas sion</w>
T ri
Gibe ah</w>
yo ke</w>
cher ub
S ou
P or
s ach
ever theless</w>
ad ing</w>
tre at
Ash er</w>
Sha ll</w>
D is
we pt</w>
de man
te ar</w>
ta il</w>
man i
fo ols</w>
shar p</w>
a de
Ar mies</w>
la mp</w>
eigh th</w>
b our
t in</w>
p en</w>
is ne</w>
hi </w>
e h</w>
c tri
U. S.</w>
s er</w>
pas sing</w>
g ged</w>
bus h</w>
To day</w>
Shime i</w>
Par ty</w>
si c</w>
ru in</w>
ver sion</w>
ti on
pro ve</w>
ca ve</w>
b orders</w>
E z
con tribu
incre ased</w>
fe ared</w>
wh erever</w>
tal ked</w>
cro ps</w>
it ful</w>
adul tery</w>
po sts</w>
mirac les</w>
smo te</w>
per fu
fing er</w>
de w</w>
an o</w>
A isne</w>
ex ac
al y
E arly</w>
| |
fi cation</w>
mo ving</w>
ci a</w>
M </w>
Egypti an</w>
fa il</w>
Pic ar
fir m
weap ons</w>
en joy</w>
Soci ali
H ur
wor se</w>
wind ow</w>
strong er</w>
K </w>
th less</w>
tab les</w>
po t</w>
fre sh</w>
f t
be ar
d rank</w>
Bal ak</w>
pre y</w>
ag er</w>
Par is</w>
Califor nia</w>
treas ures</w>
bab y</w>
St .</w>
Picar die</w>
re as
pill ar</w>
stre am</w>
sach ar</w>
prof essional</w>
de part</w>
th ah</w>
l ess
ste ad
ll o</w>
Sh ould</w>
to morrow</w>
re pe
cru ci
re cords</w>
pleas ing</w>
p raised</w>
en ess</w>
cor ners</w>
I N
H il
va dos</w>
troub les</w>
Th ree</w>
S hu
Ad am</w>
Jud as</w>
D or
Cal vados</w>
4 -
we eks</w>
tor e</w>
instru ments</w>
ex tre
Ben aiah</w>
transgre s
r o</w>
B asse
Ama ziah</w>
prote ct</w>
S yria</w>
ro of</w>
S av
A ri
llu str
cla y</w>
In tern
sing ing</w>
lea ds</w>
Jude a</w>
wri ter</w>
ev ents</w>
Norman die</w>
5 -
ing u
b an</w>
sp ake</w>
Col le
Cal eb</w>
200 1</w>
surroun ded</w>
cu lt</w>
at a</w>
determin ed</w>
d an
bran ch</w>
West ern</w>
She ma
- Normandie</w>
succ ess</w>
h op
cor ner</w>
teach ers</w>
an ed</w>
a f</w>
Basse -Normandie</w>
sa l</w>
pp er</w>
n ur
hu mble</w>
gr ant</w>
announ ced</w>
vi de
stud y</w>
m n</w>
F lor
flo od</w>
d own
s pl
v </w>
fin ally</w>
Wo e</w>
Chalde ans</w>
n ic
l le</w>
hur ricane</w>
M ag
exal ted</w>
P en
sel f-
ther wise</w>
de vo
C H
g le
lin ess</w>
ati on
a ve</w>
An ti
high er</w>
ef fect</w>
R es
safe ty</w>
po les</w>
d ried</w>
Bar n
qu een</w>
li sh
enti al</w>
disc us
L at
c ree</w>
st ates</w>
sou ls</w>
so be
lar ger</w>
forti fied</w>
fell ow
m el</w>
com mon
tit le</w>
teach ings</w>
te e</w>
ar chi
S wit
so m</w>
m pl
ach es</w>
Is sachar</w>
E up
lo cu
keep ers</w>
k in</w>
fur y</w>
e qui
5 8</w>
provi ded</w>
sho t</w>
A B
l ou
col or</w>
W ar
w aves</w>
di sobe
b ars</w>
Mi dian</w>
P ow
heav enly</w>
c at
there in</w>
d ama
de cre
an ah</w>
cere mon
bab ly</w>
ef s</w>
devi l</w>
b are</w>
Lo t</w>
ani a</w>
mour n</w>
li m
we ep</w>
con ven
Miz pah</w>
ri ty</w>
no te</w>
li ter
J or
st y
p ron
′ ah</w>
yri ans</w>
C ur
ow ned</w>
an ese</w>
Co mp
o logi
In ter
I tal
min ds</w>
comp u
Swit zer
Chin ese</w>
requ ired</w>
ogra phy</w>
Switzer land</w>
Ital y</w>
G al
en du
6 -
ti cs</w>
sh ine</w>
comple ted</w>
A no
aband oned</w>
st ar</w>
for sa
ev il
d it
c o</w>
ou gh
gener ally</w>
weigh ed</w>
con st
capti ve</w>
vel s</w>
ud d
th ro
su bur
f ro
wat ch
es sions</w>
Ro yal</w>
v a</w>
rebe lled</w>
am ent</w>
C re
s and
2 1
pro ce
desi res</w>
att ers</w>
assemb led</w>
in j
du ty</w>
past ure</w>
inv ited</w>
e an</w>
wo o
sil ence</w>
ent al</w>
t an
mo vement</w>
jo y
ab ad</w>
restor e</w>
li t</w>
l on</w>
di ah</w>
spiri tual</w>
Eli </w>
than k</w>
pre ach</w>
festi val</w>
exi le</w>
chur ches</w>
2 -
ke ts</w>
abi lity</w>
op h
ci ans</w>
ca uses</w>
synago gue</w>
bene ath</w>
tru sted</w>
go dly</w>
ha m
ex per
ari ly</w>
am ed</w>
6 5</w>
ri d</w>
ef fe
N ever</w>
th am</w>
ri s
fig ure</w>
per form</w>
at o
Gil gal</w>
lo ts</w>
faith fulness</w>
c king</w>
bo ys</w>
at ors</w>
Intern ational</w>
Eup h
th in</w>
gu n</w>
sup pose</w>
w ounded</w>
m itted</w>
Shema iah</w>
pu tting</w>
plan ned</w>
oni ans</w>
A qu
trave led</w>
mou ths</w>
and er</w>
T im
On ce</w>
str a</w>
exac tly</w>
cla ss</w>
af fe
emp lo
botto m</w>
Distri ct</w>
tt e</w>
great ness</w>
U T
S we
ne eded</w>
wa ited</w>
se le
s and</w>
fur n
N ah
A i</w>
ev ed</w>
ti ve</w>
ni </w>
estab lish</w>
G </w>
5 00</w>
Je bus
ne th</w>
l ack</w>
fe el
At lan
18 7
sh or
pu lled</w>
in ting</w>
pleas ant</w>
ch est</w>
ad d</w>
Char les</w>
organi zation</w>
ri te</w>
che mi
Ad oni
ne edy</w>
fi g</w>
Pl ace</w>
E mpire</w>
200 2</w>
ad ly</w>
dire cted</w>
tra de</w>
cla ssi
ter i
pro ved</w>
ch ance</w>
Te acher</w>
K ar
J U
numer ous</w>
f requ
lo aves</w>
k ened</w>
gir ls</w>
stran gers</w>
p y</w>
Jezre el</w>
Ear th</w>
1 .
bow l</w>
M el
G ath</w>
inher it</w>
ct ors</w>
Tho mas</w>
G ar
pro claim</w>
confid ence</w>
Ar k</w>
z i</w>
5 9</w>
twi ce</w>
sig ni
thor ns</w>
develop ment</w>
s ort</w>
m ach
Jehoi akim</w>
u ten
promi ses</w>
pre ached</w>
ama zed</w>
ad vers
whe els</w>
wa i
rel ations</w>
k a</w>
W W
t all</w>
stub born</w>
north west</w>
al thy</w>
streng the
sle w</w>
I re
Gibe on</w>
E v
hon ored</w>
cru el</w>
c atch</w>
go eth</w>
in o
fla me</w>
L in
H esh
ER </w>
sy mb
oc cur
gover n
e ph
ar rog
s co
rel ated</w>
pha n</w>
ha il</w>
pa ths</w>
lo h</w>
Euph rates</w>
Ab out</w>
lamp s</w>
usu al</w>
ne arly</w>
i el</w>
hi red</w>
she th</w>
ele ctri
Ne b
scat ter</w>
p ho
me ant</w>
lat ter</w>
S an</w>
un g
si mple</w>
pron oun
t ors</w>
requ est</w>
bo x</w>
b ited</w>
win ter</w>
eph od</w>
te sted</w>
her itage</w>
hear s</w>
cherub im</w>
materi al</w>
di ence</w>
d anger</w>
ar ran
ab as</w>
ob served</w>
Car ol
tra p</w>
se as
pregn ant</w>
f ed</w>
cal ls</w>
s -
ha ll</w>
grow ing</w>
Si hon</w>
v ow</w>
so ft</w>
lo ck</w>
cent ral</w>
Prin ce</w>
sy mp
roo t</w>
instru ction</w>
ima g
go d
spo t</w>
cra ft</w>
bas es</w>
ne eds</w>
ber g</w>
kne es</w>
C la
wor k
w ound</w>
ow l</w>
fin al</w>
celebr ate</w>
Gover nment</w>
in formation</w>
a de</w>
st age</w>
includ es</w>
dre ams</w>
uni on</w>
sp end</w>
M us
hu ge</w>
bri dge</w>
sho ok</w>
sel ess</w>
lo ose</w>
light ning</w>
for ty-
war ned</w>
Ire land</w>
Hesh bon</w>
tain ing</w>
t us</w>
pra ying</w>
pal m</w>
bar ley</w>
ti </w>
Li b
Jap anese</w>
ef for
Fo ot
ro lled</w>
ki lling</w>
ast oni
Micha el</w>
lo v
U S
practi ce</w>
ap par
M as
Barn abas</w>
ck et</w>
inter national</w>
fl owers</w>
dedi cated</w>
r .</w>
de al
P la
7 -
vide o</w>
pl under</w>
numb ers</w>
equ al</w>
B il
sle pt</w>
happ ens</w>
for tun
dist in
B </w>
scri bes</w>
6 2</w>
f ying</w>
M ex
y ear
sub st
she l
despi sed</w>
A ll-
prostitu te</w>
ne t
i son</w>
bas ket</w>
sa bb
sal t</w>
mur der
affli cted</w>
C S
ri ous</w>
re ction</w>
pro bably</w>
lo yal</w>
diti onal</w>
spo il</w>
ab ly</w>
Mex ic
é </w>
it a
stu mble</w>
on ing</w>
si e
p aper</w>
l ac
fier ce</w>
est im
cre ature</w>
lo s
appe ars</w>
W ord</w>
u ally</w>
so f
re -
hon est</w>
as ks</w>
V er
Can ada</w>
Ale x
th ites</w>
o -
fu n</w>
op p
n ative</w>
it er
diffi cult</w>
M en</w>
un t</w>
s onal</w>
da y
b on
Heav en</w>
thre shing</w>
te ch
spi ces</w>
lau gh</w>
disci pl
Tur n</w>
Cent ral</w>
Bo th</w>
under stood</w>
sl ow
sac k
re vi
au th
E le
pa ir</w>
gra du
dou ble</w>
R amah</w>
Austra lian</w>
ta x</w>
pl enty</w>
n ine
iti ve</w>
z es</w>
Lev ite</w>
te acher</w>
hun ger</w>
hon our</w>
cal f</w>
be half</w>
H on
ren t</w>
` And</w>
stic s</w>
She ba</w>
K ad
F ed
wid ows</w>
inte l
scri be</w>
righ ts</w>
d ru
Sid on</w>
Ar men
Afri ca</w>
stand ard</w>
pre t
her ds</w>
care er</w>
b one</w>
B re
stitu tion</w>
sei zed</w>
her d</w>
ge ance</w>
V ic
horse men</w>
grac ious</w>
divi sions</w>
par t
id a</w>
ex t</w>
dro ve</w>
bui ld
thir sty</w>
c ar</w>
Re be
O ly
ca u
Shi loh</w>
Asa ph</w>
ye a</w>
ther ing</w>
ho li
curren tly</w>
Do es</w>
ter rified</w>
lo ss</w>
he ed</w>
divi de</w>
Mica h</w>
Je w</w>
op pressed</w>
capti ves</w>
Lo ve</w>
8 -
ron ic
be coming</w>
wor thless</w>
sp er</w>
g ames</w>
Le ah</w>
vo ic
goo dness</w>
e zer</w>
coura ge</w>
The e</w>
T L
simp ly</w>
repor ts</w>
sor ry</w>
tou ches</w>
c he</w>
X </w>
9 -
than k
le ep</w>
fin ds</w>
ex pla
M .</w>
er gy</w>
cho ice</w>
z y</w>
n est</w>
forsa ken</w>
deli ver
Ano ther</w>
com pos
rescu ed</w>
Na zar
bo ast</w>
prof it</w>
sm aller</w>
prai ses</w>
cha mber</w>
Ri ch
he th</w>
evid ence</w>
pre va
fa iled</w>
di vor
fer ence</w>
ban k</w>
an gu
Uri ah</w>
influ ence</w>
wa ve</w>
memor y</w>
g an</w>
any more</w>
Pe ace</w>
Is land</w>
vir gin</w>
Ki ri
sabb ath</w>
li ous</w>
Pro phe
pi cked</w>
per fe
6 4</w>
min utes</w>
co vers</w>
sour ce</w>
ordin ary</w>
Sha m
poli ce</w>
Scrip tures</w>
sack cloth</w>
vi lle</w>
sum mon
g ar</w>
ari se</w>
ar o
gri ef</w>
fa ir
char ged</w>
Colle ge</w>
per man
cr y
tra ge
st le</w>
ro le</w>
re sid
k el</w>
fellow ship</w>
ev ent</w>
cha sed</w>
W ith
Se ir</w>
Belgi an</w>
si st</w>
neighbor s</w>
Jor am</w>
sp ort</w>
sp are</w>
se cure</w>
re built</w>
he alth</w>
appro ached</w>
N evertheless</w>
su ffi
ru ined</w>
T hi
str on
de cree</w>
affli ction</w>
i ds</w>
hund re
fi xed</w>
pro per</w>
p pi
ob jects</w>
n inth</w>
f ashi
S end</w>
ves sel</w>
ton gues</w>
cha se</w>
bound ary</w>
wind ows</w>
in o</w>
be th</w>
Atlan tic</w>
Z o
shou lders</w>
po ol</w>
ho le</w>
bre ad
a di
Hebre w</w>
sp he
mer ch
me ly</w>
e ats</w>
questi ons</w>
fa st
ele cted</w>
da wn</w>
ari us</w>
U </w>
N or</w>
C i
un leavened</w>
sc al
reali zed</w>
ra di
mar ched</w>
enti rely</w>
differ ence</w>
as signed</w>
stor e</w>
ser p
fall ing</w>
an while</w>
sh ore</w>
crow ds</w>
an ced</w>
N ext</w>
x im
ti le</w>
priv ate</w>
d r
b les</w>
6 1</w>
lla m</w>
ex t
wond er</w>
sur rection</w>
be aten</w>
my st
Mer ari</w>
st ro
K ings</w>
tre mble</w>
m ers</w>
earli er</w>
common ly</w>
sc he
rebel lious</w>
m atic</w>
Ne ither</w>
op por
repro ach</w>
6 6</w>
pu ts</w>
mi th</w>
ha z</w>
dre ss</w>
bla sphe
Mo ab
shi elds</w>
provin ces</w>
rema ining</w>
la ble</w>
d eri
circumci sion</w>
al ty</w>
ru st</w>
roo ts</w>
ho me
gre ss</w>
descri bed</w>
an cy</w>
a ver
sp rings</w>
slow ly</w>
on e
con spi
experi ence</w>
e asy</w>
co o
Lam b</w>
Coun cil</w>
le ys</w>
g or
er ous</w>
Ha math</w>
war ded</w>
stor ies</w>
pre par
mi sh</w>
ste ms</w>
st ir
o ch</w>
Li fe</w>
the ory</w>
ter ms</w>
so jour
sing ers</w>
it able</w>
bo o
6 3</w>
tran sl
er ah</w>
d —
ad op
Joh an
ra il
se ction</w>
con ditions</w>
Oly mpi
p owers</w>
dire ct</w>
di r
cke ts</w>
stre ams</w>
foll ows</w>
bow ls</w>
sc ur
chang es</w>
Ro ck</w>
viol ent</w>
ac tions</w>
tra vel</w>
im possible</w>
g on</w>
No thing</w>
st ep</w>
pos si
fing ers</w>
ce ase</w>
can ton</w>
ub ba
jo b</w>
f ran
Na me</w>
after noon</w>
H av
ti er</w>
se as</w>
se ts</w>
V ir
Ni le</w>
Mr s.</w>
uri es</w>
ser vi
S us
In dian</w>
see king</w>
de mo
ido l</w>
foreig ner</w>
we ary</w>
sh op</w>
coun cil</w>
N one</w>
== ==
cur tains</w>
as leep</w>
T it
M y
M ad
merci ful</w>
Pow erful</w>
s par
proc ess</w>
ac es</w>
B ru
De mo
D ra
sing er</w>
pro claimed</w>
pe dia</w>
ma g
after ward</w>
y a</w>
scar let</w>
o logy</w>
che stra</w>
ancest or</w>
re present
expe cted</w>
hy po
L ad
y ment</w>
u b</w>
summon ed</w>
brea king</w>
as ses</w>
prophes ied</w>
first -
cha mbers</w>
Con ni
7 5</w>
wr ong
s men</w>
B Y
ven geance</w>
G r
redee med</w>
av ai
Per sia</w>
Lat in</w>
ve il</w>
re ck
oppor tun
exce ll
di lig
war m</w>
no se</w>
d ate</w>
r ine</w>
is lands</w>
du g</w>
subur bs</w>
o me</w>
S ing</w>
ste al</w>
slaugh tered</w>
ha bit
Ti mo
R abb
succe eded</w>
so cial</w>
six ty</w>
arti cles</w>
Ben -
vi sions</w>
ac tor</w>
recogni zed</w>
im mor
swor n</w>
ordin ances</w>
ma li
deci de</w>
s _</w>
gu it
ga ined</w>
f light</w>
abomin ations</w>
b ar</w>
an ite</w>
I S
ki </w>
Uzz iah</w>
war ning</w>
po l
an nu
Caes ar</w>
C u
val leys</w>
physi cal</w>
individu al</w>
wh enever</w>
ind ing</w>
abomin ation</w>
se ated</w>
co st</w>
be ha
Cha mpionship</w>
shou ting</w>
d ered</w>
so il</w>
or ity</w>
list ed</w>
W as</w>
tal ents</w>
poss essions</w>
ma id</w>
sie ge</w>
prison er</w>
asha </w>
Ber lin</w>
temp ted</w>
maj esty</w>
li ber
adv ant
S how</w>
O ri
Ged aliah</w>
cruci fied</w>
Su ch</w>
ro bes</w>
dire ctly</w>
ba ths</w>
W ash
AB R
cri me</w>
Hil kiah</w>
E mperor</w>
Be er
A N
199 8</w>
k m
found ations</w>
restor ed</w>
op ini
fri end
Eli za
ele ven</w>
Tru ly</w>
O ver
Jon ah</w>
2 00</w>
t une</w>
ath ar</w>
Au stri
re surrection</w>
ma ss</w>
Sup pose</w>
Bri tain</w>
ble w</w>
2 ,
vi a</w>
sa y
ck y</w>
bread th</w>
I th
th ite</w>
UT EN
Ro me</w>
mo stly</w>
build ings</w>
Y LT></w>
W EB></w>
W ></w>
UTEN ></w>
TL B></w>
S G></w>
RA ></w>
R V></w>
O G></w>
L V></w>
L EB></w>
KJ V></w>
KJ 21
KJ21 ></w>
JU B></w>
H CS
HCS B></w>
ER V></w>
E T></w>
E SV></w>
C V></w>
C B></w>
BY ></w>
BB E></w>
AR BY></w>
ABR E></w>
A SV></w>
<S WKP></w>
<S DIVCOM></w>
<NI V></w>
<NI RV></w>
<N WKP></w>
<N RSV></w>
<N OG></w>
<N LV></w>
<N LT></w>
<N KJV></w>
<N ET></w>
<N DIVCOM></w>
<N CV></w>
<N ABRE></w>
<M SG></w>
<M EV></w>
<I SV></w>
<I CB></w>
<GN V></w>
<GN T></w>
<G W></w>
<G UTEN></w>
<D RA></w>
<D ARBY></w>
<C EV></w>
<C EB></w>
< YLT></w>
< WEB></w>
< TLB></w>
< RSV></w>
< LEB></w>
< KJ21></w>
< JUB></w>
< HCSB></w>
< ESV></w>
< ERV></w>
< BBE></w>
< ASV></w>
199 9</w>
na sty</w>
m atters</w>
fac ed</w>
at ory</w>
ac y</w>
Ko hath</w>
H as</w>
mp h</w>
con cub
Me anwhile</w>
w ed</w>
li ties</w>
dis grace</w>
S en
Mini ster</w>
B or
jeal ous</w>
dd ing</w>
Fest i
ser ious</w>
mi ser
beg ged</w>
S pain</w>
O be
Par k</w>
Ang el
laugh ed</w>
fa thered</w>
ele ct
Th rough</w>
sme ll</w>
noti ced</w>
cour ts</w>
bre asts</w>
an k</w>
O ffi
pre aching</w>
f ly</w>
be ings</w>
b ag</w>
V o
treas ure</w>
se al</w>
li cation</w>
appoin t</w>
mb er
hu mans</w>
Had ad</w>
b ig
C er
sl ow</w>
bre ast</w>
ac compani
the ast</w>
stron gh
p le
c rac
per su
r is</w>
pursu e</w>
per for
p age</w>
over come</w>
U S</w>
Kor ah</w>
ast ray</w>
w ag
ri am</w>
N un</w>
temp or
as sa
Rebe kah</w>
s its</w>
like wise</w>
easi ly</w>
All- Powerful</w>
poss essed</w>
m ach</w>
Bo az</w>
t t</w>
sh owing</w>
pro mo
bro ad</w>
y east</w>
regar ded</w>
Isra el
E thi
soldi er</w>
er ation</w>
bless ings</w>
be aring</w>
Am ong</w>
Abi athar</w>
fac ing</w>
fa int</w>
we aring</w>
up ward</w>
per sonal</w>
me ter</w>
S ab
H all</w>
Amal ek
v ent</w>
desol ation</w>
cle arly</w>
avai lable</w>
th under</w>
dev oured</w>
re pu
chi efs</w>
b iah</w>
sev ere</w>
ha tes</w>
g all
b ond
Ethi op
C our
supp ly</w>
le gal</w>
fif teen</w>
Am non</w>
young est</w>
t ops</w>
se tting</w>
scur vy</w>
ra ge</w>
r ation</w>
Ez ra</w>
list ening</w>
P eri
me gran
ll um</w>
despi se</w>
consu me</w>
w are</w>
le g
fl at</w>
cri es</w>
T amar</w>
voic es</w>
pl ate</w>
i cal</w>
Timo thy</w>
Jeph thah</w>
v ines</w>
re ven
ex plain</w>
Lo ire</w>
refer red</w>
la p
A rise</w>
testi fy</w>
r ate</w>
pi ed</w>
Me eting</w>
Mac ed
A ca
v ali
produ ction</w>
ous y</w>
inv est
gu ide</w>
L o</w>
A ward</w>
po megran
multip ly</w>
ke dness</w>
cap ture</w>
ri sen</w>
rel ative</w>
pl at
So vereign</w>
v als</w>
ta x
on de</w>
in fe
ingu i
R </w>
H al
su dden</w>
respon ded</w>
pursu ed</w>
doub t</w>
con ceived</w>
” </w>
sty le</w>
pu ll</w>
perfu me</w>
ba diah</w>
Y oun
Per haps</w>
strengthe ned</w>
hi ding</w>
con dition</w>
Ca tho
Abi jah</w>
cul ture</w>
co -
clo sely</w>
rede em</w>
issu e</w>
for tress</w>
vin ce</w>
regi ons</w>
ha u
sp or
ra ble</w>
origin ally</w>
des ired</w>
Fin ally</w>
199 4</w>
un circumcised</w>
rep ly</w>
de mon
T or
Scot land</w>
F re
then ce</w>
ru p
cu larly</w>
un cle</w>
tribu te</w>
Bar uch</w>
sp here</w>
pres ents</w>
on to</w>
free dom</w>
quar ters</w>
ma d</w>
tri p</w>
do m
de test
b id
b att
In du
Ha z
y i
rebu ke</w>
hear ken</w>
wor ld
ti e</w>
par able</w>
eag le</w>
ce -
fu sion</w>
O ut</w>
H im
Festi val</w>
' Do</w>
s ity</w>
re ver
d ying</w>
be lt</w>
hu r</w>
di ent</w>
ag ree</w>
Ma ac
Foot ball</w>
qu ake</w>
ma sters</w>
keep er</w>
ca using</w>
jeal ousy</w>
en ergy</w>
scri p
dist ant</w>
detest able</w>
cre d
am an</w>
sci enti
ic a</w>
it ting</w>
ar ch
ac tually</w>
L or
8 0</w>
pas ses</w>
no vel</w>
menti oned</w>
in ev
b ert</w>
al d</w>
Rich ard</w>
Jo tham</w>
Wi ki
Sha phan</w>
u mb
reali ze</w>
for sake</w>
deser ted</w>
Pri est</w>
tre sp
lo vers</w>
distri cts</w>
Mi riam</w>
vi sit
c us</w>
parti cular</w>
ita ine</w>
ga thering</w>
a z
Wh erefore</w>
wea ther</w>
g en</w>
f at
stret ch</w>
sla y</w>
sci ence</w>
li ghts</w>
R h
Aqu itaine</w>
m us
Sa x
S un
nor mal</w>
g ene
endu res</w>
signi fic
poin ts</w>
i ll</w>
disci ple</w>
cont ent</w>
Tab ernacle</w>
E lam</w>
sna ke</w>
she kel</w>
w rest
li ament</w>
gran ted</w>
ga z
fo ld</w>
ent ers</w>
de fin
d in
charac teri
appro ach</w>
Han aniah</w>
De ath</w>
te ams</w>
t es
er a</w>
B ran
ni ghts</w>
en -
deci sion</w>
un ch</w>
t less</w>
Wash ington</w>
por ch</w>
instru cted</w>
fav or
ta ste</w>
parti cularly</w>
grand son</w>
Se cre
D arius</w>
ld ed</w>
B C</w>
tre mbling</w>
sle eping</w>
poin ted</w>
man ce</w>
la i</w>
i z
destro ying</w>
bo ards</w>
L ake</w>
Ba asha</w>
t ition</w>
s killed</w>
m ing
W he
Rus sian</w>
N ab
L and</w>
read ing</w>
pi ck</w>
free ly</w>
am a</w>
organi zed</w>
opportun ity</w>
ma id
Ste ph
Mu sic</w>
un able</w>
stru cture</w>
s ation</w>
ligh tly</w>
furn ace</w>
dece it</w>
ari an</w>
F ur
ro pes</w>
four teen</w>
Hi ram</w>
g a</w>
celebr ated</w>
Gir onde</w>
Car mel</w>
sor e</w>
di spo
consci ence</w>
W in
t ings</w>
he aded</w>
Sav ior</w>
w ages</w>
si c
p ers</w>
he ll</w>
religi on</w>
condem ned</w>
claim s</w>
citiz ens</w>
B apti
mar ch</w>
acti ve</w>
Sha llum</w>
S ci
k k
di a
car ved</w>
bor ne</w>
Je hor
0 -
tra vel
se aled</w>
po t
na kedness</w>
mi ssi
cre ation</w>
T al
An y</w>
ri de</w>
k am</w>
end ure</w>
Rob ert</w>
Jehor am</w>
sha n</w>
se ttle</w>
N ao
safe ly</w>
sa v
locu sts</w>
lo ving</w>
inst ance</w>
dra wing</w>
sh ining</w>
issu ed</w>
van ity</w>
ty pes</w>
ser ves</w>
pi cture</w>
do ct
burn t-
Aca de
sp lit</w>
rejoic ed</w>
po st</w>
hundre ds</w>
e mer
d ges</w>
ct ures</w>
Y ea</w>
sa h</w>
Hitt ites</w>
stru gg
sett le
s ites</w>
h en
9 0</w>
hu d</w>
feel ing</w>
er xes</w>
er ly</w>
concer ned</w>
Jes hua</w>
run s</w>
interpre tation</w>
igh ts</w>
f right
D eli
in t-
L a</w>
sto mach</w>
sn are</w>
form ing</w>
Adoni jah</w>
tra in</w>
ro ar</w>
p p</w>
tab lets</w>
noti ce</w>
bi a</w>
desc ended</w>
w ounds</w>
govern ors</w>
Nao mi</w>
ment al</w>
lea ther</w>
C le
wor n</w>
ob serv
l on
independ ent</w>
Mexic o</w>
199 7</w>
f loo
deal t</w>
auth or</w>
O ld</w>
a hi
She ol</w>
wo ol</w>
cru sh</w>
a se
He z
w ake</w>
south west</w>
si ls</w>
row ing</w>
is m</w>
high ly</w>
vi cti
sup posed</w>
ki ssed</w>
intro duced</w>
fi gs</w>
e di
ap ers</w>
Cy rus</w>
ho oks</w>
exten ded</w>
dist ur
appro xim
sha ken</w>
mp tion</w>
ma keth</w>
g as</w>
Ho sts</w>
A th
6 7</w>
press ure</w>
advant age</w>
Nazar eth</w>
As soci
pe ace
believ es</w>
as su
la me</w>
iniqu ities</w>
char ges</w>
an -
cre ate</w>
col um
cent re</w>
ac ting</w>
Mes hu
near by</w>
fa ult</w>
as sist
P aci
un faithful</w>
pro sper</w>
gi veth</w>
Mica iah</w>
L E
san g</w>
prin cip
Ph ine
en vi
beg at</w>
T V</w>
p ite</w>
e un
de g
clo ck</w>
Rus sia</w>
As k</w>
A P
p her</w>
l ting</w>
b y
M oun
Ha za
u seless</w>
thi ef</w>
qui e
no bles</w>
inha bited</w>
be g</w>
Vic tor
succe ed</w>
phi los
he ap</w>
dep ths</w>
dama ge</w>
Chi ca
C en
tre ach
hu mbled</w>
f th</w>
consecr ated</w>
St ay</w>
sm it
servi ces</w>
qu o
oun ding</w>
llustr ation</w>
G l
tri al</w>
sho ot</w>
po ses</w>
l er
dro pped</w>
con ver
ce ased</w>
J ack</w>
Hitt ite</w>
Bl ack</w>
B es
z en</w>
tri u
stra w</w>
sol u
l ly</w>
degre e</w>
d ad</w>
accompani ed</w>
a like</w>
A h</w>
vi sible</w>
p sy
am ing</w>
H y
F ear</w>
Chica go</w>
g rows</w>
P ub
sk ins</w>
previ ous</w>
li us</w>
d ang
Mi di
we b
ran ean</w>
me less</w>
i ll
ca kes</w>
U K</w>
E sh
6 8</w>
de er</w>
ali ties</w>
WW E</w>
st ate
Su n</w>
Se con
w re
comfor ted</w>
Youn g</w>
Paci fic</w>
thir st</w>
survi v
streng then</w>
fe ar
C .</w>
’ s</w>
en i
compu ter</w>
ble mish</w>
T ob
' What</w>
sm ite</w>
rep ay</w>
north western</w>
ki ss</w>
j ar</w>
id enti
fru itful</w>
T ran
sw allowed</w>
har p</w>
clean sed</w>
A chi
worshi ping</w>
sy stems</w>
sole mn</w>
per son
opini on</w>
commun ic
T ex
Re turn</w>
I rish</w>
ut ch</w>
see ds</w>
s —</w>
Zer u
W at
S even</w>
six teen</w>
re placed</w>
ye llow</w>
sh ort
where in</w>
stu died</w>
serp ent</w>
ci vi
in iti
execu ted</w>
en tering</w>
diffi cul
def end</w>
b ag
Scrip ture</w>
Jo e</w>
s at
re vel
p ag
hor ri
h ar</w>
ere ly</w>
des ign</w>
ci es</w>
arm or</w>
ac ia</w>
pla ins</w>
grow th</w>
wid th</w>
p lot</w>
lo ad</w>
defi le</w>
d am
ar rested</w>
Un der</w>
sancti fied</w>
perman ent</w>
n el</w>
li ver</w>
hu man
d do</w>
Sat ur
N u
M ine</w>
J .</w>
Eliza beth</w>
C up</w>
0 .
sha ped</w>
s ow</w>
c and
b its</w>
A mo
stitu te</w>
se er</w>
s giving</w>
blo ck</w>
aver age</w>
ac cid
Johan an</w>
Jebus ites</w>
Amalek ites</w>
Abi shai</w>
hun g</w>
e ast
de ceived</w>
Sa int-
H as
Conni ston</w>
B est</w>
200 9</w>
t ar</w>
sha pe</w>
my r
fini sh</w>
di um</w>
de ceive</w>
compani ons</w>
cen sus</w>
bra ve</w>
Jud a</w>
m ere</w>
ess or</w>
' If</w>
t ender</w>
ho sp
custo m</w>
Ar non</w>
whi r
gla ss</w>
exce ed
en camped</w>
Med iter
Hi v
k la
fe atures</w>
de cor
contro lled</w>
E S
our ing</w>
n arrow</w>
father -in-law</w>
est ing</w>
Mediter ranean</w>
ma gni
dise ases</w>
descend ant</w>
W is
Ni co
— a</w>
subst ance</w>
sha de</w>
ren der</w>
m erely</w>
lo me
b ent</w>
wel come</w>
te l</w>
man ager</w>
expla ined</w>
ent ually</w>
accep table</w>
M att
Gre en</w>
vis ited</w>
ing ed</w>
glori fied</w>
exceed ingly</w>
ele ction</w>
domin ion</w>
cor p
continu es</w>
Wal es</w>
St and</w>
Phine has</w>
Acade my</w>
secu rity</w>
gg ing</w>
ex pl
Whi te</w>
B ir
sta irs</w>
m esh</w>
beha vi
ep hah</w>
disgu sting</w>
cy cl
Sociali st</w>
wra pped</w>
ha ste</w>
cu tting</w>
at tempt</w>
a haz</w>
M is
D r.</w>
to- day</w>
mp ed</w>
mi le</w>
Maced onia</w>
secre tly</w>
hel ps</w>
epi so
T ir
Haza el</w>
E l</w>
Ara means</w>
net work</w>
ke t
k er
Meshu llam</w>
J im</w>
ti onal</w>
te xt</w>
t le</w>
multip lied</w>
mar ks</w>
b and
B attle</w>
quar re
n av
hypo cri
des igned</w>
v ul
prin ci
it tee</w>
gla dness</w>
des h</w>
believ ing</w>
beg ins</w>
be d
al lo
after wards</w>
Maj esty</w>
6 9</w>
y n</w>
ki lls</w>
hat soever</w>
stead fast</w>
re qui
deman ded</w>
Y ear</w>
Nor thern</w>
199 6</w>
proble ms</w>
mo tion</w>
be got</w>
Eph es
re mo
qu ick</w>
cub it</w>
con tains</w>
aw ake</w>
th rust</w>
spl end
re ject</w>
lo y
four teenth</w>
cha ir</w>
c in
bo sheth</w>
P atri
Ash erah</w>
ve -
like ly</w>
fi gu
weigh ing</w>
u se
se um</w>
pi er
offici ally</w>
fright ened</w>
f are</w>
bro ad
cal am
bri de</w>
ab ri
4 00</w>
them ati
ex er
d '
a x
wo l
ven ess</w>
respon si
l ers</w>
fl ower</w>
Zer ubba
A la
wor ry</w>
Zerubba bel</w>
O g</w>
E k
wal ks</w>
lor ds</w>
joy ful</w>
dire ctor</w>
de l
Re pha
E r
ref le
pati ence</w>
le g</w>
cr atic</w>
F u
author ities</w>
Babyl onians</w>
ve ge
new sp
musi cal</w>
mini stry</w>
fore head</w>
eigh teen</w>
cap it
ati ves</w>
F er
war n</w>
kind led</w>
u x</w>
tre s</w>
qu et</w>
de mon</w>
An drew</w>
whe el</w>
re stra
i lah</w>
con fusion</w>
co ast
bur gh</w>
ta ils</w>
s ends</w>
or acle</w>
on ies</w>
main ly</w>
m ous</w>
ind er</w>
hi re</w>
d inner</w>
ab road</w>
A c
ti ci
invol ved</w>
o cean</w>
c ord</w>
beli ef</w>
S yrians</w>
Pro vince</w>
ud es</w>
ho liness</w>
ful fill</w>
f ted</w>
en ter
cor e</w>
bl u
a ths</w>
Sar the</w>
O pen</w>
Go mor
Bro thers</w>
thi gh</w>
devo ted</w>
aw are</w>
N inev
Catho lic</w>
C ho
soli d</w>
itt le</w>
daugh ter
condu ct</w>
2 .
tow ers</w>
previ ously</w>
fra mes</w>
es ome</w>
er ship</w>
W hatever</w>
on y
n ow
me th
wi ll
sent ence</w>
repa ired</w>
oni an</w>
lo ins</w>
dro p</w>
con fir
clean ness</w>
a wa
S ta
yri an</w>
st ol
accomp lished</w>
Lou is</w>
H </w>
Ca in</w>
199 5</w>
temper ature</w>
pu rifi
produ ces</w>
per pe
den y</w>
ano inting</w>
Zeru iah</w>
W ould</w>
w rought</w>
twenty- five</w>
smi le</w>
n ings</w>
merch ants</w>
fa irs</w>
d ged</w>
be gun</w>
Ar my</w>
ut ter</w>
cir cle</w>
attac ks</w>
L ong</w>
Hur ricane</w>
stir red</w>
c ows</w>
answ ering</w>
Sa ve</w>
Ru th</w>
re con
ologi cal</w>
no min
ne ts</w>
ic s</w>
har ps</w>
H ear
te m
pe st
pa in
hus bands</w>
edu cation</w>
d al
am bush</w>
s man</w>
ll ar</w>
intel lig
ex claimed</w>
cal ves</w>
as ing</w>
all est</w>
st am
s ounds</w>
kn i
ir ing</w>
acc us
Wiki pedia</w>
Neb at</w>
practi ces</w>
por tions</w>
po llu
n au
Mar k</w>
C ru
men tion</w>
invest ig
ex pen
du ties</w>
bi lee</w>
_ The</w>
Zer ah</w>
Anti och</w>
3 ,
twel fth</w>
execu te</w>
do ve</w>
deser ve</w>
consi sts</w>
C all</w>
tu ral</w>
tr ack</w>
to gra
pre ci
o '
myst ery</w>
in spi
b at
D on
sin ner</w>
scho ols</w>
m mer</w>
lou dly</w>
e ms</w>
cont rac
Di vision</w>
tw are</w>
et ings</w>
do ves</w>
L achi
G es
' We</w>
mpi on</w>
do ctor</w>
cha in</w>
ase iah</w>
Z im
O m
E no
t teth</w>
st ati
si sted</w>
g in
es —
ano int</w>
Mar tha</w>
Him self</w>
trage dy</w>
meas ures</w>
com mer
Lachi sh</w>
Af ter
A ir
recogni ze</w>
gent le</w>
D en
ter n</w>
recei ves</w>
lo s</w>
Tar shi
Lad y</w>
ud ed</w>
spe ars</w>
situ ation</w>
ser a</w>
ru d
ro ads</w>
ri ses</w>
or ies</w>
jour ne
discipl ine</w>
O cean</w>
ro de</w>
mi r
v ows</w>
thank sgiving</w>
o therwise</w>
fer red</w>
b ows</w>
A .</w>
cur ed</w>
Ninev eh</w>
El k
A g
w ars</w>
tw o-
soci ety</w>
prote ction</w>
di vin
al oud</w>
a ks</w>
So vi
up set</w>
ronic les</w>
rep ent</w>
earth quake</w>
cke y</w>
Ga za</w>
C ri
Ang el</w>
Ahi jah</w>
rebel lion</w>
poli ti
pest il
murder er</w>
cur ses</w>
Stre et</w>
t tered</w>
figu res</w>
M en
tr y
i j
ev </w>
Si sera</w>
z ah</w>
un it</w>
se lling</w>
e ing</w>
bel ly</w>
H .</w>
pre sident</w>
pi le</w>
inten ded</w>
ex change</w>
T ER</w>
min ute</w>
foo lish
cal m</w>
arti cle</w>
ar a</w>
angu ish</w>
A cha
199 3</w>
regul ations</w>
ou ri
he aling</w>
g lo
199 2</w>
pa yment</w>
ki dne
he althy</w>
fol k</w>
cu ps</w>
U p
D utch</w>
prosper ity</w>
mar ket</w>
excell ent</w>
dis grac
advers aries</w>
N abo
Ek ron</w>
sc ene</w>
par ties</w>
occu pied</w>
fra g
econo mic</w>
condem n</w>
cli mb
al e
sa iled</w>
har mon
d ata</w>
acc ur
wor e</w>
bur st</w>
Jo el</w>
Chri st
un its</w>
swe pt</w>
scal es</w>
publi c
or e
oper ation</w>
occa sion</w>
lamp stand</w>
indu strial</w>
gu ests</w>
fa me</w>
ex plo
di g
bes ie
bear er</w>
ad an</w>
Tarshi sh</w>
sa ves</w>
r ors</w>
exam ine</w>
archi te
O thers</w>
Nab al</w>
sa ges</w>
qu e
di m</w>
St u
constru ction</w>
co als</w>
Ne w
F le
yi eld</w>
thre at
t als</w>
ob tained</w>
gra ves</w>
fair ly</w>
do ers</w>
avo id</w>
Du ke</w>
mo ther
hang ing</w>
ab ide</w>
Victor ia</w>
M ur
thin ks</w>
m -
fl ying</w>
fer ences</w>
consid er
Jeho ahaz</w>
Indu strial</w>
Flor ida</w>
justi fied</w>
fe der
decl ar
bapti sm</w>
Le ave</w>
IV </w>
3 00</w>
ra in
lov ing-
cont r
2 8
smo oth</w>
rou s</w>
pro of</w>
ere th</w>
d ance</w>
Wh enever</w>
Nabo th</w>
o li
bre ast
bac ks</w>
att ached</w>
approxim ately</w>
= </w>
vol u
pu ri
horri ble</w>
w av
stud ents</w>
menti ons</w>
de ly</w>
cri min
bro wn</w>
astoni shed</w>
abund ant</w>
ab les</w>
S to
Ma aseiah</w>
ma ker</w>
k est</w>
ge ment</w>
av en
S ad
L ittle</w>
valu able</w>
surpri sed</w>
sto ck</w>
l li
it ation</w>
adop ted</w>
se y</w>
lic ations</w>
W rest
N adab</w>
Jeho ash</w>
Dis ney</w>
A p
transgres sions</w>
tor ies</w>
op hi
ac acia</w>
D ar
+ </w>
sin ning</w>
pestil ence</w>
hon or
fla g</w>
encoura ged</w>
w hatsoever</w>
spe ed</w>
foun tain</w>
ev es</w>
con tempt</w>
S mith</w>
Elk anah</w>
r d</w>
p ledge</w>
ex pression</w>
def ense</w>
bir th
Gomor rah</w>
# </w>
Gr and</w>
exi st
ast ing</w>
Peri zz
t ons</w>
sig nal</w>
ne u
n es
hor ror</w>
b be
cal s</w>
be ars</w>
ad vis
wo ke</w>
v on</w>
i ans</w>
g ru
W ind
6 00</w>
tain ment</w>
re build</w>
colle cted</w>
wor ker</w>
stat ue</w>
sic kness</w>
sc ra
parti cip
dra l</w>
af ar</w>
acc use</w>
N ations</w>
re th</w>
experi enced</w>
b id</w>
ar rest</w>
H ann
mi cs</w>
com par
S et</w>
Na aman</w>
Mar tin</w>
un ited</w>
reven ge</w>
pas sage</w>
ele ments</w>
com pared</w>
arrog ant</w>
aband on</w>
W atch</w>
treat y</w>
sev enty-
la d</w>
associ ated</w>
ap s</w>
uten sils</w>
stol en</w>
li ce</w>
indu stry</w>
conf ess</w>
Scot tish</w>
C ro
wand er</w>
sprink le</w>
si on
si gh
p ment</w>
neigh bour</w>
gate keepers</w>
P ere
th ree
ro pe</w>
pro min
fol ly</w>
A ll
ze bel</w>
the dral</w>
requ ire</w>
pe th</w>
memor ial</w>
deep ly</w>
clean se</w>
E astern</w>
Am mi
A bel</w>
vari ety</w>
splend or</w>
han g</w>
fl ows</w>
G ad
A m</w>
00 ,000</w>
con taining</w>
Sovi et</w>
Mor e</w>
Kad esh</w>
Je zebel</w>
A tt
² </w>
udd enly</w>
tempor ary</w>
star ting</w>
purifi cation</w>
expe ct</w>
S uddenly</w>
Par liament</w>
K ir
Chi ef</w>
pi es</w>
hi n</w>
dd ess</w>
cra ft
co m</w>
Ma k
Go d-
pl ed</w>
belong ing</w>
b il
ad vi
achi n</w>
Ed ward</w>
men ted</w>
S har
Ki sh</w>
Associ ation</w>
o ts</w>
it er</w>
ex tra
Me di
M ep
Cour t</w>
7 1</w>
1 ,000</w>
man n</w>
indi g
bu t
F .</w>
ski es</w>
ra ged</w>
hur ry</w>
h ere
ex pan
Steph en</w>
Cana dian</w>
199 0</w>
v ast</w>
u li
sk ir
ri tes</w>
inqu ire</w>
en jo
com posed</w>
we dding</w>
ven th</w>
g li
dra ma</w>
conne cted</w>
ch s</w>
br ary</w>
Sou thern</w>
Is lands</w>
win ning</w>
sear ched</w>
e us</w>
contr ary</w>
Tex as</w>
Ar t</w>
wi dely</w>
re turning</w>
qu ant
prophe cy</w>
happ iness</w>
announ ce</w>
sa ving</w>
mer ly</w>
effor t</w>
blo s
u pro
tra ined</w>
lo cks</w>
Secon d</w>
of -
occur red</w>
li k
degre es</w>
Alex ander</w>
tion ary</w>
tho od</w>
sc ale</w>
op hel</w>
ol ution</w>
m ati
brea ks</w>
Co venant</w>
shel ter</w>
shar p
fu rious</w>
disappe ar</w>
corru pt</w>
Hebre ws</w>
Christi ans</w>
Chi ld
pleas es</w>
ll ers</w>
le ague</w>
en a</w>
bas is</w>
ari m</w>
Mus li
Bapti st</w>
uni versity</w>
sub sequ
qu a
fin est</w>
f lies</w>
compani es</w>
bla meless</w>
b adly</w>
au to
B ay</w>
tou ching</w>
st a</w>
o ds</w>
o ak</w>
le pro
je we
frequ ently</w>
fe asts</w>
arran ged</w>
Beer sheba</w>
who soever</w>
har dly</w>
O ffer
sugg ested</w>
du ction</w>
compani on</w>
adul ter
C lu
un cleanness</w>
re covered</w>
over laid</w>
op press</w>
meth od</w>
law ful</w>
co very</w>
att rac
ast ero
recon ci
rail way</w>
plan et</w>
m ens</w>
eg gs</w>
de te
F ra
w hel
symb ol</w>
sa il</w>
d am</w>
arti st</w>
supp er</w>
so le</w>
re sol
hi te</w>
d od</w>
co al</w>
c .</w>
O b
suppor ted</w>
stat us</w>
lepro sy</w>
g ins</w>
fi sh
dri ving</w>
Sa int</w>
S him
S ant
Ash dod</w>
year -
surviv ors</w>
pomegran ates</w>
po ver
G O
se mb
ban quet</w>
Col umb
con stitu
R im
O badiah</w>
wi pe</w>
sp ite</w>
re ap</w>
mi ssed</w>
gri ty</w>
gri ev
first- born</w>
const ant</w>
c lif
ac coun
Ith amar</w>
Har an</w>
CH AP
ta keth</w>
ri ding</w>
eng aged</w>
Israel is</w>
A D
00 0</w>
a th-
18 0
st al
la dy</w>
con tra
synago gues</w>
signific ant</w>
pro ver
phi c</w>
past ures</w>
k en
f ate</w>
d ings</w>
cul tural</w>
cor n</w>
acc used</w>
CHAP TER</w>
proble m</w>
m un
door way</w>
appro val</w>
Un til</w>
E dom
A ch
three -
h es
g ory</w>
calam ity</w>
bu ri
St op</w>
S ol
Eph ra
D .</w>
BB C</w>
some what</w>
meas uring</w>
C ra
Amal ek</w>
transgres sion</w>
th ri
te x
indig nation</w>
gar dens</w>
ele venth</w>
den ied</w>
P ay</w>
O ver</w>
A mon</w>
resu lts</w>
Jud ge</w>
Ev ents</w>
u l</w>
the irs</w>
stri pped</w>
li qu
dir t</w>
bas in</w>
Jehoi achin</w>
Eli ab</w>
E den</w>
v it
statu te</w>
pre di
be st
any where</w>
adv anced</w>
Lab or</w>
Hez ron</w>
Gree ks</w>
vol un
v ities</w>
suffi cient</w>
maj ority</w>
inte grity</w>
Tar ling</w>
Lo s</w>
stri p</w>
pre serve</w>
ki sh</w>
compos er</w>
Li ve</w>
H ol
Achi sh</w>
e lder</w>
cri tici
bar ren</w>
t end
over whel
dy nasty</w>
con fli
In di
or nam
no ble</w>
magi c</w>
C as
whi sper
s lu
mo thers</w>
ge ly</w>
ced ars</w>
b ind</w>
Mid dle</w>
Cur sed</w>
Ahi th
surpri se</w>
mi a</w>
fe e
col lap
Ephes us</w>
su e</w>
seas ons</w>
ma themati
ll en
ca b
bo ld
at re</w>
Bra zi
2 5
regar ding</w>
possi bly</w>
po le</w>
la ying</w>
inst ant</w>
exer ci
ev entually</w>
b un
relati onship</w>
o di
me th</w>
go ddess</w>
att ended</w>
att end
Sil as</w>
Aha su
7 2</w>
ord a
il es</w>
fla mes</w>
bul lock</w>
an e
Armen ian</w>
1 /
st ake</w>
sha king</w>
secre tary</w>
rec ently</w>
o es</w>
hu mili
gene alo
equi pment</w>
corre ct</w>
ar ch</w>
Ro man
G ran
survi ve</w>
stri kes</w>
pit ched</w>
gi on</w>
far ther</w>
f inding</w>
cha mpionship</w>
Had ade
t z</w>
ra pi
progra m</w>
lo cked</w>
exi st</w>
doct rine</w>
dd er</w>
bur ns</w>
P at
E lah</w>
ru shed</w>
quie tly</w>
import ance</w>
i ded</w>
ho l
hel pl
guar an
fra me</w>
ex hor
ex hi
dem and</w>
sh rin
es -
er us</w>
apost le</w>
an ic</w>
P ray</w>
La zar
sprink led</w>
or a</w>
m ite</w>
fif ty-
di vine</w>
burnt- offering</w>
bro ok</w>
app lied</w>
V en
L an
re sting</w>
k -
fer tile</w>
con tained</w>
br ing
a warded</w>
St one</w>
F la
A ro
A h
up id</w>
sur round</w>
sof tware</w>
sla very</w>
mi x
Ri se</w>
I z
H igh
ne h</w>
grou n
ent ry</w>
a e</w>
ven ted</w>
t ask</w>
st ern</w>
lik eness</w>
father less</w>
cor por
co py</w>
bri deg
A ga
ste pped</w>
ste in</w>
sp on
sa il
op pression</w>
k able</w>
de le
conven tion</w>
al tern
Cap tain</w>
ppi </w>
po ts</w>
pal aces</w>
may est</w>
est ly</w>
Moab ites</w>
198 9</w>
q </w>
par tment</w>
be ard</w>
Brazi lian</w>
197 9</w>
v ag
spea keth</w>
se ball</w>
s ounded</w>
exist ence</w>
R .</w>
O F</w>
treat ment</w>
t ch</w>
ma i</w>
fi re
Ger shon</w>
E S</w>
woo den</w>
tra mpl
p sal
gi a</w>
gate way</w>
en ai</w>
I llustration</w>
Ahith ophel</w>
su mm
provo ke</w>
k y</w>
Ser aiah</w>
sand als</w>
rec ent</w>
lim ited</w>
demon str
charac ters</w>
an ch
S ur
Lazar us</w>
m or</w>
bre ak
administr ative</w>
May be</w>
An n
u d</w>
rejoic ing</w>
ll ars</w>
jewe ls</w>
ar ra
197 4</w>
spre ading</w>
so ckets</w>
perfor mance</w>
hor e</w>
con vi
bl ows</w>
Secre tary</w>
we ak
th ur</w>
n at
el op
Haz or</w>
Hadade zer</w>
G race</w>
3 0
south western</w>
s yl
mu d</w>
for merly</w>
fashi on</w>
de af</w>
cro ss
conse qu
b aller</w>
ang le</w>
pret ty</w>
g er
S tra
year- old</w>
thor ough
tech ni
o' clock</w>
lin ks</w>
inj ury</w>
dev ast
coun try
ce ll</w>
T ha
O x
tra ditional</w>
satis fy</w>
lo cation</w>
f s</w>
electri c</w>
civi li
ch -
camp a
Amor ite</w>
1- 2</w>
stor ed</w>
sta ying</w>
st ir</w>
orig in</w>
on er</w>
mo del</w>
con vin
claim ing</w>
bloo d
un known</w>
en gra
cou ple</w>
brideg room</w>
you —
kidne ys</w>
happ ening</w>
fur ni
exam ined</w>
Hiv ites</w>
E m
C enter</w>
vali ant</w>
pro ject</w>
id ing</w>
eng er</w>
acc ord
St or
Qu e
Babyl onia</w>
twi sted</w>
s lightly</w>
repe ated</w>
nur se</w>
lear ning</w>
conqu ered</w>
Dor o
Clu b</w>
st ated</w>
spi es</w>
repu tation</w>
mor tal</w>
dan cing</w>
co de</w>
A .
t ari
reli ef</w>
re search</w>
peri shed</w>
no ted</w>
man u
hel ping</w>
colle ction</w>
ce ly</w>
P ays</w>
O therwise</w>
Cana anite</w>
tra dition</w>
t one</w>
stic ks</w>
smi led</w>
sc o</w>
past u
k ins</w>
goo d-
ex posed</w>
ca sting</w>
Nah or</w>
3 .
197 0</w>
s k</w>
respe cted</w>
dra gon</w>
Pri ze</w>
G ames</w>
Child ren</w>
st ag
d ah</w>
So on</w>
Re ferences</w>
Ahasu erus</w>
v an</w>
t am
sancti fy</w>
re ar</w>
pla yers</w>
chemi cal</w>
ha zi</w>
Angel es</w>
y an</w>
swi ft</w>
fe at
as c
Prophe t</w>
P ed
Hann ah</w>
2 4
wo ven</w>
princip al</w>
fi es</w>
faith fully</w>
buri al</w>
mu m</w>
ga il</w>
cti vely</w>
consci ous</w>
Up on</w>
St an
P ad
su m</w>
mur dered</w>
mm ing</w>
for nic
ear im</w>
chang ing</w>
b right
She m</w>
17 9
less ly</w>
ge on</w>
foot baller</w>
e ase</w>
car t</w>
D a
wat er
ma gaz
She lah</w>
Bi ll</w>
197 5</w>
of s</w>
f ever</w>
do ings</w>
disappe ared</w>
ac tress</w>
Pere z</w>
s own</w>
pre vent</w>
fast ened</w>
ct u
be ll</w>
Te ach
T ama
stri fe</w>
ra dio</w>
p in
n ar
le an</w>
it or</w>
f ty</w>
betra y</w>
af fairs</w>
Re cords</w>
y ar
strongh old</w>
scri bed</w>
rou gh
pu shed</w>
ment ation</w>
dis charge</w>
ch en</w>
bit ter
Perizz ites</w>
P ra
Maac ah</w>
s cep
revel ation</w>
lo ver</w>
for gi
circum st
ab s
Ti me</w>
H ung
H asha
re gu
gi sl
fif teenth</w>
fami liar</w>
estab li
Pri me</w>
P un
quar ter</w>
li ance</w>
ex tr
bra g</w>
P ho
smit ten</w>
sha me
ref ers</w>
re si
me dit
lo vely</w>
desig n
camp s</w>
W ri
C ast
ru ling</w>
re tired</w>
cho o
ac knowledge</w>
W rite</w>
197 3</w>
hear kened</w>
ex hau
dis ma
d are</w>
With out</w>
A T
z o
re bel</w>
perpe tual</w>
li mit</w>
fl at
const antly</w>
N er
196 7</w>
wai st</w>
ven ture</w>
ru b
r ing
pastu rel
distribu tion</w>
coun ten
K id</w>
K a
Asa hel</w>
Ar chi
thro at</w>
reve al</w>
ow ns</w>
mo l
bene fit</w>
annu al</w>
Doro thy</w>
199 1</w>
state ment</w>
r at
p ages</w>
liter ature</w>
laugh ter</w>
hard ened</w>
for got</w>
disma yed</w>
d é
Ze al
Je hi
H app
F ire</w>
z abad</w>
te dly</w>
ro b
ki lome
es thood</w>
decre es</w>
conne ction</w>
bag s</w>
ali sm</w>
N av
Caes area</w>
st oned</w>
po is
pas s
cra w
acqu ired</w>
S ing
Abi gail</w>
ur ged</w>
u chs</w>
po tter</w>
ol a</w>
m ation</w>
eag er</w>
divor ce</w>
bring eth</w>
Om ri</w>
Hi ll</w>
2 9
ti mber</w>
spor ts</w>
si vely</w>
km ²</w>
inqu ired</w>
hur ried</w>
gra bbed</w>
do l
198 0</w>
situ ated</w>
ni gh</w>
mo squ
me an
eng ine
Joh n
H am</w>
A ct</w>
on a</w>
mour ned</w>
hop ed</w>
gen us</w>
che ster</w>
V ery</w>
Some one</w>
Ne g
sh ared</w>
hand le</w>
ff ers</w>
difficul ty</w>
ck er</w>
a id</w>
Ne th
whi ther</w>
o bl
j ac
i gh</w>
hor iz
ear ned</w>
dang erous</w>
c roo
M achi
D ev
D est
Ch er
Ar thur</w>
mp s</w>
instru ment</w>
habit ation</w>
cep ts</w>
T u
Micha l</w>
Jab esh</w>
A gri
2 7
pover ty</w>
miser y</w>
min ded</w>
firm ly</w>
col our</w>
warri or</w>
statu es</w>
ran g</w>
plan ning</w>
ot a</w>
off ers</w>
loo m</w>
li veth</w>
l ation</w>
fi ery</w>
en vy</w>
eigh ty</w>
Or chestra</w>
ta xes</w>
re comp
ide as</w>
fe ature</w>
fa il
ex p
con tain</w>
Un der
S till</w>
Rob in</w>
P enn
ref re
oun ce</w>
mo ti
c ow</w>
She b
Pro f
G la
197 7</w>
y ards</w>
prophes ying</w>
la bour</w>
ga i</w>
for tune</w>
fa sting</w>
est er
east ward</w>
do cu
so vereign</w>
it udes</w>
ev al</w>
encoura ge</w>
adi ly</w>
O N</w>
I C
ven tion</w>
su l
stu dio</w>
spe ct
du ce</w>
confir med</w>
clo ser</w>
car ca
Tro pical</w>
St ar</w>
Mel chi
Ba al-
vo te</w>
over take</w>
ne ed
medi cal</w>
har lot</w>
an aly
Who se</w>
Reub en
Mal chi
He man</w>
Ahi kam</w>
where with</w>
us er</w>
tt on</w>
rememb rance</w>
puri fy</w>
eun uchs</w>
Sha k
Sam ar
Comp any</w>
supp lies</w>
per ver
mid night</w>
fu r</w>
counten ance</w>
condu cted</w>
ba i</w>
Man o
En ter
19 45</w>
un covered</w>
ta i</w>
su sta
rep ent
poli cy</w>
la yed</w>
house holds</w>
f fe
aro ma</w>
Hu man</w>
196 9</w>
six ty-
provo ked</w>
pla gues</w>
dire ctions</w>
di stre
deci sions</w>
d or
commer cial</w>
affe cted</w>
Por tu
wi ped</w>
prote cted</w>
ob ah</w>
helpl ess</w>
ex iles</w>
ess ing</w>
clo ak</w>
acti vities</w>
A S
im mi
A re
wast ed</w>
pronoun ced</w>
pronoun ce</w>
or ph
mini stered</w>
k a
ingui shed</w>
hun t</w>
glori fy</w>
el ly</w>
Ze ph
Tir zah</w>
S la
Neg ev</w>
Lib nah</w>
sele cted</w>
sei ze</w>
resp ond
re fer</w>
par aly
mur mur
hang ed</w>
half- tribe</w>
forgi veness</w>
c ine</w>
bab ies</w>
So cial</w>
Ga ther</w>
198 8</w>
thir teen</w>
sig n
scre en</w>
poli tan</w>
mi ssing</w>
he a
ha ch</w>
bitter ness</w>
bas kets</w>
an ge</w>
Sar ai</w>
Rim mon</w>
O per
De ad</w>
th rowing</w>
st an
ro bb
m o</w>
d ded</w>
cri mes</w>
Teach ings</w>
S wi
Ne ther
Ke ilah</w>
Aga inst</w>
twenty- four</w>
s have</w>
ro aring</w>
pur poses</w>
know eth</w>
ini a</w>
ha b</w>
gre et</w>
ck le</w>
Tit us</w>
Mep hi
ul ar</w>
tre mbled</w>
th ither</w>
ssi ve</w>
gra y</w>
gra s
envi ron
coun sel
bla me</w>
Sun day</w>
M am
De b
Bi g</w>
197 2</w>
x ious</w>
responsi bility</w>
por ts</w>
ordin ance</w>
adv ance</w>
Zim ri</w>
S enn
Ath aliah</w>
strugg le</w>
po ison</w>
mother -in-law</w>
ho les</w>
dwe ll
bra in</w>
Who m</w>
Neth aniah</w>
Carol yn</w>
B ern
vie ws</w>
travel ing</w>
tra ining</w>
sw allow</w>
eri b</w>
do me
c ess</w>
ac les</w>
Ram oth</w>
No bel</w>
J am
Ar ti
sti ce</w>
pu rified</w>
deli gh
Zi ba</w>
Z al
Tama uli
Si x</w>
A wards</w>
wash ing</w>
pasturel ands</w>
ing- place</w>
guit ar</w>
easi er</w>
come dy</w>
cha sing</w>
X X
L and
Be t
— that</w>
tra il</w>
th oth</w>
sa dness</w>
recei ving</w>
pos itions</w>
i us</w>
gri eved</w>
cl uded</w>
ba the</w>
ap h</w>
Benjam in
B an
10 -
sin -
pre ce
dra gged</w>
dilig ently</w>
bl owing</w>
V ol
Tur kish</w>
Soci ety</w>
Ama sa</w>
sm allest</w>
pi gs</w>
def ined</w>
and a</w>
a ked</w>
N H
Ge hazi</w>
Des ert</w>
4 ,
tre ad</w>
pre cepts</w>
pha z</w>
mach ine</w>
g -
er ror</w>
comp are</w>
ani shed</w>
Ana thoth</w>
weap on</w>
swe e
si </w>
U se</w>
A pp
respon se</w>
qu en
pal e</w>
mi ly</w>
man na</w>
ex tent</w>
bes e
are ly</w>
ancest ral</w>
V in
Senn ach
Bel le
A dd
thre ad</w>
sc en
s ca
rebu ked</w>
prof ane</w>
p ine</w>
op es</w>
for es
extre mely</w>
dece itful</w>
cti c</w>
as sur
19 th</w>
see ks</w>
rep air</w>
moun ted</w>
mon d</w>
acti vity</w>
T en</w>
Sant a</w>
A du
' Let</w>
un ity</w>
o th
i ously</w>
ch ani
c co
appe al</w>
Ra il
Nether lands</w>
Mo on</w>
Afri can</w>
und ered</w>
tw enti
sna kes</w>
re mar
produ cts</w>
inter esting</w>
fil ms</w>
drin ks</w>
destro ys</w>
concub ine</w>
St ati
Mano ah</w>
Happ y</w>
Fo llow</w>
E vil</w>
Cer tainly</w>
pe ar
mini sters</w>
mi cro
me lt</w>
life time</w>
he ights</w>
estim ated</w>
el li
ed ition</w>
cy mb
cal cul
betra yed</w>
and -
all ows</w>
Wis dom</w>
P rep
O holi
st upid</w>
ref uses</w>
r h</w>
p lead</w>
d or</w>
O bed</w>
Ca per
Bru ce</w>
tu b</w>
sid er</w>
ro bbed</w>
perfe ctly</w>
logi cal</w>
gh o
Wo men</w>
H ur</w>
12 -
the astern</w>
re ig
re aches</w>
nau m</w>
i v
dep end</w>
K now</w>
Hel p</w>
Har ry</w>
' Thus</w>
worshi pped</w>
thorough ly</w>
re aching</w>
op press
ester day</w>
descri bes</w>
concer n</w>
comple x</w>
cent uries</w>
bo som</w>
ali st</w>
P res
P ope</w>
Belgi um</w>
wond ered</w>
tro politan</w>
p an</w>
i um</w>
ca h</w>
ban ks</w>
ashi b</w>
an ni
whir l
resid ents</w>
ph one</w>
man kind</w>
ld -
disgrac ed</w>
condu ctor</w>
bus y</w>
AN D</w>
A L
with ered</w>
know est</w>
far mers</w>
attac king</w>
e th
ci de</w>
Sennach erib</w>
M eri
J ah
D ear</w>
B read</w>
respon d</w>
la ment</w>
exi sted</w>
cont act</w>
Midi anites</w>
C lar
w an</w>
use ful</w>
treas ury</w>
settle ment</w>
reas ons</w>
p un
i sed</w>
festi vals</w>
effe cts</w>
colle ge</w>
co l</w>
b ite</w>
ar gue</w>
Sup er</w>
Na ha
An ne</w>
Ad ams</w>
ther more</w>
se ats</w>
pi cally</w>
meas ure
ha dad</w>
est ion</w>
el le</w>
be t</w>
al el</w>
Un cle</w>
Hav ing</w>
F east</w>
twenty- two</w>
trampl ed</w>
qu ali
p ac
manu fac
bui lders</w>
ag u
L ar
' My</w>
swi f
sha </w>
sa vi
in ti
continu al</w>
con clu
an a
Ro ad</w>
Prep are</w>
L ord
Do ctor</w>
r ha
qu ality</w>
pa ins</w>
p rud
har vest
Mes he
L e</w>
z ard</w>
the a</w>
ste el</w>
rede mption</w>
re presented</w>
par tly</w>
in y</w>
bright ness</w>
O '
Hag ar</w>
C ross</w>
198 1</w>
z ations</w>
west ward</w>
tresp ass</w>
pi ano</w>
ni ce</w>
g un
descri be</w>
deep er</w>
con vers
comman ding</w>
Shak espe
Eli akim</w>
Ahi ma
st ations</w>
re duced</w>
r are</w>
prim ary</w>
op posed</w>
fe a
dre ad</w>
de e</w>
cro p</w>
bl own</w>
aw esome</w>
att itude</w>
Su cco
Mon t
Her mon</w>
Ahima az</w>
7 ,
p ter</w>
oun ces</w>
k id</w>
de lay</w>
ca ke</w>
N ic
F our</w>
wor st</w>
triu mph</w>
scienti fic</w>
ri pe</w>
regu larly</w>
mi st</w>
low est</w>
bo il</w>
N ight</w>
J up
Gree ce</w>
D ou
Caper naum</w>
Ammon ite</w>
197 6</w>
ut ter
t ally</w>
li ked</w>
fal sely</w>
f est</w>
ceremon y</w>
Fa ir</w>
B y
Ar tax
20 th</w>
rapi dly</w>
por tra
occu p
newsp aper</w>
comb ined</w>
bu shes</w>
anti -
Uzz iel</w>
Fran ci
Fed eration</w>
Con cer
wal led</w>
testi fied</w>
symp to
shou ts</w>
op enly</w>
hel per</w>
fran k
du </w>
deliver ance</w>
an xious</w>
Pri ests</w>
G ul
Eli ashib</w>
198 4</w>
197 1</w>
17 8
wand ering</w>
phi a</w>
ong side</w>
n -
long ed</w>
lo aded</w>
daughter -in-law</w>
ath ed</w>
ac cu
Maj or</w>
L ine</w>
Ge ba</w>
Aro er</w>
tre sses</w>
g ment</w>
ele ment</w>
e le</w>
dis covery</w>
c it
bit terly</w>
Re jo
Artax erxes</w>
2 ,000</w>
198 6</w>
syl v
pla y
constru cted</w>
Gre et</w>
Cor ne
B ere
v ated</w>
symp a
ne gle
myr rh</w>
mo ves</w>
long -
en o
des pite</w>
ast ron
De partment</w>
val ry</w>
str ing</w>
pre me</w>
ow -
op o
ll owing</w>
ho sti
hat red</w>
ca sts</w>
ac e-
Wor kers</w>
N er</w>
Matt aniah</w>
Ethiop ia</w>
Eg lon</w>
D A</w>
19 18</w>
promin ent</w>
kind ly</w>
end ar</w>
al together</w>
ad or
K er
J ones</w>
Demo cratic</w>
Bu i
Bra z
Ara bah</w>
sho es</w>
ro id
qu es</w>
prai sing</w>
loving- kindness</w>
judg ing</w>
independ ence</w>
distribu ted</w>
disc ou
administr ation</w>
Th ink</w>
P on
wel com
ja il</w>
k o</w>
je ction</w>
in come</w>
fro gs</w>
W ol
Mephi bosheth</w>
Con st
welcom ed</w>
u ll</w>
tin y</w>
swe ep</w>
supp lication</w>
shor tly</w>
f arm</w>
d ated</w>
climb ed</w>
b ition</w>
Un to</w>
Carol ina</w>
Be au
Ass yrians</w>
- day</w>
st us</w>
ob vi
histor ical</w>
hea then</w>
ha thites</w>
disp lay</w>
con cent
P sal
Lin ux</w>
198 2</w>
vir tu
t to</w>
t is</w>
orda ined</w>
god less</w>
dne y</w>
br and</w>
arri val</w>
Succo th</w>
Fi ve</w>
world wide</w>
twenti eth</w>
par alle
obe ying</w>
min adab</w>
me chani
g rin
dia meter</w>
confid ent</w>
Nebu zar
Elisha ma</w>
C ount</w>
Belle w</w>
victi ms</w>
ru sh</w>
insu lt</w>
exam ples</w>
S ever
Reuben ites</w>
Jo i
B lo
wi shes</w>
s pared</w>
pi pe</w>
medi a</w>
l ing
cro ssing</w>
ag on</w>
Stor m</w>
Rejo ice</w>
Jup iter</w>
Braz il</w>
198 7</w>
rou te</w>
musi cian</w>
effor ts</w>
bo tt
Win ter</w>
S el
E ber</w>
7 3</w>
y eth</w>
inter ested</w>
hu m</w>
hi p</w>
earli est</w>
cymb als</w>
con founded</w>
answ ers</w>
W ere</w>
M r</w>
E ri
196 1</w>
sh ri
sear ching</w>
ron ic</w>
pro cess
gre e
gi </w>
exce eding</w>
e uten
de but</w>
cap able</w>
b righ
acqu a
P an
Am ariah</w>
196 8</w>
where as</w>
we t</w>
sole mn
oper a</w>
Wrest ling</w>
Machi r</w>
F ree</w>
ub s</w>
stud ent</w>
j ack
ir y</w>
in formed</w>
g y
ba ked</w>
G ri
B ani</w>
ver sal</w>
pat tern</w>
on ite</w>
kni fe</w>
high way</w>
foolish ness</w>
d row
ca stle</w>
Rabb ah</w>
Jeph un
Im mediately</w>
Comm ittee</w>
A N</w>
su spe
mi m</w>
ic ally</w>
fo es</w>
emb roid
U r
Pre mi
Mes sage</w>
C ush</w>
19 12</w>
politi cian</w>
n an</w>
lar gely</w>
co pies</w>
circumst ances</w>
ani as</w>
T wel
Sus a</w>
G ro
Enter tainment</w>
7 7</w>
fee ble</w>
fac ts</w>
ci vil</w>
S t</w>
Po land</w>
Fest us</w>
Eli ezer</w>
' Why</w>
ur ally</w>
terri tories</w>
stu dies</w>
re stri
produ cer</w>
ph ra
orph ans</w>
ne cks</w>
mes sages</w>
e mperor</w>
b ab</w>
Y u
watch man</w>
ti p</w>
sh en</w>
ar ts</w>
Tob iah</w>
Obe d-
to mbs</w>
to ler
prostitu tes</w>
prim arily</w>
preva iled</w>
m my</w>
ll es</w>
ge ons</w>
far mer</w>
de adly</w>
co ok</w>
Vir g
U R
P ol
Han an</w>
Bel a</w>
Bar ak</w>
B ul
10 ,000</w>
preva il</w>
mor rha
le gisl
hear ted</w>
he -
gro an</w>
fu el</w>
extre me</w>
ent ary</w>
c ari
big gest</w>
assist ant</w>
Th ine</w>
D un
Be tter</w>
solu tely</w>
say ings</w>
per mitted</w>
m ir</w>
firm ation</w>
cor respond
conf used</w>
car p
S k
O lives</w>
Ba al
Ad on
wo e</w>
wat ches</w>
volu me</w>
regi stered</w>
p av
ob tain</w>
man ag
l -
for t</w>
conqu er</w>
bl ack
at mo
ali en</w>
ad mi
Some times</w>
A the
x x
wh ence</w>
ob li
mo de
materi als</w>
in se
in i</w>
immor ality</w>
he ir</w>
fe eding</w>
do llars</w>
bu il
arri ve</w>
Zi kla
scrip ture</w>
du ce
di g</w>
be held</w>
be ating</w>
a o</w>
Zeal and</w>
Go lden</w>
19 14</w>
we eds</w>
t ations</w>
no dded</w>
la ys</w>
Li ke
Ho ll
' em</w>
ti el</w>
thre s
thres hold</w>
thr ones</w>
repent ance</w>
per ceived</w>
mo cked</w>
d ge
al ongside</w>
P ru
tra ded</w>
ti dings</w>
si onally</w>
magaz ine</w>
la un
iv ory</w>
ignor ant</w>
exal t</w>
et c</w>
di shes</w>
advers ary</w>
Z or
Wo man</w>
Go shen</w>
Eli phaz</w>
Bo y</w>
Ahi melech</w>
1 50</w>
merci es</w>
han an</w>
g ah</w>
Zikla g</w>
U p</w>
Mari o</w>
Hasha biah</w>
5 .
vol can
to oth</w>
sin- offering</w>
re cover</w>
plan e</w>
philos oph
on ites</w>
o th-
lo on</w>
fun eral</w>
for ests</w>
cti onal</w>
corru p
convin ced</w>
cher ub</w>
cent uri
bid den</w>
bese ech</w>
accid ent</w>
Jephun neh</w>
ty pically</w>
pi ctures</w>
pho togra
persu aded</w>
me tho
in cid
exper ts</w>
custo ms</w>
bo ats</w>
H un
u tionary</w>
psy cho
pe cu
mi stake</w>
mani fest</w>
la zy</w>
fi ction</w>
de k</w>
cycl one</w>
bon ds</w>
Scot t</w>
Phi l
wand ered</w>
w ast</w>
vo id</w>
fac i
ce lls</w>
b us</w>
at y</w>
Nebuzar adan</w>
Like wise</w>
E C
Am ram</w>
Am minadab</w>
testim onies</w>
provi des</w>
man aged</w>
main tain</w>
liqu id</w>
confli ct</w>
c ow
Fed eral</w>
shad ows</w>
na ils</w>
mul a</w>
ll or</w>
le ap
jo ining</w>
gu est</w>
P au
Mu seum</w>
E .</w>
B as
y ard</w>
wor m</w>
ve ments</w>
rac es</w>
proce eded</w>
op ens</w>
mo ons</w>
man -
individu als</w>
guaran tee</w>
ci ls</w>
bi le</w>
F eli
Con gress</w>
wi shed</w>
whirl wind</w>
tho logy</w>
sp it</w>
me d
igh ty</w>
en lar
cu les</w>
V I</w>
Sy dney</w>
Penn sylv
J </w>
Austri a</w>
/ </w>
t ti
sh ow
sen s
s ers</w>
no table</w>
mag ne
in spe
ha mm
ful fi
ef ly</w>
ck led</w>
ce ment</w>
behavi or</w>
be ds</w>
Li ght</w>
Bi ography</w>
y esterday</w>
st al</w>
s ack</w>
re turns</w>
produ ct</w>
produ cing</w>
eli te</w>
croo ked</w>
be ach</w>
R en
O N
Jo k
F il
or chestra</w>
ner v
inter course</w>
inst ances</w>
ig n
fail ure</w>
de cei
d ung</w>
celebr ation</w>
T each</w>
Satur n</w>
Per sian</w>
F al
1 1-
win e
th ic
pro posed</w>
pre served</w>
obe dience</w>
int enti
gi ant</w>
devi ces</w>
declar ation</w>
Hor eb</w>
5 ,000</w>
treas uries</w>
pri esthood</w>
pat ri
pan ic</w>
m it
l end</w>
inj ured</w>
in ch</w>
d ates</w>
bal d</w>
ad ap
S ac
Nor th
Kiri ath</w>
Bo x</w>
Be z
7 6</w>
198 3</w>
vir gins</w>
sour ces</w>
shi </w>
res our
re d
persecu ted</w>
or ing</w>
it ure</w>
in ly</w>
ear ne
duce es</w>
dis per
ann a</w>
ama zing</w>
Swe den</w>
Fran c
F ron
B ou
ve y</w>
tur neth</w>
ti thes</w>
persecu te</w>
me tri
co pper</w>
bo ttle</w>
Ge zer</w>
B un
sto ol</w>
occu r</w>
ming led</w>
inter nal</w>
incre asing</w>
g ently</w>
dis sol
co ins</w>
c ken</w>
Virg inia</w>
Sab baths</w>
H ow
B on
th ful</w>
pollu ted</w>
per verse</w>
ent re
consider able</w>
clo the</w>
car ries</w>
bound aries</w>
bi an</w>
astron o
P lay</w>
Lor ry</w>
the -
sub du
sh one</w>
s ms</w>
poli tics</w>
high -
ast ed</w>
argu ment</w>
affli ct</w>
Te le
K u
Gad ites</w>
Fo llowing</w>
Di e
196 0</w>
star ts</w>
p in</w>
org an</w>
opp a</w>
obl ation</w>
n ation
lif ting</w>
i llustr
hon y</w>
episo de</w>
Ri ght</w>
1 1
sp y</w>
ski ll
scep ter</w>
rac y</w>
ow ls</w>
mb les</w>
infe ction</w>
hypocri tes</w>
fla sh</w>
dr ach</w>
a ward</w>
Twel ve</w>
Sy mp
Ste ele</w>
Mic ro
Ahi tub</w>
— I</w>
we althy</w>
tru sts</w>
stri king</w>
multi ple</w>
desig ns</w>
att end</w>
all owing</w>
W aring</w>
Olympi cs</w>
B en</w>
15 -
' Who</w>
ul ti
u ter
repa irs</w>
pre sid
no logy</w>
indu stri
hy dro
hes it
bour ne</w>
ate gory</w>
abo de</w>
W ay</w>
W ater</w>
Ter ri
8 5</w>
7 4</w>
wat ered</w>
sou th-
se pul
scho l
ri m</w>
inf ants</w>
corru ption</w>
ar ray</w>
U pper</w>
Prophe ts</w>
Mes hach</w>
Li ber
th un</w>
shi r
s kill</w>
ra w</w>
pri ze</w>
in e-
dwe lls</w>
colum ns</w>
colle ct</w>
cal endar</w>
at temp
appro pri
Sha drach</w>
S T
Offer ing</w>
M ighty</w>
D al
stu mbling</w>
it ems</w>
inhabit ant</w>
ff ed</w>
ac ity</w>
Shakespe are</w>
S ub
L ast</w>
In stitute</w>
1 3-
ze dek</w>
who lly</w>
stor ms</w>
stor e
sa dd
pl ates</w>
lu st</w>
insu la</w>
f an
eri ly</w>
d an</w>
co ol</w>
Ju stice</w>
Jehi el</w>
J ar
Franci sco</w>
Bri on</w>
Agri pp
— to</w>
y o</w>
v ent
lu x
gi c</w>
friend ship</w>
fin an
be am</w>
as cen
abs ence</w>
J oppa</w>
A be
197 8</w>
ur ance</w>
refer ence</w>
re presents</w>
ra ging</w>
liber ty</w>
journe yed</w>
gra pe
gl ance</w>
ef fi
dre amed</w>
consecr ate</w>
comm its</w>
b en
ac tual</w>
Sad ducees</w>
Repha im</w>
P ash
N A</w>
Hon or</w>
AD DA</w>
5 ,
with drew</w>
stor es</w>
ow ners</w>
opp on
la sts</w>
il a</w>
fre ed</w>
e u
e mpire</w>
e at
concub ines</w>
back ward</w>
S ma
Pru ssi
Bes ides</w>
7 8</w>
tou ri
su al</w>
strai ght
pe l</w>
li brary</w>
insu lts</w>
gra ven</w>
fi le</w>
ed ar</w>
de pression</w>
anim ated</w>
Ara b</w>
viol ently</w>
v in</w>
sor cer
inter ests</w>
f fra
ev ol
an k
Phi la
Moun tains</w>
I ddo</w>
F A</w>
Cap e</w>
4 0
guar ded</w>
dishon or</w>
design ated</w>
Wa it</w>
Gover nor</w>
D re
Cy p
4 .
ti s
t ts</w>
sub jects</w>
she w</w>
ro ds</w>
rel ation</w>
mani fe
lea f</w>
he morrha
evil -
crac y</w>
Wind ows</w>
Ra hab</w>
N inten
Eno ch</w>
C us
Be li
ey ed</w>
car ed</w>
appar ently</w>
announ ces</w>
S hel
Re z
Or g
Go g</w>
Eph ron</w>
Adon ay</w>
19 49</w>
scor n</w>
s or</w>
ran som</w>
par te
n on
fal se
eli min
deb t</w>
cu rious</w>
am p
Se th</w>
R ose</w>
R igh
Ninten do</w>
Cyp rus</w>
' He</w>
th on</w>
sl opes</w>
sa b
re present</w>
mar ries</w>
ma ge</w>
distin ct</w>
cli mb</w>
be ams</w>
Mari e</w>
w er</w>
pol is</w>
per mission</w>
o let</w>
gh tly</w>
def en
convers ation</w>
ad er</w>
ab sor
V an</w>
Te ko
D y
A vice</w>
wea kness</w>
thi eves</w>
stand ards</w>
re au</w>
mol ten</w>
list s</w>
la in</w>
fle w</w>
ext end</w>
eigh teenth</w>
devel op</w>
b ad
argu ments</w>
U N
T ower</w>
T op
Phari see</w>
Is la
I ra
½ </w>
threat ened</w>
sha ttered</w>
ri di
pti ons</w>
m ally</w>
in adab</w>
ex act</w>
ed ly</w>
defe ct</w>
S qu
M ach
Gul f</w>
speci fic</w>
sli pped</w>
sh -
s ne
movi es</w>
me lo
je wel
gi lead</w>
fe aring</w>
d —</w>
com pre
ac o
N im
Mag dal
J air</w>
Fur thermore</w>
E du
Ar gent
re served</w>
ran ks</w>
p as</w>
mo ck</w>
kind red</w>
for tresses</w>
batt les</w>
ac he</w>
La w
Hu shai</w>
D er
Com man
woo ds</w>
tem ples</w>
musi cians</w>
it ors</w>
gu ess</w>
cla sses</w>
S it</w>
Me dia</w>
F I
Agripp a</w>
A ir</w>
— all</w>
wo od
th ic</w>
st ering</w>
pa ying</w>
or bit</w>
nat urally</w>
lo af</w>
fe ars</w>
distur bed</w>
deman ds</w>
de vice</w>
col ors</w>
citiz en</w>
accord ance</w>
Mah an
Inter net</w>
Con serv
' Go</w>
° </w>
te a</w>
su spi
secre ts</w>
min or</w>
me lted</w>
grand children</w>
f und
del phia</w>
cre w</w>
V erily</w>
H E
E at</w>
After ward</w>
z il
sto le</w>
public ly</w>
mi el</w>
le miah</w>
la -
go al</w>
friend ly</w>
Ne than
Kiri ath-
9 5</w>
20 -
ze al</w>
wri ters</w>
whisper ed</w>
san k</w>
ma xi
head quarters</w>
cul ation</w>
Ro mans</w>
Phila delphia</w>
Ju bilee</w>
Je an</w>
B rown</w>
ul ous</w>
t abo
shrin es</w>
murmur ed</w>
metho ds</w>
ent ru
emp ha
dé parte
descri ption</w>
car ri
bb ing</w>
ad mitted</w>
Mat the
Je du
D el
C ari
14 -
we lls</w>
un godly</w>
transl ated</w>
sma shed</w>
sha ft</w>
sh ly</w>
plac ing</w>
p op</w>
gradu ally</w>
fl owed</w>
e land</w>
ca li
ar ity</w>
Ser vice</w>
S tri
S hun
H it
Austri an</w>
will ingly</w>
teach es</w>
locu st</w>
l un
end urance</w>
bo ld</w>
Z ab
W el
K id
F ar</w>
==== ====
pas sion</w>
mor al</w>
b und
ati vely</w>
Th ur
Olympi c</w>
Ca thedral</w>
yar n</w>
sympto ms</w>
op pose</w>
me ters</w>
cla mation</w>
bur dens</w>
bas ins</w>
To morrow</w>
196 2</w>
ti cally</w>
tal ent</w>
su peri
se -
sc ore</w>
ri son</w>
re named</w>
or al</w>
may be</w>
la iah</w>
dri ver</w>
bond age</w>
appro aching</w>
US A</w>
Go o
Edom ites</w>
Bo ston</w>
Ba th
19 11</w>
robb ers</w>
re se
mi stress</w>
me ch</w>
de aths</w>
com position</w>
assemb le</w>
Pe kah</w>
Ho she
196 3</w>
well- known</w>
recomp ense</w>
pres ses</w>
oper ating</w>
op ed</w>
li d</w>
fla ming</w>
deligh ted</w>
campa ign</w>
St ar
Samar it
Rev olution</w>
M and
Go ld
stu ff</w>
requi res</w>
pen alty</w>
ment ary</w>
j un
gre etings</w>
fac tion</w>
di ag
ca ves</w>
Le e</w>
E hud</w>
Di re
B ad
w inged</w>
st able</w>
h or</w>
exam ination</w>
en coun
earth ly</w>
besie ged</w>
at us</w>
acc ess</w>
Sever al</w>
Pennsylv ania</w>
Neb o</w>
J our
F ig
Deb ir</w>
w age</w>
to il</w>
t our</w>
remar kable</w>
provi sions</w>
des per
cu ts</w>
compe tition</w>
U l
O ut
ü r
wag ons</w>
separ ation</w>
secu rely</w>
phi r</w>
org ans</w>
mo le
frank incense</w>
ear ch</w>
disp ute</w>
contribu tion</w>
car es</w>
Le on
Jebus ite</w>
B av
199 0s</w>
' Look</w>
— you</w>
se mi
ou rish</w>
no stri
gener ous</w>
f righ
evil doers</w>
en ne</w>
d ough</w>
K an
IN G</w>
Ham or</w>
F ound
D augh
work men</w>
str ings</w>
st ared</w>
s ong
mi stre
dishon est</w>
ci </w>
bri ef</w>
beli ever</w>
b last</w>
Ter ah</w>
Mas sac
Li ft</w>
C E</w>
Ass yrian</w>
see th</w>
ro t</w>
pro gress</w>
g as
expen sive</w>
am oun
a x</w>
S hor
Mis si
' Come</w>
wi ther</w>
tra ins</w>
o h</w>
inno m</w>
en or
dis cover</w>
classi cal</w>
ant ine</w>
Bet ween</w>
we ek
us _</w>
to es</w>
te l
survi ved</w>
stati oned</w>
sor ts</w>
re warded</w>
near est</w>
expe ct
cl ubs</w>
char ity</w>
au dience</w>
an ity</w>
ad ditional</w>
Melchi zedek</w>
Alex and
— he</w>
y _</w>
stru ction</w>
she et</w>
sail ors</w>
prover b</w>
per -
hi ther</w>
he i
gen cy</w>
feat ured</w>
ed ges</w>
cha mpion</w>
b ing</w>
all -
Pub lic</w>
Org ani
Jedu thun</w>
' It</w>
rebe ls</w>
princi ple</w>
pe ak</w>
list ens</w>
im it
e e
co lt</w>
Ze be
Sal t</w>
Hoshe a</w>
Air port</w>
z ur</w>
ur a</w>
ton ight</w>
su sp
plat form</w>
loy alty</w>
heav ily</w>
eag erly</w>
départe ment</w>
co ats</w>
ahi ah</w>
ac u
Wal loon</w>
Offi ce</w>
Mahan aim</w>
Je da
D agon</w>
Bar zil
198 5</w>
ut tered</w>
tru st
ris k</w>
pha ti
magi cians</w>
im s</w>
ho llow</w>
g am
fe males</w>
de pos
bold ly</w>
Wh ere
K ur
Christ mas</w>
web site</w>
we b</w>
tar oth</w>
suffer ings</w>
ree k</w>
na mely</w>
mi ss</w>
medi ate</w>
lim its</w>
la sted</w>
fra grant</w>
ex clu
en na</w>
dome stic</w>
d ary</w>
crimin al</w>
c m</w>
bl ing</w>
ad ult</w>
Swi ss</w>
Ne he
19 48</w>
si ans</w>
se ment</w>
qu it</w>
pre ssing</w>
po cket</w>
mar vel
ll en</w>
kne lt</w>
fil thy</w>
di ct
d ging</w>
albu ms</w>
Patri cia</w>
Mah li</w>
1 st</w>
und es
tri ck</w>
tra ffi
spo ts</w>
skir ts</w>
ri der</w>
part ner</w>
on ships</w>
ha ugh
g ang</w>
fa sted</w>
e mo
choo ses</w>
cha llen
Ha wai
C ry</w>
' Your</w>
wan ting</w>
tab ly</w>
sil k</w>
rough ly</w>
mp ing</w>
m med</w>
ex plan
er ra</w>
cred it</w>
coun ties</w>
St ation</w>
She phati
Go spel</w>
Ger shon
E cono
' And</w>
scri ption</w>
peace ful</w>
mid -
hi o</w>
fun ction</w>
entru sted</w>
ant asy</w>
abund antly</w>
Ne top
C ub
19 47</w>
stead y</w>
ro b</w>
laugh ing</w>
inf ant</w>
in stitu
exper t</w>
e ties</w>
conspi red</w>
centuri on</w>
S yl
Over view</w>
O hio</w>
Missi ssi
3 ,000</w>
17 -
' They</w>
uri ty</w>
scor bu
quar ts</w>
pri vi
mer chan
earne stly</w>
e m
de tails</w>
com pri
cl ing</w>
b ud
as pe
Z il
St ag
She mesh</w>
K are
Ja zer</w>
E N</w>
D V
Ara bia</w>
A ni
A in</w>
195 2</w>
trac ks</w>
t ments</w>
strong ly</w>
so -
shame ful</w>
po ly
p apers</w>
p ack
ol ds</w>
o ti
no tes</w>
mi sta
know le
dispo ss
desc ent</w>
R est
P .</w>
9 9</w>
190 6</w>
s ch
prof aned</w>
la mentation</w>
fi cial</w>
deri ved</w>
ci ency</w>
With in</w>
T ig
Re cha
Premi er</w>
D own</w>
An anias</w>
16 -
tra mple</w>
ro cky</w>
quant ity</w>
less ness</w>
ju mped</w>
hosp ital</w>
false hood</w>
ba oth</w>
appro ved</w>
appe t
Righ te
Ra w</w>
I ll
Ger mans</w>
Fri ed
196 4</w>
wor ried</w>
pas sover</w>
nor theast</w>
lo dge</w>
ke lon</w>
gu ided</w>
fu ll
fortun es</w>
cur sing</w>
cha ff</w>
ast ro
ap preci
ang s</w>
ad ver
Stati stics</w>
R un</w>
Gl ory</w>
Americ ans</w>
wa y
th under
solemn ly</w>
s light</w>
rema inder</w>
pe t</w>
e led</w>
e ch
de e
Zebe dee</w>
Ri b
Ho ckey</w>
G rou
Beth any</w>
Be er-
19 46</w>
su it</w>
sever ely</w>
nostri ls</w>
n ic</w>
jewel ry</w>
inv ite</w>
i ce
des pair</w>
ca ble</w>
Te man</w>
Pa y
Mississi ppi</w>
5 0
198 0s</w>
s wo
rever ence</w>
rec ording</w>
rac ing</w>
pow der</w>
pa inted</w>
p y
ha irs</w>
can did
b in
T ah
the atre</w>
t ess</w>
sl ope</w>
n es</w>
ma kers</w>
laun ched</w>
hun ting</w>
fi res</w>
ey e
ca mel</w>
a sa
Nah shon</w>
Barzil lai</w>
Amo z</w>
6 0
6 ,
in fli
honor able</w>
hand maid</w>
ev en
eng ine</w>
discus sion</w>
di c</w>
concer t</w>
compla ined</w>
cal leth</w>
bl ind
ad es</w>
Jeda iah</w>
Ab inadab</w>
wa il</w>
p ouring</w>
ornam ents</w>
l ings</w>
frag rance</w>
big ger</w>
assa ss
Mo d
Feli x</w>
Fa mily</w>
Al as</w>
v ings</w>
speci mens</w>
son -in-law</w>
pit ch</w>
mat ure</w>
low ered</w>
li on
her o</w>
evid ent</w>
enjo yed</w>
distre ssed</w>
depend ent</w>
day light</w>
cc er</w>
bla zing</w>
al on</w>
T own</w>
Sy stem</w>
Ra dio</w>
N ig
Mi chi
H or</w>
Ge ography</w>
7 00</w>
un just</w>
to- morrow</w>
there by</w>
row ed</w>
ow e</w>
lo ses</w>
foun der</w>
f rac
Su mmer</w>
A po
sp r
sh er</w>
re new
mu el</w>
moun tain
ag ri
ad dressed</w>
acc ord</w>
Z obah</w>
Rabb i</w>
Pash hur</w>
Obe y</w>
Matthe w</w>
J av
Fran k
C ir
Bo z
pro mp
ph ar
par k</w>
ni el</w>
ido lat
groun ds</w>
griev ous</w>
fic ations</w>
ex trac
cti on
che th</w>
at tempted</w>
allo tted</w>
Tre aty</w>
O phir</w>
Je iel</w>
G abri
Fran k</w>
Ch ris</w>
C reek</w>
A bo
un cover</w>
te sting</w>
sub mit</w>
st ages</w>
po or
no body</w>
mult itudes</w>
m me</w>
ly n</w>
li ath</w>
every body</w>
do o
cul ti
coo king</w>
bro ther
bri be</w>
Sy n
Ma ker</w>
La mech</w>
Go liath</w>
Con sider</w>
st -
shu r</w>
n is</w>
mon u
medi cine</w>
me tres</w>
discou raged</w>
di se</w>
bo ther</w>
af firmation</w>
Vi enna</w>
She lo
K elly</w>
Babyl onian</w>
wrest ling</w>
v owed</w>
st in</w>
sh ares</w>
questi oned</w>
pla inly</w>
pe ace-
le tting</w>
dep th</w>
Shephati ah</w>
R ab
R E
Prof essor</w>
Me gi
19 13</w>
philosoph y</w>
op ing</w>
n ati
main tained</w>
li ars</w>
insu lted</w>
in sight</w>
he aps</w>
dist inguished</w>
di p</w>
coo ked</w>
Ph ysi
He ber</w>
Bo o
An na</w>
Abi hu</w>
190 7</w>
19 17</w>
18 -
sou theast</w>
some where</w>
pro hi
pre mi
mo vements</w>
lo g
ju ice</w>
g loom</w>
b all
Ra ther</w>
Musli m</w>
A post
196 6</w>
19 19</w>
ver ing</w>
su gar</w>
peri al</w>
im ed</w>
ha bit</w>
colum n</w>
col ate</w>
b ye</w>
T an
Symp hony</w>
wi ld
ver sions</w>
tu m</w>
od or</w>
mor s</w>
m ly</w>
contribu tions</w>
che eks</w>
T om</w>
Kare ah</w>
Found ation</w>
B less</w>
zi el</w>
war -
un ted</w>
tra ders</w>
t re</w>
ss op</w>
r ati
pro claims</w>
nor mally</w>
m us</w>
guit ari
g est
exc use</w>
en de
corp se</w>
cli mate</w>
ci stern</w>
ar mor
Pi er
Or der</w>
L .</w>
Kor ea</w>
Je thr
Hi stor
Ex ternal</w>
C e
Ben- Hadad</w>
Bar ab
Ash kelon</w>
|| ||
tra va
spre ads</w>
s cu
reck oned</w>
rai sing</w>
per ceive</w>
over throw</w>
intellig ence</w>
il le</w>
colle ctors</w>
ch us</w>
br ac
appe aring</w>
P ap
Han un</w>
E la
Ara mean</w>
195 4</w>
tra pped</w>
supp lied</w>
sk a</w>
s cul
pl undered</w>
p ou
ne ls</w>
lo be</w>
lea p</w>
la bel</w>
god liness</w>
ga ze</w>
country side</w>
c ers</w>
abb as</w>
Re mali
H es
9 8</w>
z ad
ve led</w>
strongh olds</w>
sat elli
re gre
pur chase</w>
p ound</w>
ox y
nor th-
mp h
jo int</w>
j ars</w>
fornic ation</w>
first fruits</w>
du mb</w>
de ter
blos so
Vo y
L ower</w>
Jethr o</w>
H innom</w>
E pi
wor ms</w>
ver ily</w>
te -
st ened</w>
ra il</w>
r hy
o ven</w>
nerv ous</w>
mo der
merchan dise</w>
land fall</w>
inten se</w>
fav our</w>
emb arra
att enti
Swe dish</w>
G ol
D ed
Bar abbas</w>
195 9</w>
tru sting</w>
su ffra
pa inting</w>
or ation</w>
ly re</w>
li eth</w>
lac king</w>
inter rup
for bidden</w>
fi lls</w>
eli tes</w>
ali </w>
W o</w>
Stag g</w>
C l
Bu reau</w>
Bil ly</w>
weigh ts</w>
we igh</w>
ti the</w>
thir teenth</w>
success fully</w>
mirac ulous</w>
le vels</w>
la p</w>
hy ssop</w>
gree ted</w>
ge o
fa iling</w>
con serv
ch ronicles</w>
bl an
be er</w>
b ou
Ox ford</w>
O p
Do min
B ah
scorbu tic</w>
pre -
pier ced</w>
pi geons</w>
occur s</w>
ne a</w>
l y-
k shire</w>
in corpor
ill ness</w>
har der</w>
g al
emplo yed</w>
cap acity</w>
bapti ze</w>
bal ance</w>
a we</w>
Jap heth</w>
Is cari
For ce</w>
19 39</w>
y ie
wicke dly</w>
sk ull</w>
sacrifi cing</w>
pi led</w>
ou tw
land ers</w>
kno cked</w>
in ations</w>
ignor ance</w>
exper im
dra matic</w>
bi ll</w>
ascen ded</w>
Wil son</w>
S imp
K edar</w>
Franc is</w>
C op
An sw
wrong doing</w>
t ant</w>
fear ful</w>
de ck</w>
accomp lish</w>
Pho eni
Ke desh</w>
K ash
Al tar</w>
— it</w>
ten ded</w>
subdu ed</w>
prin ted</w>
po et</w>
par ables</w>
p ene
lo ops</w>
li ation</w>
inspi red</w>
fun ctions</w>
for bid</w>
di mini
cred ited</w>
bi lities</w>
archite cture</w>
al m</w>
af ford</w>
Whe ther</w>
Corne lius</w>
wis er</w>
tur ban</w>
treach erous</w>
re sist</w>
practi ced</w>
lo g</w>
dri ft</w>
col ony</w>
bas s</w>
atmo sphere</w>
al arm</w>
Pro te
Med es</w>
Kid ron</w>
á n</w>
thu si
sta dium</w>
sho ck</w>
ph y
par don</w>
out stretched</w>
mi ce</w>
li b
human ity</w>
ham mer</w>
fac tory</w>
exhau sted</w>
clean sing</w>
at ro
_ _
Tab or</w>
T our</w>
St and
S or
Jer i
An ah</w>
A D</w>
196 5</w>
wast eland</w>
v ex
un usual</w>
tri bal</w>
to ols</w>
sti a</w>
seven teen</w>
s est</w>
ra p
ough s</w>
oni st</w>
mor eover</w>
lo fty</w>
k ra
j a</w>
i st</w>
hand some</w>
ex pressed</w>
e peth</w>
do eth</w>
destro yer</w>
compla in</w>
capit als</w>
Po li
Nico le</w>
E r</w>
Cla ssi
Barab ant</w>
19 3
sin k</w>
in test
g ent</w>
ch ers</w>
ali zed</w>
Si b
She al
Jon adab</w>
D in
Com mon
6 .
x ing</w>
the tic</w>
temp tation</w>
stu ck</w>
st en
re mind</w>
re in
near er</w>
ma ids</w>
es _</w>
cu ri
ce ption</w>
a sion</w>
Un leavened</w>
Thi r
Sheal tiel</w>
Pas s</w>
NH L</w>
I L
G .</w>
Benjamin ites</w>
Al bert</w>
ty pical</w>
to te
strong est</w>
po e
le ans</w>
ir ri
hamm ered</w>
dedi cation</w>
aw ful</w>
Nethan el</w>
Megi ddo</w>
J as
B udd
A pol
val ent</w>
swif tly</w>
st les</w>
prostitu tion</w>
gre y</w>
gi es</w>
dra g</w>
compla int</w>
c ates</w>
bl in
Uzz i</w>
Tim nah</w>
Stan ley</w>
Si erra</w>
Remali ah</w>
O th
I t
D an
zad ak</w>
si zed</w>
prof itable</w>
organi zations</w>
o ting</w>
gre edy</w>
finan cial</w>
exten sive</w>
di eth</w>
cle ver</w>
al led</w>
air craft</w>
abomin able</w>
V III</w>
Psal m</w>
Pre ss</w>
P ort</w>
Jo ah</w>
Fre der
E zer</w>
Deli ver</w>
De cl
19 16</w>
vi </w>
smi th</w>
ro man
pha </w>
par ent</w>
gir ded</w>
exc it
de tail</w>
corre ction</w>
compas s</w>
ba sic</w>
U C
He le
Co ast</w>
we av
st ops</w>
she ep
se a-
reco very</w>
paralle l</w>
on o
nic kn
loo t</w>
k it
hei fer</w>
gi an</w>
distin ction</w>
de pri
crip pled</w>
craft smen</w>
contrac t</w>
car el
blo cks</w>
argu ed</w>
Re ich
Ne p
Mod ern</w>
Ko hathites</w>
Ger sho
Ga me</w>
196 0s</w>
s burg</w>
ru shing</w>
revol ution</w>
prote cts</w>
pri me</w>
pre su
pene tr
m ites</w>
le f
in c
disobe dient</w>
cou sin</w>
` I</w>
X erxes</w>
M au
Hag gai</w>
v et</w>
t tering</w>
sun set</w>
ri dge</w>
plu ck</w>
er r
drun k
bor ough</w>
ang eli
H ab
F C</w>
Ch ronicles</w>
190 8</w>
' When</w>
— they</w>
wa iling</w>
sw ung</w>
quarre l</w>
pro claiming</w>
p ush</w>
mus cles</w>
mix ture</w>
mer ged</w>
ho tel</w>
foot stool</w>
fa ils</w>
dwell ings</w>
co ve
ber ry</w>
am ong
P ur
Mo sc
Mo le
K in
Iscari ot</w>
Fa me</w>
C at
wi sely</w>
uni ons</w>
transgre ssed</w>
sho cked</w>
sc ent</w>
princi ples</w>
peop le
mber g</w>
gro aning</w>
en thusi
con firm</w>
col oni
b end</w>
appropri ate</w>
Pe or</w>
G host</w>
For est</w>
Bi ble</w>
8 3</w>
us ers</w>
twi light</w>
to e</w>
ste th</w>
sh ops</w>
re sident</w>
on i</w>
mo di
ma il</w>
m son</w>
indi cate</w>
foo ds</w>
fl ow
decor ated</w>
an us</w>
Z u
Sh out</w>
Re li
Phil harmon
Michi gan</w>
Jac k
Han ani</w>
Eli hu</w>
Con ference</w>
Ci vil</w>
ó n</w>
y wood</w>
uri m</w>
sc our
missi on
me ets</w>
i llu
hand ful</w>
extra ordinary</w>
dar kened</w>
conspi racy</w>
chi n</w>
che at</w>
cer tain
b ach</w>
ad mit</w>
Prin cess</w>
P ort
Flor ence</w>
B la
7 9</w>
1/ 2</w>
stro ke</w>
spl en
re comm
oper ations</w>
nine ty-
m m</w>
la yer</w>
ju mp</w>
gho st</w>
ge ogra
euten ant</w>
ent ally</w>
di men
breast plate</w>
a wards</w>
V II</w>
S ong</w>
Par an</w>
Common wealth</w>
tor ment</w>
pur chased</w>
op position</w>
mi ll
l eness</w>
intellig ent</w>
in ju
gra de</w>
exerci se</w>
ex ternal</w>
environ ment</w>
corp ses</w>
cont end</w>
consi sting</w>
astero id</w>
Zal mun
T ub
R ic
Ar ts</w>
watch men</w>
vege tables</w>
und ers</w>
st ab
sa pp
ri a</w>
pp ers</w>
murder ers</w>
influ enced</w>
i sol
f ting</w>
el ing</w>
ab sent</w>
Ze bah</w>
Rib lah</w>
Massac hu
M aria</w>
Ken az</w>
Isla mic</w>
I b
Ha mil
su itable</w>
stu mbled</w>
secon dary</w>
re place</w>
per forming</w>
mirac le</w>
mi gr
in justice</w>
ge ous</w>
fla v
f ro</w>
che ek</w>
ap ple</w>
among st</w>
accoun ts</w>
Wa se
De f
Abi ram</w>
8 8</w>
ti a</w>
sp rang</w>
ru ral</w>
prud ent</w>
pos ing</w>
pecu liar</w>
i si
h ence</w>
ga thers</w>
feel ings</w>
ent ity</w>
enor mous</w>
ele ct</w>
crow ned</w>
cra zy</w>
con sent</w>
bre e
ad venture</w>
Massachu se
19 44</w>
sha ved</w>
regi onal</w>
pursu ing</w>
it ch</w>
fl ourish</w>
di ct</w>
deli ghts</w>
conver ted</w>
conf ined</w>
co ffe
bo asting</w>
al lies</w>
Tur key</w>
P el
I N</w>
F all</w>
B .</w>
Ad ministr
Abe dne
3 rd</w>
195 8</w>
' No</w>
z u
proper ly</w>
prof essor</w>
over -
nomin ated</w>
miser able</w>
marvel ous</w>
li zed</w>
inv aded</w>
gre ement</w>
ex pi
desc end</w>
decre ed</w>
bus in
b ath</w>
b ama</w>
ance llor</w>
Tamauli pas</w>
R ap
Massachuse tts</w>
L au
K ong</w>
Ded an</w>
Bil hah</w>
Apol los</w>
wol f</w>
wh ore
vin di
ta sted</w>
re marked</w>
obe dient</w>
m at</w>
long est</w>
interpre t</w>
guitari st</w>
fu g
en burg</w>
effe ctive</w>
e ce</w>
d ared</w>
ch u
cap e</w>
broad cast</w>
be fore
associ ation</w>
Wi ld</w>
We b
Wase che</w>
Gersho m</w>
Geor gia</w>
B ol
web sites</w>
ti ly</w>
resu lted</w>
pri estly</w>
pregn ancy</w>
pl un
li cia</w>
equ ally</w>
bre athed</w>
b i</w>
any way</w>
an xi
P y
Man chester</w>
Magdal ene</w>
M ig
G old</w>
B in
195 6</w>
wol ves</w>
victi m</w>
v as
to ol</w>
resour ces</w>
p us</w>
over flow</w>
magne tic</w>
jack als</w>
floo ds</w>
doo med</w>
do zen</w>
be gotten</w>
ann el</w>
P in
O z
G E</w>
Fo x</w>
Di bon</w>
Bl ue</w>
B ank</w>
As semb
wri tings</w>
song writer</w>
si l</w>
sac ks</w>
ri son
ren dered</w>
re min
privi le
par ted</w>
mo b</w>
im pro
ic ked</w>
hang ings</w>
e ful</w>
bri cks</w>
arrog ance</w>
Tri ple</w>
S P
Mosc ow</w>
J earim</w>
Bi ll
tribu lation</w>
t ched</w>
sur render</w>
subsequ ent</w>
st ays</w>
ss -
si ckle</w>
prepar ing</w>
my thology</w>
le aned</w>
l yri
ino am</w>
imp ul
her o
go ssi
ev a</w>
child hood</w>
Y e
V e
Pro test
Moun tain</w>
Edu cation</w>
Ber iah</w>
8 1</w>
195 5</w>
sing les</w>
sc ru
s nu
pl us</w>
ho o
cre eping</w>
cou ch</w>
col ored</w>
bo iled</w>
bed room</w>
Zi ph</w>
Sax ony</w>
M uni
Beth- she
wi re</w>
tra ps</w>
th ly</w>
spo tted</w>
some body</w>
settle ments</w>
off en
o ce
lon ely</w>
lo th</w>
fell ows</w>
ear n</w>
di gn
deter mine</w>
cu p
cour ses</w>
ab solutely</w>
P ower</w>
Be ing</w>
ser iously</w>
s ounding</w>
ra ined</w>
practi cal</w>
ni e</w>
mer ry</w>
m ity</w>
consu lted</w>
ck -
Zalmun na</w>
V il
T ic
F ar
Columb ia</w>
Ala bama</w>
8 6</w>
. com</w>
ur ban</w>
trust worthy</w>
to tally</w>
resu lting</w>
pag an</w>
p lead
p ack</w>
occa sionally</w>
mat ches</w>
in ated</w>
fi shing</w>
ene th</w>
disc er
carca ss</w>
bbe an</w>
T enn
Moab ite</w>
Mi sha
De bor
D athan</w>
A ge</w>
197 0s</w>
wine press</w>
tro dden</w>
tor ch</w>
th ing
t ent
st eri
sol ar</w>
sig net</w>
oper ated</w>
north ward</w>
mode ls</w>
mar ching</w>
les son</w>
j i
instru ct</w>
gent le
esh -
con sist
cho colate</w>
can cer</w>
break fast</w>
as ser
app ly</w>
Rez in</w>
Re uel</w>
Rail way</w>
Na zi</w>
Na zi
Kash mir</w>
Hel ene</w>
GO D</w>
Debor ah</w>
Ar p
Amo s</w>
' How</w>
uni verse</w>
u ms</w>
t le
ste ward</w>
re y</w>
nu clear</w>
main land</w>
hel met</w>
gl aci
frequ ent</w>
es ia</w>
el se
eigh ty-
divin ation</w>
dis missed</w>
buil ds</w>
b ond</w>
ann y</w>
Zeph aniah</w>
Sci ence</w>
Reho b</w>
Pun j
O D
H at
Con tin
Con gregation</w>
Cari bbean</w>
C ele
thor n</w>
superi or</w>
sp ort
ren ce</w>
mu les</w>
medi an</w>
k u
ignor e</w>
har m
fi st</w>
eng ers</w>
ba seball</w>
ato mic</w>
W ake</w>
S yrian</w>
J ason</w>
Hur ry</w>
G or
Freder ick</w>
Armen ia</w>
Abedne go</w>
8 7</w>
— for</w>
ver t</w>
tu mu
sli p</w>
sett lers</w>
s ung</w>
s as</w>
rep ented</w>
re l</w>
org anic</w>
mon ster</w>
m .</w>
hi ll
go ld
er to</w>
episo des</w>
e z</w>
communic ation</w>
av enger</w>
a ud
P is
Christi anity</w>
A i
th ick
te mpl
sme lling</w>
sion ate</w>
sa m</w>
requi re
ra ven
obvi ous</w>
ma m
le in</w>
issu es</w>
est ic</w>
est ate</w>
er ously</w>
e ous</w>
deli ber
dd ai</w>
bo dy
blood shed</w>
asa ph</w>
appet ite</w>
Willi ams</w>
Sid onians</w>
Ga al</w>
E ze
B ene
3 9
w a</w>
sen deth</w>
relati vely</w>
per mit</w>
ma veth</w>
fortun ate</w>
Par rish</w>
Mi ch
Iz har</w>
I X</w>
Grou p</w>
Des pite</w>
Bath sheba</w>
20 ,000</w>
vo mit</w>
to ssed</w>
suppor ts</w>
secon ds</w>
pro to
ne g
lo veth</w>
l ined</w>
elop he
chan nel</w>
Z elophe
S in</w>
P .
Jero ham</w>
In don
Cha mpion</w>
C are
A long</w>
2 1-
19 32</w>
who m
tumu lt</w>
transl ation</w>
trans ferred</w>
rai ses</w>
plu cked</w>
ph eno
co ck</w>
b ours</w>
Voy ager</w>
St r
R id
R am</w>
Ill ino
H arim</w>
Fil m</w>
Bran ch</w>
An thea</w>
8 4</w>
wat er-
u ti
tran sport</w>
tra ding</w>
tit les</w>
the st</w>
t age</w>
sor es</w>
prosper ous</w>
pen is</w>
ob st
necess ity</w>
lo cau
ke h</w>
it a</w>
incl ined</w>
in vented</w>
imag ine</w>
hu mi
for mal</w>
fi x</w>
du ll</w>
d st</w>
d ity</w>
ca valry</w>
ath le
al ert</w>
Zelophe had</w>
Ser aph</w>
Re gi
P lan
Daugh ter</w>
Be or</w>
B lu
Abo ve</w>
7 .
we th</w>
u ted</w>
there on</w>
proce ed</w>
priv ately</w>
lin k</w>
leav en</w>
in eth</w>
gla dly</w>
extr a</w>
exc ited</w>
certain ty</w>
car bon</w>
bi shop</w>
ash ed</w>
Whe don</w>
Th or
Phili pp
Naha sh</w>
K al
Hamil ton</w>
H ou
G un
Cam bridge</w>
1 20</w>
un ah</w>
so- called</w>
smi ling</w>
sle dge</w>
s mar
r ant</w>
physi cs</w>
o sity</w>
ne ath</w>
n ouri
mi x</w>
in al</w>
gl ing</w>
gen u
explan ation</w>
do x</w>
crow ns</w>
Teko a</w>
Te am</w>
T w
She pher
S and
M ir
Illino is</w>
He pher</w>
F ort
Ara unah</w>
z z</w>
scor pi
sab baths</w>
ori ous</w>
ony x</w>
lo -
furn iture</w>
fi ghts</w>
exi sts</w>
di el</w>
clif f</w>
ari b</w>
accep ts</w>
T el
Hit ler</w>
Go d—
Ger ar</w>
Dor n</w>
B ig
6 th</w>
,00 0,000</w>
ti les</w>
t end</w>
reli able</w>
mi ll</w>
merch ant</w>
ma mm
lan ded</w>
imag ination</w>
ch or
ceremon ies</w>
achi ev
ac knowle
S her
K n
K han</w>
Is lam</w>
Ho y
un punished</w>
sha k</w>
se als</w>
pre scribed</w>
mosqu es</w>
medi um</w>
intel le
imp rison
ess al
en rolled</w>
e ll</w>
divor ced</w>
di ce</w>
cu it</w>
c ations</w>
b arri
a ired</w>
Ori gin
Ben- hadad</w>
wh erefore</w>
th ron
scri pt</w>
ridi cu
pro portion</w>
pati ently</w>
ou ts</w>
occup ation</w>
occu py</w>
myst eri
in fer
i er</w>
hon ors</w>
en cies</w>
en chan
diti onally</w>
di et</w>
coffe e</w>
c us
bow els</w>
as sure</w>
affe ction</w>
S ul
Ma in</w>
Jo zabad</w>
Comm and</w>
Ca i
C ut</w>
8 2</w>
19 50</w>
ve hi
un a</w>
to s</w>
subsequ ently</w>
star t
se ers</w>
sal e</w>
ree ds</w>
poli shed</w>
p r
on el</w>
int end</w>
imp ati
i ce-
humili ated</w>
hop ing</w>
fron tier</w>
exce ption</w>
er on</w>
er ies</w>
drun ken</w>
char t</w>
cha sti
amoun ts</w>
V ash
San ctuary</w>
Pri sci
Po or</w>
Pal ace</w>
Mon go
Athe ns</w>
Assemb ly</w>
' Lord</w>
ste ep</w>
s -de-
peri ods</w>
ly res</w>
low ly</w>
lo an</w>
ingu ish</w>
il er</w>
ge th</w>
do er</w>
deser ves</w>
defin ite</w>
con tain
ball at</w>
San ballat</w>
OR </w>
H us
Cre ator</w>
Cen sus</w>
tam bour
star ring</w>
re sist
ner ship</w>
mi cal</w>
lo ads</w>
inse cts</w>
id le</w>
ho ckey</w>
fea thers</w>
embroid ered</w>
do om</w>
c ere</w>
bri lli
W ars</w>
Th essal
Prisci lla</w>
P op
Muni ch</w>
K ent</w>
Ch annel</w>
Cast le</w>
A sian</w>
A ij
19 36</w>
19 -
tra ditions</w>
ten ths</w>
shi p
scul p
scar cely</w>
sa i</w>
ri ch
represent ing</w>
pro spe
ja ws</w>
in er</w>
hop es</w>
gran ts</w>
forty- five</w>
de aling</w>
dama ged</w>
d wel
cau seth</w>
bu tter</w>
appar ent</w>
a do</w>
Ze us</w>
Ser ies</w>
Philharmon ic</w>
Mil burgh</w>
Li st</w>
K ane</w>
H ad</w>
C ul
An cient</w>
2 50</w>
19 37</w>
suspi ci
sp her
south ward</w>
se lls</w>
re sts</w>
pl ow</w>
mi l</w>
ma sses</w>
le op
ju bilee</w>
hear eth</w>
he irs</w>
four -
comfor table</w>
ce forth</w>
bre ach</w>
ad dress</w>
ab ound</w>
Vash ti</w>
Portu gu
Ho sp
19 41</w>
to- night</w>
seventy- five</w>
sche me</w>
ra ins</w>
pe tition</w>
paraly zed</w>
lo sing</w>
fi ctional</w>
f owl</w>
dwel leth</w>
ber y</w>
astoni shment</w>
as much</w>
arch ers</w>
Oper a</w>
Jer ah
In to</w>
Hung ary</w>
Cla ss</w>
Be ach</w>
tur ing</w>
se cured</w>
pi l
par ched</w>
la ge</w>
kne e</w>
histor ic</w>
gi cal</w>
free will</w>
fo lded</w>
f antasy</w>
er o</w>
cry p
child less</w>
cha pter</w>
ce ll
c ence</w>
birth day</w>
ban ner</w>
altern ative</w>
Sa ints</w>
Her odi
En -
Den mark</w>
Answ er</w>
8 9</w>
8 00</w>
un ning</w>
tu mn</w>
sh ru
nine ty</w>
in ate</w>
fle et</w>
feder al</w>
e tern
disobe yed</w>
differ ences</w>
bo mb
asc end</w>
Un less</w>
Phili stia</w>
Mel bourne</w>
Jud a
J r.</w>
Gre en
Gre ater</w>
Ges hur</w>
Bur n
195 7</w>
star ing</w>
over flowing</w>
o y
mini stering</w>
memb ership</w>
li am
im mediate</w>
ignor ed</w>
ha thite</w>
gl anced</w>
consi sted</w>
comb ination</w>
argu ing</w>
L est</w>
Ex am
190 5</w>
tr ace</w>
s— the</w>
sou theastern</w>
sl ander</w>
sin cere</w>
s ar
ri ders</w>
re less</w>
practi cally</w>
on ous</w>
n evertheless</w>
lead ership</w>
im pression</w>
fa ster</w>
f its</w>
f ancy</w>
c ard</w>
bul locks</w>
Tru e</w>
On tari
O ffer</w>
K at
H arri
- like</w>
swe lling</w>
sojour ner</w>
sma sh</w>
sh owers</w>
sche mes</w>
re ality</w>
pres sive</w>
pheno men
me etings</w>
i ally</w>
discus sed</w>
cy cle</w>
coura geous</w>
cc a</w>
b oun
any body</w>
Z in</w>
T ai
H old</w>
De tro
B undes
win ner</w>
whi p</w>
vest i
valu es</w>
terri fy</w>
ser ver</w>
rac ed</w>
por ted</w>
on ic</w>
o ms</w>
mon t</w>
ir o</w>
co ach</w>
Zi pp
Wh erever</w>
Sa ying</w>
Rh ô
R on
O L
Mil cah</w>
E n</w>
DV D</w>
Cub a</w>
Char lo
weak ened</w>
ter rors</w>
sp ed</w>
sho ots</w>
maxi mum</w>
mar ket
in et</w>
gul ar</w>
defe cts</w>
cre ating</w>
Mu ch</w>
D S</w>
B ad</w>
19 00</w>
terri bly</w>
tele phone</w>
spea ker</w>
sh op
re duce</w>
pa used</w>
mor tals</w>
mechani cal</w>
fi lling</w>
edu cated</w>
dri ves</w>
compas sed</w>
clo sest</w>
bru sh</w>
achi eved</w>
Zo ar</w>
To gether</w>
S ti
Ontari o</w>
Gra ham</w>
F ree
Eli el</w>
Concer ning</w>
Bu f
18 th</w>
ti ght</w>
stop ping</w>
sl and
ph s</w>
mu st
in tment</w>
er up
er fully</w>
else where</w>
d ale</w>
con tested</w>
Zor ah</w>
T ap
Mam re</w>
K .</w>
195 3</w>
19 20</w>
16 th</w>
ur ge</w>
uni or</w>
tw ins</w>
tes ha
ss on
splen did</w>
sof tly</w>
skill ful</w>
she ll</w>
sharp ly</w>
pl ate
oxy gen</w>
ond er</w>
medi eval</w>
ma sh</w>
humi lity</w>
g ur
bor n
am bas
Ti b
Se ek</w>
La ws</w>
Jerah me
J O
Im mer</w>
Gar den</w>
Bel tesha
Beer- sheba</w>
Ba bel</w>
' A</w>
wond rous</w>
v ar
ti re</w>
th unders</w>
sta ur
sol ution</w>
re staur
pre ad</w>
person ally</w>
pear ls</w>
pass engers</w>
li mbs</w>
kilome tres</w>
inv asion</w>
ine a</w>
ho ok</w>
commun ities</w>
com b</w>
collap se</w>
air port</w>
T I
S am</w>
Ki ll</w>
Jan e</w>
I ran</w>
Ha zar
Bez alel</w>
overwhel med</w>
on t</w>
off ense</w>
nur sing</w>
min ing</w>
maj estic</w>
har sh</w>
de cent</w>
d un
d in</w>
b o</w>
Wor ship</w>
Satur day</w>
Portugu ese</w>
Hoy t</w>
Bo ard</w>
Beth uel</w>
A phe
ã o</w>
virtu e</w>
vi le</w>
r arely</w>
of- the-
me —
me tropolitan</w>
in a
g or</w>
dep ends</w>
cu d</w>
contin ental</w>
conf essed</w>
con ceive</w>
cab in</w>
advi sed</w>
WW F</w>
Uzz ah</w>
Sma ll</w>
R an
Po lish</w>
O ph
Ma ha
M ele
E ve</w>
Bri t
Ang lo-
19 38</w>
wri tes</w>
vers y</w>
se ctions</w>
predi cted</w>
ni ght
medit ate</w>
long ing</w>
km /
hi tes</w>
haugh ty</w>
ha ppi
h ind
ex tin
ever more</w>
astero ids</w>
analy sis</w>
ambas sa
ab hor
a y
Heav enly</w>
E I
D rin
Bui ld</w>
B our
An tar
2 nd</w>
sugg est</w>
roo ster</w>
ris oned</w>
p ans</w>
ne -
mamm als</w>
j </w>
gre eting</w>
fo lds</w>
dest ined</w>
coun ting</w>
c ac
Recha b</w>
Mr s</w>
Micro soft</w>
F ort</w>
Detro it</w>
B ang
y ce</w>
wa x</w>
tor ches</w>
sur -
ski </w>
restra ined</w>
ref ined</w>
po ols</w>
phra se</w>
mil dew</w>
life -
in cu
hosp it
gir dle</w>
foot steps</w>
ere cted</w>
ea e</w>
e tary</w>
disc re
ca p</w>
bu ck
Thi rd</w>
Mari an</w>
Ly ne</w>
John son</w>
El sa</w>
C ould</w>
C el
vo y
sum mon</w>
success or</w>
sepul ch
s-de- la-
s-de-la- Loire</w>
me chan
li lies</w>
imp urity</w>
i le
horiz on</w>
ha w
gre ed</w>
grand father</w>
gra ins</w>
expe cting</w>
disp leased</w>
cy press</w>
compar ison</w>
characteri stics</w>
a po
T ony</w>
T am
She lemiah</w>
Res cu
Pay s-de-la-Loire</w>
Nor way</w>
I ron</w>
Eng lish
Eli phe
19 42</w>
te sts</w>
si es</w>
ro s</w>
pe gs</w>
p up
offi ces</w>
off ended</w>
mis chief</w>
kn esses</w>
her bs</w>
fac tor</w>
exi sting</w>
di plo
devi sed</w>
deli vers</w>
consu lt</w>
c ance
br a</w>
ah s</w>
Hu sha
Ger a</w>
Dy nasty</w>
D e</w>
Ammi hud</w>
4- 5</w>
with draw</w>
volun te
ter -
ri val</w>
measure ments</w>
mar ine</w>
km/ h</w>
kin smen</w>
ki m</w>
hi ll-
favor able</w>
e .
dro ps</w>
depar ture</w>
d war
civili zation</w>
assur ed</w>
assu med</w>
ad ding</w>
Mi ss
Al f
12 ,000</w>
twenty- three</w>
the me</w>
stor age</w>
on able</w>
le per</w>
es sive</w>
den o
ap has</w>
al a</w>
Syl via</w>
Ram oth-
Qu ar
Nehe miah</w>
Nav y</w>
Gu ard</w>
Fron tier</w>
Ara ma
3- 4</w>
' God</w>
well- being</w>
vie wed</w>
uni vers
under stands</w>
th rows</w>
st ag</w>
resid ence</w>
pu zz
mon o
mar ble</w>
loo sed</w>
j er
in tent</w>
execu tion</w>
e tte</w>
descend ing</w>
counsel ors</w>
co mic</w>
app lication</w>
al pha
W all
Re port</w>
Oth niel</w>
O kla
Hosp ital</w>
E p
Din ah</w>
Cre te</w>
2 2-
v anished</w>
thron ed</w>
si p
si gh</w>
scho ol
pro gre
por ti
on ica</w>
o intment</w>
ligh ted</w>
fashi oned</w>
blos som</w>
beg ging</w>
as cent</w>
arri ves</w>
app lications</w>
ac id</w>
Jud gment</w>
Beltesha zzar</w>
the sis</w>
stri cken</w>
sho vels</w>
provi ding</w>
pro test</w>
pain ful</w>
flu te</w>
ext ending</w>
disc ern</w>
con cluded</w>
comm ittee</w>
arti sts</w>
Tic ino</w>
T se
I r
I S</w>
Hu ram</w>
Hal f</w>
H alle
Ba k
z one</w>
wag on</w>
up stairs</w>
tre n
ti ce</w>
sojour n</w>
short ened</w>
sh ines</w>
requ ested</w>
plead ed</w>
per cent</w>
mon thly</w>
man tle</w>
joy fully</w>
ha i</w>
en z
e e</w>
e _</w>
deser ts</w>
cra sh</w>
contra st</w>
ch y</w>
ap pre
Who soever</w>
U ri</w>
Sen ate</w>
Okla ho
Ken ne
Be ware</w>
Al p
19 10</w>
,00 0
vit am
val or</w>
s enti
over thrown</w>
kno ck</w>
j as
en s
dig ital</w>
ati a</w>
S ud
S ons</w>
Fra u
B ac
19 43</w>
un righteousness</w>
tech nology</w>
swee t-
suppor ting</w>
some how</w>
si e</w>
sha kes</w>
s se
ro lling</w>
ri ddle</w>
occa sions</w>
mu r</w>
m id</w>
i oth</w>
gradu ated</w>
favor ite</w>
ess ential</w>
che ck</w>
c el</w>
aven ge</w>
ac ade
Y ears</w>
Se eing</w>
Re move</w>
Pla y
Jo bab</w>
y l</w>
us s</w>
traffi c</w>
pu tteth</w>
prepar ation</w>
p its</w>
p a</w>
outw ard</w>
indi cated</w>
incre ases</w>
i le</w>
holi day</w>
ho pe
hi des</w>
genealo gy</w>
fat al</w>
disap pointed</w>
conven i
contribu ted</w>
con fron
b ere
an alo
acqua int
Te ch
St ud
M other</w>
As shur</w>
Aij alon</w>
195 1</w>
wav ed</w>
ur ine</w>
re alm</w>
phi cal</w>
p iti
ou l</w>
observ ations</w>
immor al</w>
fo c
fe els</w>
ev ils</w>
et ness</w>
de als</w>
bloo dy</w>
Me mp
Jer sey</w>
Dest ro
Budd hi
19 33</w>
tra l</w>
stan deth</w>
sn at
sc ar</w>
ro tten</w>
plan ting</w>
mil lions</w>
mele k</w>
l an</w>
ft .</w>
econo my</w>
e g</w>
disobe dience</w>
conclu sion</w>
be y</w>
as sist</w>
Wal t</w>
Sho bal</w>
Re dee
Chri stop
Cai aphas</w>
19 15</w>
w ou
ton o
temp er</w>
sla yer</w>
sha med</w>
or ange</w>
me tal
mathemati cs</w>
interrup ted</w>
inher ited</w>
divi ding</w>
ap ped</w>
al u
For mula</w>
C ast</w>
C ab
B ush</w>
Ad ar</w>
A un
' But</w>
where of</w>
upri ght
sor rows</w>
she ar</w>
pu lling</w>
new ly</w>
le ton</w>
l le
devast ated</w>
corrup ted</w>
all ow
adi se</w>
ab use</w>
Memp his</w>
L ao
Gi lead
Ba anah</w>
B at
B am
Alp es-
ur us</w>
so ccer</w>
sen ior</w>
pro vision</w>
observ ation</w>
gri p</w>
di ale
cy clo
bil lion</w>
Pre sid
F L</w>
Az ri
' Take</w>
win es
w ers</w>
under neath</w>
scen es</w>
sa ddle</w>
promo ted</w>
municip alities</w>
mir ror</w>
l st</w>
ght ful</w>
gar rison</w>
excit ement</w>
ex press</w>
cir culation</w>
cand le
a hem</w>
Sh es
Oklaho ma</w>
Musli ms</w>
Her cules</w>
Ever y
Con vention</w>
Con stitution</w>
Ad aiah</w>
A lice</w>
2 3-
. C</w>
tw ined</w>
thu mb</w>
stret ching</w>
sn ares</w>
rai ment</w>
r ington</w>
pu pi
poin ting</w>
mo bile</w>
loy d</w>
in sisted</w>
imprison ment</w>
imp risoned</w>
identi fied</w>
fi li
ed itor</w>
e c
cer ti
al ous</w>
S au
Punj ab</w>
Halle lu
Ba seball</w>
visit ing</w>
thirty- two</w>
star red</w>
sel fish</w>
seas hore</w>
rou ghout</w>
ro e</w>
quali fied</w>
peace- offerings</w>
pa irs</w>
p ays</w>
ma gn
lov ing
li el</w>
he ated</w>
ha il
fle eing</w>
f an</w>
end ured</w>
ed ings</w>
colle ctor</w>
bla de</w>
attend ants</w>
_ I
Th roughout</w>
Je ther</w>
Jack son</w>
JO H
A wake</w>
5 th</w>
19 34</w>
ü n
treach erously</w>
ste adily</w>
sp an</w>
sha ddai</w>
ne phe
li p</w>
in ward</w>
dir ty</w>
di pped</w>
correspond ing</w>
condem nation</w>
compu ters</w>
co pe</w>
al co
absor bed</w>
V au
R he
Nu mber</w>
K it
Indi ans</w>
Hor mah</w>
Com mission</w>
Ba als</w>
A T</w>
vi olet</w>
vers ary</w>
stor ero
s our</w>
ro les</w>
publi can</w>
l en
hus band
gra m</w>
gn ition</w>
ge ant</w>
dre ad
docu ment</w>
desi rable</w>
deli cate</w>
conce ption</w>
bott abad</w>
bo a</w>
blosso ms</w>
Tru st</w>
LE N</w>
Cra w
Al ways</w>
9 6</w>
8 .
wond ering</w>
ti al</w>
stub born
prosper ed</w>
possi bility</w>
men stru
lu ck</w>
inst alled</w>
i zed</w>
he mi
go ti
fi shes</w>
eag les</w>
crow ded</w>
conce aled</w>
car ds</w>
ba ker</w>
ar -
accus ation</w>
I mp
Har t
Eli ′
Ci licia</w>
Bav aria</w>
Ab bottabad</w>
á </w>
str ates</w>
sett ings</w>
sadd led</w>
r ated</w>
pois onous</w>
plo tted</w>
o tic</w>
law yer</w>
iti cal</w>
influ ential</w>
i e</w>
great -
emb race</w>
dis order</w>
da w
con vo
coast al</w>
bro w
as s
ari as</w>
all ing</w>
R ho
Kar l</w>
K now
Go d
Ag ag</w>
ze bu
yl or</w>
upright ness</w>
tri als</w>
th ai</w>
str ate
st ature</w>
ri c</w>
rap id</w>
pro clamation</w>
pres ently</w>
pe t
pav ement</w>
o mer</w>
ma ssive</w>
ma p</w>
intro duction</w>
gra pe</w>
g ad</w>
fo ssi
fla shed</w>
ex </w>
eun uch</w>
es —</w>
drow ned</w>
dra ws</w>
dep ending</w>
cri mson</w>
con sol
co in</w>
ceremon ially</w>
before hand</w>
Se cu
Me thu
Cor inth</w>
Ch en
Adu llam</w>
5- 6</w>
wi ck</w>
ul a</w>
temper atures</w>
spo iled</w>
satelli te</w>
s wit
run k</w>
physi cian</w>
organi sms</w>
on line</w>
me tery</w>
m ariah</w>
home town</w>
eth nic</w>
en throned</w>
eat eth</w>
down fall</w>
b owing</w>
at tribu
a king</w>
Spe cial</w>
Sp ace</w>
S S
Midi anite</w>
19 35</w>
sympa thy</w>
ss ance</w>
sol o</w>
so o
sh aring</w>
re tain</w>
r at</w>
prin t</w>
mu le</w>
lo gs</w>
li o</w>
gn ant</w>
far thest</w>
en camp</w>
emp tied</w>
dign ity</w>
ci gar
ba al</w>
b ic</w>
ar d
anti scorbutic</w>
ahi tes</w>
Ze badiah</w>
O T
H ob
Gershon ites</w>
EC W</w>
w ins</w>
vin eg
temp est</w>
sol ute</w>
ra bb
pl ying</w>
id ae</w>
hemorrha ge</w>
gr ind</w>
gover n</w>
f abri
comp on
col ours</w>
brea thing</w>
ag e-
ad vo
Tse baoth</w>
Sha ul</w>
Re gion</w>
Organi zation</w>
Obed- Edom</w>
H ong</w>
Ch u
Are a</w>
wea ker</w>
vineg ar</w>
tho dox</w>
store houses</w>
ss ac
sor row
sele ction</w>
sa iling</w>
rhy th
re adily</w>
pre vented</w>
pi g</w>
persecu tion</w>
mysteri ous</w>
ket ball</w>
institu tions</w>
go est</w>
gi ble</w>
expe lled</w>
est i
down ward</w>
da e</w>
contro versy</w>
cle ared</w>
bri ck</w>
bl esses</w>
behavi our</w>
be ans</w>
associ ate</w>
V an
Por ges</w>
Meri bah</w>
Ira q</w>
Hallelu jah</w>
Drin k</w>
D am
B us
2- 3</w>
' These</w>
y n
v ate</w>
stub ble</w>
ster ies</w>
st aves</w>
savi or</w>
psy chi
op her</w>
obe ys</w>
neighbor ing</w>
labor ers</w>
full ness</w>
edi ly</w>
ear rings</w>
di ction</w>
con ve
che erful</w>
ar o</w>
a me</w>
P our</w>
O w
Ne t
Mak ke
L es
Fri day</w>
D NA</w>
Bri an</w>
Ab don</w>
A round</w>
wel fare</w>
vesti bu
ta lity</w>
ta ker</w>
sugg estion</w>
su i
sta ined</w>
sle ep
si mi
sche du
say est</w>
po le
pa int</w>
ma d
li sm</w>
exten ds</w>
enlar ged</w>
devi se</w>
cry stal</w>
cri tical</w>
cor ner
Th ank</w>
Te h
Sheb na</w>
Kenne dy</w>
9 2</w>
we aned</w>
tabo o</w>
t ah</w>
si de
shou ldest</w>
semi -
s lo
progra ms</w>
oppress or</w>
ha iah</w>
gra phy</w>
gr at
des k</w>
de pi
con sole</w>
con ference</w>
bri bes</w>
bes ought</w>
ab hor</w>
U kra
Redee mer</w>
Nor th-
May enne</w>
Je ush</w>
Hawai i</w>
HE LEN</w>
A kk
A greement</w>
A ges</w>
— this</w>
we ari
upro ar</w>
th aim</w>
sw ine</w>
sh re
schol ars</w>
pre fer</w>
pain ter</w>
oc curren
mo tor</w>
inter ior</w>
imp le
ende av
des iring</w>
de layed</w>
custo med</w>
bi es</w>
b ay</w>
Wor k</w>
Ner iah</w>
My self</w>
I T
Har dy</w>
ES T</w>
D evil</w>
A C
8 ,
15 th</w>
. ”</w>
sa u
prou dly</w>
or -
ly _</w>
lin e
k ling</w>
ju stly</w>
inv ade</w>
inst in
ing er</w>
im posed</w>
gaz elle</w>
fin ely</w>
f itting</w>
conf ession</w>
concer ts</w>
bri efly</w>
av </w>
ar ou
Ta mil</w>
Sham mah</w>
Or nan</w>
O tto
Mus hi</w>
Mexic an</w>
K y
Jer ubba
Gran d
E L
Ang els</w>
— not</w>
z an</w>
wro th</w>
worshi pers</w>
vo l</w>
tis sue</w>
ter ia</w>
te or
prim itive</w>
part ners</w>
ll owed</w>
le v
evid ently</w>
engra ved</w>
den se</w>
de pu
back ground</w>
adver ti
B run
Ar d
2 5-
whi sper</w>
v ac
sun rise</w>
sti ly</w>
si ded</w>
shir t</w>
s well</w>
respe ct
min ster</w>
min es</w>
lou der</w>
gras p</w>
ex changed</w>
elect ro
con stitution</w>
clo sing</w>
ck ers</w>
blasphe med</w>
an ci
Shepher d</w>
Fi eld</w>
Ch ur
C ow
Be hind</w>
An th
1- 3</w>
t ens</w>
sw arm</w>
sul fur</w>
so les</w>
s ling</w>
renew ed</w>
re tained</w>
perfe ction</w>
op er</w>
ne sts</w>
m ates</w>
ke y
g ly</w>
fir ed</w>
collap sed</w>
auth ors</w>
ani st</w>
a woke</w>
Wo od
Ri o</w>
Mole ch</w>
Law rence</w>
G ab
Die go</w>
Angel -
19 40</w>
work man</w>
w af
trage dies</w>
survi ving</w>
sti cal</w>
smo king</w>
remo te</w>
persu ade</w>
p atch</w>
o ted</w>
ir man</w>
in nah</w>
ic an</w>
ho lah</w>
gr and</w>
fore heads</w>
flu id</w>
di os</w>
de g</w>
comm it
appar el</w>
a _</w>
Wri tings</w>
Sh in
S lo
R ou
L ic
Kor ean</w>
H ast</w>
C ze
' Because</w>
uni versal</w>
uni que</w>
sweet- smelling</w>
sport ation</w>
sent enced</w>
respe ctively</w>
resol ution</w>
reconci liation</w>
re leas
o stri
m ary</w>
hi ts</w>
he wn</w>
foll ower</w>
fe asting</w>
fac tors</w>
es core</w>
domin ant</w>
comm itting</w>
coast lands</w>
c ran
attemp ts</w>
att ened</w>
accu r</w>
Z accur</w>
Ta ylor</w>
Sh ere
Rescu e</w>
Men ahem</w>
Jab in</w>
Do sson
A y
1 000</w>
é e</w>
t _</w>
suffra ge</w>
str inged</w>
ss a</w>
spe ckled</w>
ri tually</w>
quo ted</w>
pret end</w>
poe try</w>
ow ling</w>
opo ta
loving kindness</w>
h en</w>
ey eli
bo iling</w>
au tumn</w>
arch y</w>
ac customed</w>
Wal k</w>
T .</w>
S S</w>
F landers</w>
Dosson ville</w>
Bri dge</w>
Be yond</w>
An t
Al liance</w>
with held</w>
vestibu le</w>
uni st</w>
un intenti
thre at</w>
su re
squ ares</w>
popul arity</w>
ple a</w>
mu th</w>
moti ves</w>
li t
li m</w>
le aning</w>
ini an</w>
ho locau
he el</w>
ha ters</w>
gi ants</w>
fi cally</w>
fe tus</w>
f itted</w>
dist inguish</w>
chi ah</w>
che ese</w>
candid ate</w>
am er</w>
accur ate</w>
Su per
Pic tures</w>
M it
GO L
Christop her</w>
C au
9 .
2 4-
vo ca
uni form</w>
ter ies</w>
rou ted</w>
ro asted</w>
represent ative</w>
no vels</w>
ll ment</w>
it ely</w>
im pe
id ance</w>
g by</w>
for cing</w>
fi cent</w>
en sation</w>
e b
disp utes</w>
dishon ored</w>
dilig ent</w>
consid ers</w>
ca thedral</w>
all u</w>
Z abad</w>
Wi lderness</w>
Tim es</w>
Some thing</w>
S ene
Oph rah</w>
Che mo
Apost les</w>
Aphe k</w>
A v
v o</w>
sw arms</w>
ri pped</w>
puni shing</w>
manag ement</w>
im men
h -
gu y</w>
go in</w>
frigh ten</w>
engine ering</w>
di ble</w>
an ks</w>
am en</w>
ad mon
Roman ia</w>
Ne u
K ra
Ephra im
E lders</w>
Boz rah</w>
9- 10</w>
16 0
vi gor
thre escore</w>
sh rine</w>
revol utionary</w>
reck on</w>
ra ys</w>
ra ils</w>
pu r</w>
mar kets</w>
en ab
elect ronic</w>
desig nation</w>
deep est</w>
b inding</w>
O S</w>
Mat ti
Makke dah</w>
Li on</w>
Jerahme el</w>
I *</w>
Ho t</w>
H ap
God- of-the-
Fin land</w>
Cor por
Cho ose</w>
Bel sha
Be at
B roo
Acha n</w>
190 1</w>
wi t</w>
visit ors</w>
ter r
stri pes</w>
sta ir
s ke
reco gnition</w>
parti al</w>
p -
nav ig
m ac
lyri cs</w>
l unch</w>
ich ri</w>
i ses</w>
grin ding</w>
gl u
fu ll-
el a</w>
e ldest</w>
e cr
cru st</w>
characteri stic</w>
c rou
bapti zing</w>
Z ichri</w>
P lat
On an</w>
Mi k
Me mor
Mal ki
I P
Ha k
God-of-the- Angel-
Frau lein</w>
Const ant
Chemo sh</w>
After wards</w>
1 30</w>
vo ted</w>
ri tual</w>
re members</w>
r ons</w>
pl owed</w>
pil gri
he els</w>
gr o</w>
forty- two</w>
encoura gement</w>
di us</w>
cove t
contin ent</w>
assist ance</w>
Ro ger</w>
M aga
Ja hath</w>
F our
Distri bu
Ch ancellor</w>
Cent re</w>
C ategory</w>
Acha ia</w>
v able</w>
tar get</w>
super vis
seven teenth</w>
sen ses</w>
pomegran ate</w>
pi les</w>
need le</w>
it z</w>
ing en</w>
hun ter</w>
hon ey
fro st</w>
f owls</w>
expan sion</w>
do ctors</w>
conce al</w>
car s</w>
ang les</w>
a xes</w>
Tra de</w>
Tor onto</w>
Top heth</w>
Re c
O re
Mar shall</w>
JOH N</w>
H ope</w>
C lau
Beth sa
4 th</w>
war es</w>
u a</w>
t ag
sapp hire</w>
pro pag
o lives</w>
mu seum</w>
ma ssac
ki e</w>
fa ded</w>
do men</w>
courty ards</w>
c led</w>
al liance</w>
advis ers</w>
Th y
Shar on</w>
Pe leg</w>
M esseng
H ind
E bal</w>
9 4</w>
6- 7</w>
vict orious</w>
stu mp</w>
str ate</w>
redee mer</w>
re ls</w>
perman ently</w>
man ces</w>
fla shes</w>
er ness</w>
e ments</w>
discus s</w>
brea the</w>
blu es</w>
ab domen</w>
War rington</w>
War ner</w>
Sing ap
Mar es
B ob</w>
B E</w>
A man
7- 8</w>
wrest ler</w>
ver tical</w>
tu </w>
t ine</w>
su preme</w>
sorrow ful</w>
sha keh</w>
remo val</w>
quen ched</w>
no tably</w>
ki ller</w>
investig ation</w>
incid ent</w>
fo cus</w>
ele ts</w>
ele ctions</w>
dissol ved</w>
dele gates</w>
continu ing</w>
co asts</w>
che st
carp enters</w>
at tain</w>
arti stic</w>
Re hum</w>
Po ti
O l
Mes opota
Jerubba al</w>
J im
Ish -
El na
D on</w>
Bor n</w>
B ron
Ana k</w>
' Give</w>
y weight</w>
wa its</w>
ver te
swe ars</w>
stri ve</w>
self- control</w>
pur ge</w>
pi one
or bit
or ado</w>
in sur
e —
cru shing</w>
bu d</w>
b ark</w>
as hore</w>
al lied</w>
a mi</w>
Protest ant</w>
Mur ray</w>
El on</w>
Deli lah</w>
A M</w>
- up</w>
t iness</w>
roman tic</w>
pla ster</w>
ou rable</w>
oppress ors</w>
n esses</w>
maid ens</w>
m in</w>
lo dged</w>
jour na
industri es</w>
id entity</w>
g ori
g all</w>
fund am
du l
do -
dete ctive</w>
d rought</w>
ce pti
T us
Su preme</w>
Se phar
Pen insula</w>
Meshe ch</w>
Ma hal
Lu z</w>
Lo o
God-of-the-Angel- Armies</w>
Ger main</w>
G N
Ex ecu
Chi ld</w>
y —
un like</w>
ul ts</w>
sigh ed</w>
sid ers</w>
revol t</w>
re treat</w>
pursu it</w>
pos itive</w>
p ap
nu i</w>
newsp apers</w>
multi -
mpi onships</w>
manife sted</w>
ma dness</w>
hy per
ho ofs</w>
hill- country</w>
g gling</w>
g an
desper ate</w>
c ating</w>
brac elets</w>
bo k</w>
ac tors</w>
West minster</w>
Vin cent</w>
Tub al</w>
Squ are</w>
R O
Ped aiah</w>
Eri k</w>
Charlo tte</w>
By z
Belsha zzar</w>
1 10</w>
z ona</w>
thank ful</w>
sti mul
simp li
re stitution</w>
plo ts</w>
nine teenth</w>
nephe w</w>
m ar</w>
le w
l ance</w>
je cting</w>
i st
gre e</w>
dre i</w>
compla ining</w>
classi fied</w>
cl er
car go</w>
can al</w>
appear ances</w>
Shi shak</w>
She c
Secu rity</w>
Pis gah</w>
Maga z
Gil boa</w>
For give</w>
F ord</w>
All en</w>
tar ry</w>
susta ined</w>
ra sh</w>
pl enti
pi pes</w>
mo ments</w>
j earim</w>
i di
gun s</w>
faci lities</w>
es man</w>
di vers</w>
def ence</w>
concer ns</w>
con temporary</w>
ci us</w>
b oughs</w>
adul ts</w>
U z</w>
Stre ng
C ou
Bu k
un belief</w>
tra vels</w>
tit led</w>
ta iled</w>
ste aling</w>
sta in</w>
signific ance</w>
resi due</w>
rejoic es</w>
pe g</w>
monu ment</w>
may or</w>
mali ce</w>
ina ut</w>
he im</w>
ex iled</w>
emplo ye
dru g</w>
dece it
custo dy</w>
contro ls</w>
consequ ences</w>
co ol
ch t</w>
ang ered</w>
Shere biah</w>
Rev ol
Pro ce
N ar
Ha inaut</w>
Gabri el</w>
For e
Fig ure</w>
Bro ad
Bi shop</w>
Ad ah</w>
7 th</w>
19 4
19 29</w>
12 th</w>
terri fying</w>
sti ff</w>
rest ing-place</w>
remin der</w>
plate au</w>
parti ality</w>
mus cle</w>
mu stered</w>
me dy</w>
igh t
disper sed</w>
den sity</w>
dan ced</w>
ble -
arran gement</w>
U N</w>
Nep tune</w>
Na pole
N .</w>
Kan sas</w>
Fi ll</w>
Fer din
E than</w>
Dra w</w>
Az maveth</w>
A unt</w>
with standing</w>
wi des
where by</w>
v anish</w>
tu be</w>
sti ll
sa ble</w>
pi lot</w>
p per
one- third</w>
mar ke
magni fied</w>
infer ior</w>
incorpor ated</w>
ham mad</w>
fran chi
etern ity</w>
dis sip
d d</w>
d al</w>
com mod
cir cles</w>
c at</w>
at tained</w>
Thir ty</w>
Prussi a</w>
Misha el</w>
Li eutenant</w>
Jeri moth</w>
J ared</w>
High way</w>
Esh ta
Col orado</w>
Akk ub</w>
vict ories</w>
trava il</w>
tor rent</w>
straight way</w>
spo ils</w>
sp ur
sh ings</w>
regar ds</w>
ref using</w>
re d-
re building</w>
rai ded</w>
psal m</w>
pal ms</w>
min d
inju ries</w>
cub s</w>
consci ousness</w>
co llar</w>
ath aim</w>
V ern
Un like</w>
Nor we
N am
Mak ir</w>
Lin col
IN GOL
INGOL F</w>
B ati
Argent ina</w>
* I*</w>
transgre ss
stra in</w>
speci ally</w>
sele ct</w>
scorpi ons</w>
mo tor
me ad
leap ed</w>
kit chen</w>
k u</w>
gu iding</w>
go l
def ender</w>
def ended</w>
corre ctly</w>
che er</w>
ba mah</w>
an gular</w>
ag ent</w>
Ta an
Offi cial</w>
No te</w>
N ation</w>
Jeho hanan</w>
I ce
Hor se</w>
H indu
H ere
Bl ack
Ba ha
Asa iah</w>
Ar ctic</w>
9 3</w>
war nings</w>
us en</w>
tow n
th iah</w>
run g</w>
rub ble</w>
refre shed</w>
proc esses</w>
ord ering</w>
melo dy</w>
low -
lo ca
li mb</w>
k il
in fin
hur led</w>
hen ceforth</w>
ha te
ha stily</w>
h es</w>
gri eve</w>
gossi p</w>
fl esh
chemi stry</w>
can st</w>
blo t</w>
ax e</w>
as m</w>
W it
Indon esia</w>
Im perial</w>
Ferdin and</w>
F l
E drei</w>
17 th</w>
z or</w>
war fare</w>
su ally</w>
stri ctly</w>
spr out</w>
spea kers</w>
sequ el</w>
repro of</w>
perfor mances</w>
p ours</w>
no -
mi re</w>
initi ally</w>
i ll-
hosti le</w>
ha lt</w>
genu ine</w>
diag no
compe lled</w>
ch ess</w>
Vir gin</w>
Th row</w>
Sho op</w>
S on
P lu
Hi de</w>
Bro ther</w>
Ar ba</w>
6 ,000</w>
tr a</w>
ti ghtly</w>
ten ing</w>
t withstanding</w>
sub jected</w>
pro jects</w>
pas seth</w>
n ought</w>
liter ary</w>
disp layed</w>
difficul ties</w>
demo cracy</w>
de ad
d n
comp li
brilli ant</w>
be lls</w>
b ites</w>
b are
attenti ve</w>
ar do</w>
anci ents</w>
Yor kshire</w>
Vi et
Thessal onica</w>
Sou th
Pe ter
Na than
Mi ller</w>
M ere
L angu
Kad miel</w>
Fur ther</w>
Fri end</w>
Bere chiah</w>
An dre
week ly</w>
tre ating</w>
ter ns</w>
sto l</w>
st irs</w>
sho e</w>
r he
qu art</w>
ow a</w>
o m
justi fy</w>
interpre ted</w>
il legal</w>
hard ware</w>
g le</w>
execu tive</w>
dread ful</w>
di son</w>
conce pt</w>
cho ic
bo ar
be on</w>
ani sm</w>
ac eae</w>
Tru th</w>
T han</w>
Ste ve</w>
P. M.</w>
L iter
G ama
G am
For eign</w>
De cree</w>
C over</w>
Anth ony</w>
zz le</w>
with hold</w>
ten nis</w>
tal ks</w>
t s
sti ff
m ately</w>
ja w</w>
ir a</w>
her b</w>
foun tains</w>
fla x</w>
fish er
f le</w>
equi valent</w>
cho ir</w>
an cing</w>
Z ur</w>
Tur ks</w>
Tre vert</w>
J ess</w>
Hor on</w>
Demo cr
Brit ann
Bl ow</w>
15 0
' As</w>
z u</w>
vo cals</w>
over took</w>
neu ro
m ound</w>
li kes</w>
hu b</w>
ho of</w>
gra ze</w>
fl ung</w>
f ans</w>
ere thites</w>
electri city</w>
do me</w>
devo tion</w>
crimin als</w>
b anished</w>
arou sed</w>
ali ens</w>
Spe ci
Singap ore</w>
Shec aniah</w>
Per sians</w>
Matti thiah</w>
Mares hah</w>
Man as
Malchi jah</w>
L is
Israeli </w>
H ut</w>
D ak
11- 12</w>
— but</w>
y ne</w>
wines kins</w>
viol ated</w>
tti m</w>
secon d-
sc he</w>
ru pt</w>
resist ance</w>
ref rain</w>
post -
po em</w>
pac ked</w>
pa y-
n am</w>
lif ts</w>
li ca</w>
laugh s</w>
land ing</w>
i .
harmon y</w>
gi ous</w>
fol ks</w>
es i
electri cal</w>
cont am
cha </w>
a e
Wil hel
T ou
Sp ring</w>
Sociali sts</w>
S ophi
Ramoth- gilead</w>
Lou isi
Land on</w>
Ken ites</w>
Ethiop ians</w>
ER N
Cus hite</w>
Ash taroth</w>
Al b
A L</w>
wi reless</w>
ur ora</w>
under ground</w>
twenty- eight</w>
so oner</w>
sn ow
s ni
re marks</w>
re ct
r as</w>
pro longed</w>
my steries</w>
ming ham</w>
m our</w>
identi cal</w>
harvest ed</w>
form ally</w>
faith less</w>
deci des</w>
d av
d ashed</w>
ci st</w>
burnt- offerings</w>
au tono
attrac ted</w>
acqu ire</w>
Mon day</w>
Jo ′
It tai</w>
H art</w>
Cy re
C a</w>
Bin nui</w>
9 7</w>
5 0,000</w>
y ss</w>
tem is</w>
sw a
so ap</w>
or phan</w>
ne goti
metri c</w>
ld ad</w>
la kes</w>
imp act</w>
grand mother</w>
docu ments</w>
chi </w>
b able</w>
a el</w>
Wal ter</w>
Sil ver</w>
Sax e-
Ra il</w>
R av
M all
Ju lius</w>
Ho me</w>
Gu ar
Go mer</w>
E M
Dire ctor</w>
C it
Britann ica</w>
Bir mingham</w>
Bang la
An ything</w>
whi ps</w>
vi sual</w>
v ary</w>
stag ger</w>
st ad
sp an
se mble</w>
one- tenth</w>
negle ct</w>
li me</w>
kind le</w>
kilome ters</w>
jo bs</w>
indu l
in firm
h ers</w>
fro zen</w>
fl ouri
fal leth</w>
exhi bited</w>
do l</w>
cro ws</w>
coun ter
ci ently</w>
bl in</w>
be c</w>
at -
ar range</w>
T im</w>
Sociali sm</w>
R ul
Eliphe let</w>
E nd</w>
E D</w>
Bu y</w>
Bre ak</w>
Beth-she mesh</w>
Au stin</w>
190 9</w>
with stand</w>
v as</w>
triu mph
tra ditionally</w>
test ic
speci fically</w>
satis faction</w>
re action</w>
pow ered</w>
per ple
ori al</w>
mu te</w>
me als</w>
mati cally</w>
maid en</w>
m mon</w>
ki ′ah</w>
inten tion</w>
in ery</w>
horiz on
h ut</w>
g ons</w>
es cor
equi pped</w>
end or
di ary</w>
devi ls</w>
deliver er</w>
d us</w>
classi c</w>
bre vi
be z</w>
b ake</w>
at ers</w>
assemb lies</w>
` Lo</w>
Zi beon</w>
West pha
V ene
Sha phat</w>
Pu erto</w>
Pro phes
Portu gal</w>
Pier re</w>
Pe th
Pe te</w>
Mi sh
Mer ar
Gen o
Ear l</w>
D or</w>
Bati sta</w>
8- 9</w>
y early</w>
t ones</w>
ri ce</w>
promo te</w>
o aks</w>
neigh bour
mur ders</w>
har den</w>
gr ate
go als</w>
eyeli ds</w>
eg g</w>
depar tments</w>
consid ering</w>
clif fs</w>
aven ged</w>
ano ah</w>
an ne</w>
agu es</w>
Y o
Stre tch</w>
Samarit an</w>
Ren ai
Norwe gian</w>
Nebucha dre
JU D
IS B
Hu gh</w>
Ele ct
Bul g
Aqu ila</w>
A ze
12- 13</w>
' Where</w>
è che</w>
wides pread</w>
te aring</w>
symb oli
sprink ling</w>
sen sible</w>
s ley</w>
prophes ies</w>
past ure
ordin ation</w>
mon ast
mach ines</w>
li er</w>
ke m</w>
expl ore</w>
ess ly</w>
ern acles</w>
dedi cate</w>
deb ate</w>
d ances</w>
can e</w>
ble eding</w>
arti ficial</w>
ang led</w>
Renai ssance</w>
Li brary</w>
Jab bok</w>
In struction</w>
Ben ny</w>
Aha </w>
4 ,000</w>
ze alous</w>
whi lst</w>
wh ore</w>
un conscious</w>
tw in</w>
tex ts</w>
t z
scrip tures</w>
re serv
rac ks</w>
pu ah</w>
magni ficent</w>
inten sity</w>
inha bit</w>
i ch</w>
hi a</w>
frag ments</w>
fo xes</w>
do est</w>
dev out</w>
cla ws</w>
challen ge</w>
c -
bu ying</w>
blo cked</w>
as si
ali sts</w>
ab solute</w>
Prophes y</w>
Mu hammad</w>
Mesopota mia</w>
J un
I ri
I M
Gra mmy</w>
Columb us</w>
Cele br
Ar temis</w>
24 ,000</w>
13 th</w>
ti eth</w>
sa kes</w>
ri seth</w>
reve als</w>
restri cted</w>
require ments</w>
pra ys</w>
pleas ures</w>
oppon ent</w>
oce ans</w>
ni sh</w>
neighbor hood</w>
man age</w>
lo com
k le</w>
her oes</w>
gen e</w>
foolish ly</w>
er r</w>
de t
compre h
com mission</w>
cir cled</w>
ber ries</w>
be d-
b unch</w>
af fair</w>
ador ned</w>
Z ar
The atre</w>
Pro vi
Out side</w>
K on
Je hu
He in
Aun ty</w>
An ton</w>
A mb
2 6-
19 21</w>
' Behold</w>
to x
t —
storero oms</w>
sha ble</w>
sens itive</w>
ra ps</w>
pier ce</w>
ort ant</w>
lin ked</w>
imp ure</w>
hand ker
gi e</w>
for d
evil le</w>
endu reth</w>
el son</w>
di ce
d yed</w>
d ur
d ors</w>
d _</w>
blind ness</w>
an no
accu mul
Vern on</w>
Ti ll</w>
Sta dium</w>
Res earch</w>
P am
Min nes
Jo s
H end
Ged or</w>
De part</w>
Co ll
Car mi</w>
Bro ok</w>
Ara bic</w>
A M
twenty- one</w>
thirty- five</w>
sw am
sun k</w>
smar t</w>
sal es</w>
s -in-law</w>
mor tar</w>
le i
lat est</w>
in visible</w>
hun ted</w>
har med</w>
gu ides</w>
gro ves</w>
foo thi
fe ld</w>
fac e
expan ded</w>
embarra ssed</w>
e ches</w>
deri sion</w>
da i</w>
ct ual</w>
corner stone</w>
c unning</w>
bree ze</w>
boo ths</w>
bo lts</w>
best -
anxi ety</w>
V ide
Rev ie
Phoeni x</w>
Louisi ana</w>
Li thu
Le g
L ah
K ir</w>
Fo od</w>
9 1</w>
' S</w>
tur tle
temper ed</w>
sui cide</w>
stud ying</w>
stret ches</w>
sp la
na il</w>
me -
le af
lan e</w>
har shly</w>
dro pping</w>
depend ence</w>
defin ition</w>
compas sionate</w>
b ble</w>
aspe ct</w>
abo lished</w>
Mon tre
Le ad</w>
LE EN</w>
ISB N</w>
I v
Bu ll</w>
Blo od</w>
19 30</w>
with drawn</w>
tt a</w>
spe edily</w>
sp ace
sho oting</w>
sex ually</w>
s ound
roun ded</w>
racti ve</w>
one- half</w>
o enai</w>
mosqu e</w>
human kind</w>
gra phi
gir d</w>
g ashi
ff s</w>
cyclo pedia</w>
cir cuit</w>
bri ers</w>
bl ac
ba de</w>
Vi ol
Uni versal</w>
Minnes ota</w>
M ort
M ars</w>
K re
Johan n</w>
Ho g
EI LEEN</w>
E ′
Co lo
C ô
C old</w>
C lin
t ter
t our
summ it</w>
si zes</w>
serp ents</w>
s ings</w>
revi ve</w>
refu ge
r é
pow er
mo cking</w>
ma st</w>
le prou
jo you
is y</w>
inter view</w>
ing- room</w>
incl ine</w>
in ci
hosti lity</w>
guar ding</w>
ge ments</w>
expect ation</w>
disobe y</w>
deca y</w>
de cess
d ering</w>
cont est</w>
consid eration</w>
cle ave</w>
c as</w>
be it</w>
ai oth</w>
Zil pah</w>
Shelo mith</w>
R ub
P ADDA</w>
Lab our</w>
F O
Att ack</w>
Ari el</w>
Ab bey</w>
190 4</w>
' n</w>
' There</w>
w al</w>
vege tation</w>
techni que</w>
san e</w>
r ats</w>
provo king</w>
pla stic</w>
pha h</w>
p .
one- year-old</w>
la us</w>
jo ke</w>
im proved</w>
ha ting</w>
form at</w>
foothi lls</w>
f row
f ence</w>
expl ored</w>
end uring</w>
en ni
e- offering</w>
door posts</w>
distribu te</w>
coun cils</w>
conve ction</w>
compla ints</w>
co des</w>
ca mer
blasphe my</w>
bar n</w>
ad ministered</w>
Otto man</w>
Or thodox</w>
North- West</w>
Lo tan</w>
H ADDA</w>
Eli oenai</w>
Distribu tion</w>
Car l</w>
B ag
A k
weari ed</w>
vo m
un married</w>
u gly</w>
trans fer</w>
ta m</w>
sli de</w>
s led</w>
quant ities</w>
qu alities</w>
present ation</w>
mo an</w>
ke epeth</w>
jas per</w>
ga zed</w>
dri vers</w>
decl aring</w>
de ur</w>
cross -
continu ous</w>
confron ted</w>
che w</w>
bra ke</w>
ar at</w>
Uri m</w>
Que bec</w>
P itt
Me tropolitan</w>
L il
Jour nal</w>
Eno sh</w>
D ark</w>
Cle ve
C ep
8 0
wi ch</w>
voy age</w>
tresp as
thre ats</w>
supp lications</w>
super vi
ste d
sit teth</w>
sha llow</w>
scor ched</w>
re form</w>
pre ferred</w>
pre fe
pre decess
phe l</w>
n .</w>
mill stone</w>
lu sts</w>
liam entary</w>
leprou s</w>
labor ed</w>
ita del</w>
ho sted</w>
furni shed</w>
for so
for gave</w>
fe eds</w>
extin ct</w>
establi shment</w>
enti ally</w>
dre sses</w>
d g
ate ur</w>
Ze bo
Terri tory</w>
S pi
Reich stag</w>
R I
May or</w>
Ma on</w>
Lao dice
He ad</w>
E ag
Abi ezer</w>
9 th</w>
188 9</w>
va im</w>
uter us</w>
un believers</w>
stru ctures</w>
she ets</w>
ro ofs</w>
revi ved</w>
repe at</w>
re semb
pi c</w>
out siders</w>
lux ury</w>
li v
la unch</w>
l us</w>
kni ves</w>
ff in</w>
er son</w>
e dom</w>
day time</w>
cruci fy</w>
circumci se</w>
ce pt</w>
carca sses</w>
allo tment</w>
acade mic</w>
ac heth</w>
` The</w>
Tap puah</w>
Ore b</w>
Hel en</w>
Gama liel</w>
Fi b
Edom ite</w>
D ur
D ays</w>
B ack
Ari zona</w>
Ant oni
univers ities</w>
un t
u sage</w>
tor mented</w>
ther ine</w>
se lah</w>
sc ro
sa int</w>
represent atives</w>
pre acher</w>
pan els</w>
logi c</w>
ligh ter</w>
in au
i lity</w>
he li
fi r</w>
far -
exten sion</w>
es es</w>
end ers</w>
emer ged</w>
edu c
di ans</w>
dam sel</w>
accus ers</w>
accid entally</w>
ac ious</w>
Z ach
Westpha lia</w>
Simp son</w>
Sav i
Righte ous</w>
Mar gar
Mad rid</w>
Ja ha
Hag gi
Elna than</w>
D ue</w>
Con feder
B row
Ah inoam</w>
wi der</w>
ty ran
t te
sun light</w>
sign als</w>
rob bery</w>
regre t</w>
pay- per-
leg iti
fl int</w>
expl or
du cing</w>
dise ased</w>
cur y</w>
carel ess</w>
c row</w>
bund le</w>
birth right</w>
an as</w>
am ond</w>
ag ing</w>
` What</w>
Pre par
N y
N ear</w>
N ag
Ju an</w>
Gibe onites</w>
Gen eva</w>
Conni e</w>
Con ne
Cam p
Bethsa ida</w>
Be ar</w>
Ard èche</w>
A ven
A li
you —</w>
wast ing</w>
ti us</w>
sub -
ro l</w>
rain fall</w>
plenti ful</w>
ow eth</w>
o aths</w>
lac ks</w>
la yers</w>
iti </w>
i llustration</w>
ha stened</w>
for k</w>
fa de</w>
extr atro
extratro pical</w>
com ra
bold ness</w>
ba thed</w>
appoin tment</w>
Wis con
T est
May a</w>
L on
L ind
Je hon
Jar muth</w>
Herodi as</w>
Gir gashi
Eshta ol</w>
Cleve land</w>
è ge</w>
un righteous</w>
twenty- fourth</w>
spon tan
sp s</w>
smit eth</w>
short -
sepulch re</w>
sal ute</w>
roun ds</w>
re ti
prover bs</w>
process ing</w>
present ing</w>
mo de</w>
mis sions</w>
li ck</w>
iti ves</w>
harm ful</w>
ha ir
bro w</w>
blo ck
U ly
Ser ve</w>
Par t</w>
Ne co</w>
Mic hel
Mer aioth</w>
Le on</w>
Jos é</w>
Di shon</w>
Ari och</w>
Aman da</w>
190 3</w>
z on</w>
viol in</w>
ver e
v ap
tan k</w>
susp ended</w>
start led</w>
skir t</w>
qua kes</w>
oppon ents</w>
me —</w>
m end
jo ins</w>
jac ent</w>
j an</w>
invol ving</w>
floo ding</w>
engine er</w>
emb raced</w>
ele vation</w>
ele ph
ed ged</w>
dilig ence</w>
defe ating</w>
climb ing</w>
ci sm</w>
beau ti
be es</w>
b ordered</w>
ar ming</w>
Le ader</w>
JUD GE</w>
Ga ius</w>
De laiah</w>
D ri
Coun try</w>
Ch es
Beer oth</w>
A li</w>
3 :
17 5</w>
1 :
1 00,000</w>
whom ever</w>
valu ation</w>
unintenti onally</w>
tun nel</w>
tote m</w>
sh in
se est</w>
leop ard</w>
ju di
in fla
hal f
gu idance</w>
gall ons</w>
g av
g au</w>
cre am</w>
brigh ter</w>
are well</w>
appro ve</w>
af fir
a qu
Wiscon sin</w>
Tai wan</w>
S .
Na z
La ish</w>
G ray</w>
Destro y</w>
D ick</w>
B ack</w>
wel comes</w>
tambour ines</w>
t as
suspe cted</w>
stir ring</w>
so ber</w>
pres sions</w>
par liament</w>
p on
p ink</w>
over all</w>
op en
in vo
in form</w>
h r
h owl</w>
eri e</w>
emplo yment</w>
disa sters</w>
compos ers</w>
cen ser</w>
b age</w>
ap han</w>
T as
R est</w>
P ag
Ham p
Fib sy</w>
Decl are</w>
Cô te</w>
Bu d</w>
Ar ch
A way</w>
year ling</w>
y ley</w>
wor king
witn essed</w>
we ar
ul ation</w>
sil ly</w>
sat raps</w>
s son</w>
righ tly</w>
ri ly</w>
progra mme</w>
proc ession</w>
pi anist</w>
jo ints</w>
go alt
forso ok</w>
experi ences</w>
e labor
doub ts</w>
di verse</w>
conqu est</w>
char ging</w>
bo ss</w>
an ne
am pi
ag ony</w>
achi </w>
W ilt</w>
V ol</w>
Uzz a</w>
Taan ach</w>
Methu selah</w>
How ard</w>
Hav ilah</w>
Gu inea</w>
Gree tings</w>
Go thic</w>
Craw ford</w>
B eng
7 ,000</w>
- and-
volun tary</w>
u no
tt en
sub tropical</w>
pit cher</w>
philos opher</w>
pe la
mind ful</w>
liber al</w>
in sol
immen se</w>
enab led</w>
develop ing</w>
desig ner</w>
demo lished</w>
deliber ately</w>
com missi
ca b</w>
bi ology</w>
Phili ppi</w>
Phar ao</w>
N ev
L as
Jes haiah</w>
Ja el</w>
Dev elop
D oth</w>
Aze kah</w>
Ar k
Al ber
. D.</w>
wr ongs</w>
w l</w>
upro oted</w>
un circumcision</w>
stra y</w>
re jects</w>
proper ties</w>
pass enger</w>
out skirts</w>
ob sc
mu </w>
mi se</w>
li est</w>
le u
inst all
ing ham</w>
ide al</w>
heav es</w>
hear ers</w>
f ten</w>
ev acu
coun ts</w>
consi st</w>
consecr ation</w>
advi se</w>
acc o</w>
V ari
T ola</w>
Sax on</w>
S ports</w>
S ev
RA Y</w>
Pol y
Nazi rite</w>
Lu ke</w>
L ate</w>
Cru ci
9 ,
195 0s</w>
14 th</w>
x -
t ful</w>
sn apped</w>
sav age</w>
ph ar</w>
neg ative</w>
initi al</w>
hesit ated</w>
gra b</w>
gover ned</w>
genealo gies</w>
furni shings</w>
fisher men</w>
ev olution</w>
est ee
er er</w>
ent rails</w>
ear nest</w>
des ecr
cry ption</w>
convo cation</w>
con vul
cere al</w>
bid ._</w>
ani an</w>
ac company</w>
W ag
S hal
Rus sell</w>
Re p
Pro ject</w>
Po tter</w>
Montre al</w>
M UR
Ja haz</w>
I A</w>
En an</w>
E bed</w>
Corpor ation</w>
Cam eron</w>
Be loved</w>
Abi sha
Ab er
A urora</w>
2 9-
’ </w>
è re</w>
wre cked</w>
we ars</w>
u g</w>
tor ture</w>
th igh
s g
li cen
lamp stands</w>
hail stones</w>
gra ss
gl ands</w>
g au
fortun ately</w>
fe e</w>
exhor t</w>
exc ess</w>
ex ult</w>
end less</w>
emp ty-
e. g</w>
dar ling</w>
d less</w>
coun se
co stly</w>
clu sters</w>
b ′
b ers</w>
ar ai</w>
ac ute</w>
a ziah</w>
Zo an</w>
S H
Po k
Miss ou
Mi li
Lev itical</w>
L en
Joi ada</w>
G itt
Frank lin</w>
E th
E ile
Don ald</w>
Coun cils</w>
C lo
9 0
190 2</w>
19 23</w>
189 8</w>
13- 14</w>
wrong ed</w>
vo tes</w>
tu ous</w>
sy ca
reig ns</w>
ra zor</w>
pur posed</w>
pun k</w>
pasture land</w>
over threw</w>
non- Jewish</w>
mpi ons</w>
g us</w>
franchi se</w>
fe wer</w>
evol ved</w>
ent it
discipl ined</w>
con ium</w>
bri dle</w>
boo ts</w>
bet ro
al mond</w>
ab brevi
U ran
Th ings</w>
T estim
Obed- edom</w>
No tes</w>
N ature</w>
N ative</w>
N FL</w>
MUR RAY</w>
Jeho zadak</w>
Eile en</w>
Dav is</w>
D .
Byz antine</w>
Bill board</w>
Be ll</w>
Be el
Ala ska</w>
Al bu
10- 11</w>
' Be</w>
ze ment</w>
y land</w>
xx xx
worshi ps</w>
subst anti
sub stitute</w>
star ve</w>
stam p</w>
sel f
ran ked</w>
perfe cted</w>
occa sional</w>
now here</w>
neigh bours</w>
n y
n ut</w>
magni fy</w>
inte gr
inno cence</w>
hor on</w>
hand led</w>
gradu ate</w>
ch ri
b -
ad versity</w>
Zipp or</w>
TH E
Mu st</w>
Ma x</w>
Hi lls</w>
F ul
Constant in
Bo oks</w>
Beli eve</w>
A S</w>
' Get</w>
wal keth</w>
un happy</w>
un believing</w>
sub due</w>
sou p</w>
she ath</w>
se men</w>
rai sins</w>
per sist
liter ally</w>
l ur
ki ds</w>
hel pers</w>
ha l</w>
gen ital</w>
f oul</w>
en closed</w>
dru ms</w>
disposs ess</w>
dev ouring</w>
dest itu
beli efs</w>
b by</w>
Ven us</w>
Sci ences</w>
S ion</w>
Pro ven
Pe k
Holl ywood</w>
Foot note</w>
Fa ith</w>
Eze ki
Execu tive</w>
A vi
3 0,000</w>
° C</w>
ver i
valu ed</w>
um mim</w>
u ter</w>
trou ble
swi mming</w>
st ur
ss us</w>
slu mber</w>
ri er</w>
read er</w>
re cl
ran ges</w>
prote sted</w>
prof its</w>
prepar ations</w>
perfu mes</w>
pen gu
pas sions</w>
opp ers</w>
ob lig
ob je
mp son</w>
mar rying</w>
man ia</w>
hur ting</w>
gu m</w>
fo g</w>
fellow -
fa sten</w>
eng ines</w>
encoun tered</w>
consol ation</w>
be ware</w>
assu me</w>
anti cip
ag gre
Tho mpson</w>
Ta hath</w>
Stri ke</w>
S m
Po int</w>
Pe le
Oholi bamah</w>
Nic hol
Messeng er</w>
M ast
M ania</w>
I owa</w>
Her itage</w>
Gu err
E ast
Dani sh</w>
Bri en</w>
Bra b
Arama ic</w>
zer o</w>
tre mend
tr o</w>
ter ior</w>
st ink</w>
spi lled</w>
sear ches</w>
repro ve</w>
reas oning</w>
plac ement</w>
offen sive</w>
nine teen</w>
ju g</w>
j am</w>
is les</w>
inv ent
guar dian</w>
grate ful</w>
govern ments</w>
ga ins</w>
g t</w>
fil th</w>
far away</w>
dit ch</w>
discus sing</w>
destru ctive</w>
craw ling</w>
contro ver
coloni al</w>
cent ers</w>
c on</w>
bui lder</w>
bear eth</w>
att ending</w>
as sisted</w>
ap ed</w>
an t-
Po lice</w>
P ha
O' Brien</w>
I R
Ha th
Ethiop ian</w>
Du blin</w>
C D</w>
Ba se
A r</w>
2 :
19 22</w>
yl ene</w>
war t</w>
t allest</w>
symb ols</w>
swi m</w>
sugg ests</w>
ste am</w>
s owed</w>
p ace</w>
over lay</w>
ord on</w>
or es</w>
od d</w>
med al</w>
me l
ken ness</w>
ho lder</w>
histor ian</w>
for ts</w>
es is</w>
celebr ating</w>
c ents</w>
breast piece</w>
alpha bet</w>
al ms</w>
abo ard</w>
Tro phy</w>
Testim ony</w>
T ry</w>
T ow
Sheb aniah</w>
Sal vation</w>
Rid er</w>
Re publican</w>
Ra in
Missou ri</w>
M un
I conium</w>
Gu ide</w>
Ad ri
15- 16</w>
wit ch
sty les</w>
spe eches</w>
savi our</w>
s heaves</w>
ru thless</w>
row bridge</w>
requ ests</w>
r ations</w>
pos iti
pl ing</w>
perver t</w>
person ality</w>
origin ated</w>
nu tri
m wood</w>
loo keth</w>
lo qu
lion ess</w>
l ace</w>
in tri
ho l</w>
high ways</w>
gentle man</w>
es er</w>
do llar</w>
cri tics</w>
comp ounds</w>
co co
car ing</w>
candle stick</w>
bu ds</w>
appe aled</w>
app lies</w>
an ying</w>
Zebu l</w>
Th ere
T rowbridge</w>
Stand ard</w>
She ma</w>
K am
Dest ru
Constantin ople</w>
Car ter</w>
Bar tho
An n</w>
An d
' In</w>
tro op</w>
ti lity</w>
s— and</w>
suspici on</w>
strugg led</w>
str ation</w>
smi ths</w>
see keth</w>
ri bs</w>
responsi bilities</w>
re wards</w>
oper ative</w>
mini mum</w>
magi strates</w>
m ons</w>
ll ows</w>
in son</w>
in ary</w>
har bour</w>
f attened</w>
en cing</w>
dol f</w>
d ence</w>
critici sm</w>
consu ming</w>
condu cting</w>
col onies</w>
attend ant</w>
a me
Wa di</w>
The od
T rou
T rin
T op</w>
T O</w>
R al
Pitt s
No body</w>
N ob</w>
Ma x
Lo cal</w>
H oph
Ezeki el</w>
ERN EST</w>
D ai
Comp le
C C</w>
Bangla desh</w>
Az ur</w>
Ang le</w>
A l</w>
' For</w>
u ct
tur b
ta st
sha pes</w>
rob ber</w>
ro ad
reconci led</w>
pen ny</w>
pan hes</w>
ologi st</w>
necess arily</w>
light ened</w>
ligh test</w>
li ly</w>
inst antly</w>
in scription</w>
ig ns</w>
gra ms</w>
fug itives</w>
f ins</w>
despi ses</w>
d us
cont ents</w>
comb at</w>
boo ty</w>
bac teria</w>
ar cha
accur sed</w>
W ash</w>
Nebuchadre zzar</w>
Nathan ael</w>
N ap
Mini stry</w>
Mi ke</w>
Hear ken</w>
Gilead ite</w>
Eli m</w>
Base math</w>
Antar ctic</w>
14- 15</w>
yie lded</w>
wa xed</w>
sun shine</w>
shor ter</w>
se tteth</w>
re serve</w>
quen ch</w>
publi cation</w>
po sted</w>
neu tral</w>
labor s</w>
l ar</w>
in us</w>
in sist</w>
hate ful</w>
foun ding</w>
flo ors</w>
fle ece</w>
f arms</w>
es see</w>
eng age</w>
elimin ated</w>
chan nels</w>
bur ying</w>
bro ws</w>
bla dder</w>
bar ns</w>
av el
anch or</w>
ama zement</w>
Stu dios</w>
Ro o
Rh ine-
Re d
Mich mash</w>
Mere moth</w>
Mat t</w>
Le wi
Jav an</w>
H ub
Domin ican</w>
Car din
17- 18</w>
— in</w>
w ha
under world</w>
thigh s</w>
than ked</w>
ta kers</w>
ra m
questi oning</w>
post er
pen insula</w>
inter ven
her d
hear t
he- goats</w>
gra zing</w>
fini shing</w>
fe tch</w>
experim ents</w>
entit led</w>
enti ous</w>
dri es</w>
c itadel</w>
bor row</w>
batt le
arran gements</w>
ad ds</w>
U z
S ão</w>
S mo
S car
Rab shakeh</w>
R ama
Proce edings</w>
Pitts burgh</w>
O ber
Ly stra</w>
Le i
L loyd</w>
L UC
F un
Di vi
Col onel</w>
Cep has</w>
Bra d
Az el</w>
Ara bian</w>
Af gh
Abi hail</w>
A. M.</w>
wit z</w>
tu mors</w>
scienti sts</w>
ru shes</w>
ri e</w>
pro ves</w>
pot tery</w>
nu cle
negle cted</w>
k on</w>
jun ction</w>
in land</w>
horizon tal</w>
ha y</w>
ha iry</w>
gh t-
ge b</w>
g ay</w>
g age</w>
fal o</w>
expe dition</w>
ex pose</w>
emer gency</w>
destitu te</w>
deceit fully</w>
comp ound</w>
arra yed</w>
ar se</w>
al armed</w>
Wrest le
Pri ce</w>
P sy
Mahal alel</w>
H ath</w>
Gi o
Gi hon</w>
G in
F ind</w>
Com mon</w>
Ar go
3 /
00 s</w>
vir gin
thor n
t aries</w>
sen seless</w>
ri p
qui ver</w>
pu shing</w>
prote ctor</w>
perver ted</w>
pay-per- view</w>
lo a
ho mage</w>
har bor</w>
h o</w>
gen ous</w>
fig ured</w>
equ ality</w>
dece ption</w>
carp enter</w>
c ategory</w>
ap ples</w>
Tro as</w>
Ser geant</w>
R el
Patri ck</w>
Origin ally</w>
Me de
Laodice a</w>
Jam in</w>
Jaha ziel</w>
Hiv ite</w>
Guerr ero</w>
E st
C -
Ben hadad</w>
B is
B all
Antoni o</w>
19 24</w>
z ards</w>
ye lled</w>
vi v
vi cin
vi al</w>
vari ed</w>
thic kness</w>
sh oppers</w>
ri ot</w>
rememb ering</w>
reas onable</w>
re la
ra v
por ters</w>
or am</w>
lome w</w>
ld a</w>
invol ves</w>
infli cted</w>
i shed</w>
ha llowed</w>
fre sh
emo tions</w>
divin ers</w>
discer ning</w>
di er</w>
deno min
defin itely</w>
defe ats</w>
cru el
col oured</w>
characteri zed</w>
cha pel</w>
ch ro
bri m</w>
ap pal
al ties</w>
Tenn essee</w>
Te man
Mi llo</w>
L ud
Kiriath- jearim</w>
He th</w>
G id
E mer
Bartho lomew</w>
B r
B A</w>
Abi melek</w>
17 0
weav er</w>
vari es</w>
un failing</w>
tun ic</w>
tribu tary</w>
swe at</w>
stra ined</w>
sto cks</w>
stad t</w>
ridicu le</w>
puni shes</w>
poster ity</w>
must ard</w>
me try</w>
ke en</w>
is ing</w>
idolat ry</w>
hon estly</w>
home land</w>
h inder</w>
gl owing</w>
fun ny</w>
establi shing</w>
epi de
dun geon</w>
dru mmer</w>
decl ine</w>
ck ery</w>
car ts</w>
bene fits</w>
ar el</w>
ah —
Uly sses</w>
Tah panhes</w>
Ta king</w>
Savi our</w>
P it</w>
Mu si
Mi b
D ru
Be er</w>
B owl</w>
2 7-
wi thers</w>
we e</w>
visit or</w>
vicin ity</w>
tt in</w>
tri eved</w>
trave lling</w>
tour nam
the atri
t runk</w>
rin a</w>
resol ved</w>
repa id</w>
ren owned</w>
or bits</w>
nouri shed</w>
mar ve
ll ation</w>
ing —
immi grants</w>
i im</w>
hel p
heav ier</w>
good- bye</w>
foo led</w>
fla gs</w>
experi ment</w>
ere ct</w>
effi cient</w>
disgu ised</w>
des po
day break</w>
compre hen
ck les</w>
char ts</w>
assur ance</w>
adap ted</w>
Y our
Wrestle Mania</w>
Sol ar</w>
Ser v
Sal mon</w>
Re g
Per sonal</w>
Ne geb</w>
Mc Mah
Lib ya</w>
H up
D anites</w>
Alexand ria</w>
A A</w>
vag ina</w>
thou ght
te mo
shre w
rescu es</w>
reig ning</w>
radi ation</w>
pri or</w>
plan ets</w>
pati ents</w>
over seers</w>
mur mur</w>
mult ane
mo on
memb ran
ma sons</w>
li cense</w>
lac ked</w>
la l</w>
kin sman</w>
k ar
in ser
impul se</w>
gre en
gover ning</w>
consu mption</w>
bo xes</w>
accomp anying</w>
ab ides</w>
Shu shan</w>
Shu r</w>
Philipp ines</w>
Pen uel</w>
P ear
Mer cy</w>
Lev i
Jude an</w>
In dependence</w>
I ra</w>
C W</w>
Beau tiful</w>
Ba y
A ho
19 28</w>
zi b</w>
x ton</w>
whi te
v ai</w>
trave lled</w>
tra gic</w>
th is
st are</w>
sh er
sco pe</w>
restra in</w>
re ss</w>
pro pri
pot ential</w>
on ism</w>
non sense</w>
mechan ics</w>
in n</w>
ho mer</w>
gent leness</w>
g na
g gy</w>
far ming</w>
ex tor
end ent</w>
en vel
culti vated</w>
circum ference</w>
beg et</w>
appal led</w>
am bition</w>
affli ctions</w>
Ter ror</w>
Tal mai</w>
Sac rifi
Napole on</w>
Min or</w>
Mil an</w>
K ha
Had es</w>
Esh temo
Bra yley</w>
Afgh ani
we lding</w>
we ed</w>
war ming</w>
ur s</w>
up h</w>
touri st</w>
succe eds</w>
stri ps</w>
soo thing</w>
sil ently</w>
sc and
s cape</w>
pre tended</w>
pi m</w>
parti cles</w>
medi ums</w>
me tals</w>
m est</w>
lo cals</w>
jour nal</w>
imag ined</w>
hu mb
gras shoppers</w>
gra ph</w>
glaci er</w>
fabri c</w>
eri al</w>
disgu st</w>
cho ked</w>
b y-
ad jacent</w>
T on
Swe et</w>
Ser ug</w>
Ro ss</w>
R ang
Proven ce-
P ath
OR E</w>
Mor gan</w>
Li ving</w>
L I
Ki shon</w>
Ju lia</w>
J ad
Heav yweight</w>
H att
Gal atia</w>
Fa ith
F ro
E phah</w>
Ca therine</w>
C uri
C li
C hel
Burn t-
Brab ant</w>
Arp ad</w>
Administr ation</w>
- to-
ö r
uni forms</w>
tri cked</w>
tou cheth</w>
subur b</w>
sub jection</w>
su ck</w>
star vation</w>
s day</w>
res ort</w>
re side</w>
re moving</w>
ra d</w>
prece ding</w>
no ve
mo tive</w>
mach inery</w>
j o</w>
in stitution</w>
ga zing</w>
for giving</w>
fo x</w>
fav ored</w>
expen se</w>
dist ances</w>
d est</w>
concent ration</w>
comm enced</w>
chi ll</w>
bus hel</w>
bas ketball</w>
b arely</w>
avo ided</w>
ad ju
a deth</w>
Whi tes
W all</w>
V ar
Samarit ans</w>
S earch</w>
Provence- Alpes-
Par o
Lu x
Ke de
Jere moth</w>
H ano
Ger man
F lee</w>
Ed in
Cor ner</w>
C in
Beel zebu
Ar pha
Al pha
3 0-
ze k</w>
un fair</w>
ul u</w>
thirty- three</w>
thi stles</w>
syn di
shin ing-
refer ring</w>
re new</w>
ne ck
n atives</w>
migh tier</w>
ligh ten</w>
gle an</w>
fundam ental</w>
end ants</w>
depos it</w>
constitu tional</w>
choic est</w>
car riage</w>
but ler</w>
b itions</w>
av ed</w>
at edly</w>
anni hi
adulter ers</w>
Tre as
Tib eri
N at
Lib ni</w>
Cap it
Beat les</w>
B ow</w>
B lan
Arpha x
8 th</w>
′ zar</w>
zi g</w>
u nd</w>
thi as</w>
soli tary</w>
sk il
shor es</w>
shining- greatness</w>
sen ted</w>
scre amed</w>
scour ge</w>
s ows</w>
refle cted</w>
pursu ers</w>
pti c</w>
nur sed</w>
no isy</w>
lu de</w>
l ated</w>
influ ences</w>
in scribed</w>
goo dly</w>
dre ssing</w>
dou ble-
dis cover
dev ours</w>
cont ention</w>
consequ ence</w>
cla p</w>
char ds</w>
bu sh
best owed</w>
announ cement</w>
ade qu
ac o</w>
a er
Wi zard</w>
W ed
Ph .D.</w>
Oholi bah</w>
Margar et</w>
Jac ques</w>
In st
Har old</w>
Gu i
G all
Fried a</w>
F ight</w>
De ut
Cru sa
Ch est</w>
Ch `
C D
Arphax ad</w>
Add iti
10 5</w>
1. 5</w>
z aphan</w>
w as
threat ening</w>
t asks</w>
sub stitu
stri ct</w>
recei veth</w>
ran ging</w>
pu b
pri se</w>
pl owing</w>
pha se</w>
no on
n in</w>
mm ar</w>
l ingui
hoo ves</w>
gra vity</w>
escap es</w>
du -
blin ded</w>
b ounds</w>
attemp ting</w>
att ractive</w>
ari ans</w>
am bi
am ateur</w>
agri culture</w>
Z </w>
Who le-
Viet nam</w>
Sha d
S cand
Rhô ne</w>
P at</w>
Offer ings</w>
Me mber</w>
Man a
Magaz ine</w>
Gen er
Ele ctri
Ela th</w>
Ba si
Ara bs</w>
19 25</w>
v au
them —
temper ate</w>
succ ession</w>
su ffers</w>
sav or</w>
pre serv
pe l
pa y
ord es</w>
on ward</w>
li zation</w>
ki dn
int ending</w>
i i</w>
gav est</w>
g .</w>
estee med</w>
en raged</w>
devo te</w>
determin ation</w>
comp ensation</w>
comm union</w>
chi efly</w>
ch ard</w>
b at</w>
ak in</w>
ab or
Ze eb</w>
Wor ks</w>
Tur ner</w>
S /
Re u</w>
Lic ense</w>
Jok tan</w>
Indi ana</w>
Hung arian</w>
H und
Eliza be
Comm ons</w>
10 th</w>
1, 2
1 00
trans formed</w>
spe ll</w>
si er</w>
sha h</w>
scre en
sacrifi cial</w>
ro ared</w>
resid ing</w>
ra gs</w>
r att
pro be</w>
popul ated</w>
ol ly</w>
min ent</w>
mar tial</w>
ick er
en able</w>
dre ss
disp uted</w>
counsel or</w>
co vet</w>
b led</w>
archite ct</w>
acqua inted</w>
Zab di</w>
Your self</w>
Whole- Burnt-
Whites ide</w>
Wa il</w>
T zu</w>
Sto ck
Sa id</w>
Net work</w>
Medi cal</w>
K no
Ho sea</w>
Grand ma</w>
FI FA</w>
Cap ital</w>
Bo ys</w>
Augu stus</w>
Ammi el</w>
Ab arim</w>
3 4
20- 21</w>
189 5</w>
' Here</w>
ze el</w>
weigh s</w>
volcan o</w>
ul ty</w>
twenty- seven</w>
the ater</w>
ta unt</w>
strengthe ning</w>
sn ared</w>
sac </w>
s ession</w>
s ar</w>
rain bow</w>
rai g</w>
presid ential</w>
plat ter</w>
pa int
od a</w>
ob serving</w>
nav y</w>
mis fortune</w>
maid servant</w>
lish ments</w>
legiti mate</w>
la dder</w>
isol ated</w>
in um</w>
he dge</w>
gen re</w>
g led</w>
foo ted</w>
feat uring</w>
fa i
drun kenness</w>
di stor
de ported</w>
cre ator</w>
craft sman</w>
che cked</w>
ce iling</w>
attribu ted</w>
ati ah</w>
a pe
W right</w>
To mmy</w>
S anti
N ay</w>
M ack
L im
Fle mish</w>
Fin al</w>
Edin burgh</w>
Care er</w>
Azri kam</w>
Al lies</w>
Afghani stan</w>
A C</w>
189 9</w>
- ha
' On</w>
wast es</w>
virgin ity</w>
v ey
ur n</w>
tremend ous</w>
stam ped</w>
sle eps</w>
s ch</w>
roo ted</w>
psal ms</w>
produ ctive</w>
pin ned</w>
physi cians</w>
ow nership</w>
nar r
me teor
less er</w>
j est</w>
hi ss</w>
flow ering</w>
employe es</w>
e cho
do main</w>
ctu ral</w>
commissi oned</w>
cla sps</w>
ch op
car to
bur d
bo y
bo ast
author ized</w>
assa ult</w>
answ ereth</w>
ang aro
ab sur
V is
Theod ore</w>
T en
Sephar vaim</w>
Provence-Alpes- Côte</w>
Pri x</w>
North west</w>
Nico dem
L ong
Kur t</w>
I ran
I T</w>
Ha zer
Gre gori
Fi sh</w>
Fa ir
D ic
Cha pel</w>
Cel tic</w>
Bern ard</w>
Arti cle</w>
Ahi o</w>
Ahi ezer</w>
2 8-
19 27</w>
189 2</w>
1, 0
treas ur
thirty- seven</w>
ten ds</w>
susta in</w>
surroun ds</w>
su es</w>
spe lled</w>
sin cer
scienti st</w>
ru bbed</w>
p run
mi sm</w>
measure ment</w>
li can</w>
king ship</w>
har d-
empty- handed</w>
edi ct</w>
dra ined</w>
defen ses</w>
comple tion</w>
co ven
cc ent
camp us</w>
besie ge</w>
acknowle dged</w>
ab rup
Test ament</w>
TH </w>
T ag
Shun am
Sham mai</w>
Se attle</w>
Pok é
Lincol n</w>
Jim my</w>
Jac hin</w>
He alth</w>
Gla d
G ordon</w>
Fo ols</w>
En ough</w>
Eli asaph</w>
De ep</w>
Cyre ne</w>
B ry
Ana kim</w>
Ad mi
utter most</w>
uni mp
tt age</w>
tre mbles</w>
to tal
ti an</w>
suffi ciently</w>
regi ster</w>
pu rity</w>
provin cial</w>
prophe tic</w>
pe lah</w>
o my
mon ey
m stone</w>
lib ations</w>
lew dness</w>
is ance</w>
inter vals</w>
in ers</w>
im pressed</w>
i ′ah</w>
hypocri sy</w>
gro ve</w>
gre g
fu ls</w>
fo e</w>
exam ines</w>
en camp
du ke</w>
discre tion</w>
da tha</w>
d ash</w>
con tri
compe t
col labor
cigar ette</w>
can op
bra zen</w>
bo ′
bed ded</w>
be have</w>
av i
ash ing</w>
ag re
a si
Whi t
Righte ousness</w>
Nicodem us</w>
Mall uch</w>
M ac</w>
Jo sue</w>
Fran z</w>
Bor ough</w>
Be e
′ i
y on</w>
world ly</w>
vari eties</w>
un ts</w>
tt les</w>
treach ery</w>
tre ats</w>
stag g
sincer ity</w>
s lightest</w>
row er</w>
ro d
re vo
po ds</w>
p ters</w>
p se
out put</w>
ne cked</w>
mi e</w>
ll ings</w>
ine a-
he m
he al
for mula</w>
for ce
ern al</w>
equ ity</w>
enthusi asm</w>
e t-
deli very</w>
cri cket</w>
convi cted</w>
consist ent</w>
con templ
classi fication</w>
br ed</w>
bond men</w>
associ ates</w>
am id</w>
Z uri
Sud an</w>
St all
Prussi an</w>
Pal est
Mo z
McMah on</w>
L ay</w>
Je dia
Di sa
Destru ction</w>
Cruci fy</w>
C O
Apo llo</w>
200 ,000</w>
187 8</w>
zz o</w>
w ont</w>
var ying</w>
v ital</w>
sharp ened</w>
sel le</w>
schol ar</w>
ri des</w>
ran ch</w>
poin tless</w>
plun ged</w>
nickn amed</w>
nam on</w>
mathemati cian</w>
market place</w>
m ated</w>
ja zz</w>
id an</w>
ha usen</w>
h ordes</w>
goalt ender</w>
face down</w>
fa in
en sla
ed -
e motion</w>
e la
de lu
de ll</w>
de arly</w>
d dy</w>
cri sis</w>
cr ack</w>
corre cted</w>
bro th</w>
bor rowed</w>
be ho
anti le</w>
Tim na</w>
Ti sh
O tto</w>
L as</w>
Jo yce</w>
Je e
Clin ton</w>
16- 17</w>
y le</w>
who le
twenty- third</w>
tu mor</w>
thin ess</w>
the mes</w>
space craft</w>
represent ation</w>
re ci
privile ge</w>
par d
oun ced</w>
o le</w>
me ek</w>
mar veled</w>
m acy</w>
ll in</w>
ld st</w>
l '
k ick</w>
hy m
domin ated</w>
def ending</w>
ch o</w>
ceremon ial</w>
bbe thon</w>
av ia</w>
appro aches</w>
Who so</w>
W ind</w>
Tar sus</w>
Poké mon</w>
Par low</w>
O ften</w>
Li ège</w>
Lewi s</w>
F ine</w>
Ex cept</w>
C rown</w>
B lake</w>
Al most</w>
' Then</w>
un certain</w>
theatri cal</w>
th ia</w>
tal e</w>
sc ared</w>
s nor
righ t-
rep tiles</w>
rema ineth</w>
ra ped</w>
process or</w>
proce eds</w>
present -day</w>
pela go</w>
pe aks</w>
na iled</w>
mix ing</w>
lef t-
fair ness</w>
ex cluded</w>
ev angeli
ed —
dwar f</w>
dis da
di ly</w>
cro sses</w>
cover eth</w>
com memor
co median</w>
che ap</w>
ch man</w>
ce l
cal y
bru ised</w>
bi ography</w>
believ eth</w>
b ounded</w>
ampi re</w>
ag ement</w>
acc la
Shunam mite</w>
S piri
O z</w>
Nichol as</w>
Mig dol</w>
Mach pelah</w>
L ing</w>
Je con
Ishma elites</w>
Her bert</w>
Con tro
Comman der</w>
Beth- horon</w>
Alf red</w>
7 ½</w>
187 9</w>
un willing</w>
travel ers</w>
ther to</w>
sub species</w>
stati stics</w>
snat ched</w>
sn ow-
ru mor</w>
rich ly</w>
repe atedly</w>
reli eved</w>
pe as
par ks</w>
nu ts</w>
nor theastern</w>
mu nd</w>
moder ate</w>
magn itude</w>
leap ing</w>
law -
ki a</w>
imp or
im prove</w>
gg ard</w>
fur t</w>
ford shire</w>
ev in</w>
emo tional</w>
e cli
divor ces</w>
di th</w>
de ath
cur ved</w>
covet ousness</w>
contain er</w>
clu ster</w>
chor us</w>
busin esses</w>
aspe cts</w>
ap ron</w>
and /
age- during</w>
W ür
W es
To k
S under
Rhine- Westphalia</w>
Pres ently</w>
Pi ra
O range</w>
O no</w>
O li
Ne ph
Min ers</w>
Mer cury</w>
Lar ge</w>
LUC Y</w>
Juda ea</w>
Jedia el</w>
Hind enburg</w>
Bah urim</w>
189 4</w>
18- 19</w>
,000 |</w>
z o</w>
yie lding</w>
there with</w>
ten se</w>
sw are</w>
spi ce</w>
sc atters</w>
s an</w>
restaur ant</w>
reli eve</w>
releas es</w>
puzz led</w>
pro tru
portra yed</w>
organi sm</w>
oni sts</w>
obli ged</w>
n it
monast ery</w>
logi st</w>
k not</w>
inti mate</w>
h r</w>
gra vel</w>
g ale</w>
figh ter</w>
f f-
emer ald</w>
effi ciency</w>
ear then</w>
e ccent
decl ined</w>
d' Azur</w>
critici zed</w>
co sts</w>
bu si
be ards</w>
awa kened</w>
ari o</w>
ambassa dors</w>
allow ance</w>
ago g</w>
abi lities</w>
Tele vision</w>
S alem</w>
Re present
Pra desh</w>
O liver</w>
M ul
Jo y</w>
Hog lah</w>
Gregori an</w>
Gitt ite</w>
Ear th
Do eg</w>
Comman d
- bearer</w>
you ths</w>
wor rying</w>
twenty- nine</w>
si multane
s dale</w>
rail road</w>
rai ding</w>
qu est</w>
pp e</w>
over came</w>
nav al</w>
mor sel</w>
mir th</w>
mi as</w>
mean ing
ma kest</w>
journe ys</w>
hym ns</w>
holocau st</w>
hear th</w>
foc used</w>
et c.</w>
en er</w>
doub led</w>
do cum
demo cratic</w>
consu l
con ste
cl in
cir cular</w>
challen ged</w>
ch ron
ch ri</w>
busin ess
bi o
avo gues</w>
annu ally</w>
ann es</w>
and/ or</w>
agri cultural</w>
ad d
Uran us</w>
So mer
R ing</w>
Paro sh</w>
O W
J avogues</w>
Holl and</w>
Ephra th</w>
Ep aph
Cze ch</w>
Ch u</w>
Be bai</w>
B S</w>
Ann als</w>
witch craft</w>
val our</w>
tri cks</w>
tran sportation</w>
sw ing</w>
stra ps</w>
sp ending</w>
so oth
ri x</w>
rest less</w>
refer ences</w>
prophe cies</w>
phenomen on</w>
off ence</w>
no ble
min ority</w>
m mer
li ch</w>
l ung</w>
inspe ction</w>
high lands</w>
ga ther
ga ining</w>
fores kin</w>
f arewell</w>
domin al</w>
demonstr ate</w>
deliver ing</w>
coun tless</w>
cha st
cha irs</w>
ce metery</w>
bre ed</w>
beha ved</w>
as under</w>
The bes</w>
Santi ago</w>
N elson</w>
N atural</w>
Li ver
Kiri athaim</w>
J unior</w>
Ha w
Gi bbethon</w>
Ga ze
Eli melech</w>
Cam p</w>
Alpha eus</w>
11 th</w>
- tree</w>
' Is</w>
whore dom</w>
ve iled</w>
trou gh</w>
te llers</w>
stor my</w>
ste w</w>
sp aces</w>
s ._</w>
ph raim</w>
p ond
p angs</w>
p am
over seas</w>
out come</w>
of t</w>
obli gation</w>
lu cky</w>
long s</w>
lo cations</w>
ll us</w>
li shing</w>
l as</w>
it —
intest ines</w>
hy mn</w>
gor ith
fif ties</w>
ff ing</w>
exc essive</w>
ent u
dy na
drunk ards</w>
ch eri
ced ure</w>
cat ching</w>
c tur
bund les</w>
blo tted</w>
ble mi
a il</w>
S mi
Q </w>
Or leans</w>
N AS
Memor ial</w>
Mar t
E′ phraim</w>
E tam</w>
C P
Bi ldad</w>
Be atri
Baal ah</w>
Ba ′
wou ldest</w>
wh oring</w>
un ci
terr ori
techni cal</w>
stor e-
stair way</w>
simpli city</w>
sa sh</w>
ris ked</w>
re cru
par takers</w>
ord erly</w>
mo lding</w>
me lting</w>
lo dging</w>
ju mping</w>
joyou s</w>
hydro gen</w>
h n</w>
ge -
fe tters</w>
enter tainment</w>
ent ran
cre ates</w>
cen sers</w>
bar racks</w>
ali zation</w>
achi eve</w>
Wo od</w>
Tig la
Thur ing
Sophi e</w>
Ri z
Rh ine</w>
Jac ob
Hazar -
Ha zar</w>
Ha iti</w>
Ca use</w>
2 6
188 7</w>
{ </w>
sti on</w>
si ck
sel dom</w>
ri dden</w>
re call</w>
propag anda</w>
pro long</w>
paint ings</w>
ox ide</w>
over- against</w>
over seer</w>
mistre ated</w>
le _</w>
ing —</w>
haw k</w>
hard ship</w>
fifty- two</w>
est a</w>
econo mics</w>
depar ting</w>
cre st</w>
conver t</w>
comfor ts</w>
carri ages</w>
bu tt
bre eding</w>
ban ned</w>
astro lo
assass inated</w>
al gorith
abrup tly</w>
` Thou</w>
X -
V ice</w>
U s</w>
Tus c
St ev
Ser en
Sar d
S ound</w>
S ey
Ric o</w>
Repha iah</w>
N au
M TV</w>
Ly n
Kir j
Jude ans</w>
Jee kes</w>
Ita li
In do-
G at
Comm unist</w>
Che bar</w>
Char ac
Ca sti
Bar nea</w>
3 60</w>
19 26</w>
189 6</w>
' Please</w>
wre tched</w>
ver -
ut most</w>
transgress ors</w>
tor na
to b
thr a</w>
spi ration</w>
sol ve</w>
resu med</w>
re ment</w>
peri odi
out cry</w>
opini ons</w>
ni bal</w>
man ship</w>
ligh ting</w>
kne el</w>
j aw
j avel
is en
investig ate</w>
hur rican
honey comb</w>
f ried</w>
extre mity</w>
encoura ging</w>
da zz
cha irman</w>
cha ble</w>
c y-
ath ite</w>
an or</w>
advis ors</w>
ad ers</w>
ach ers</w>
ab dominal</w>
a unt</w>
_I bid._</w>
Wilhel m</w>
Wh ence</w>
W arri
Vide o</w>
Shin ar</w>
Sen ator</w>
Ral ph</w>
Ra ise</w>
Pre sent</w>
Pele thites</w>
Ori ental</w>
Na hath</w>
Micha els</w>
Ken ite</w>
Ken an</w>
Jecon iah</w>
J i
J E
Hi ll
Gla sg
Girgashi tes</w>
G im
Develop ment</w>
Cy n
Ca ve</w>
Broo k
Big vai</w>
Ama sai</w>
AR </w>
A ven</w>
3 1-
wi g</w>
techni ques</w>
te h
t acti
sw inging</w>
surviv or</w>
six teenth</w>
sen sation</w>
run ners</w>
respe cts</w>
rec order</w>
re minded</w>
re ads</w>
pi cks</w>
particip ate</w>
o ld-
numer able</w>
nam ing</w>
mi lls</w>
mar ty
m its</w>
lux uri
humili ation</w>
gest ure</w>
fic ate</w>
fi re-
entre at</w>
drunk ard</w>
cre pt</w>
coun sels</w>
convi ct</w>
con temp
comm ent
cin namon</w>
burd ened</w>
body guard</w>
blan ket</w>
barri er</w>
ap ing</w>
af fect</w>
_ Industrial</w>
To tal</w>
Th anks</w>
T est</w>
Sunder land</w>
Shime a</w>
Shim ron</w>
Mi ll
M alt
Levi athan</w>
Ish bosheth</w>
I P</w>
Goo d-
E vi
Al -
1 28</w>
í </w>
vi c</w>
ver dict</w>
up hold</w>
tresp asses</w>
tob acco</w>
ti mb
st ling</w>
south- east</w>
sequ ently</w>
sc an
sail or</w>
ru de</w>
raven s</w>
quar ter
pub lish</w>
prote in</w>
pat ches</w>
parti ally</w>
ner ves</w>
li p
la dies</w>
la den</w>
j ure</w>
inter ce
indi gnant</w>
ig ners</w>
hero ic</w>
handker chief</w>
e co
divi des</w>
deli ghtful</w>
deca de</w>
cruel ty</w>
craw l</w>
conne cts</w>
bl er</w>
bac ked</w>
b ats</w>
Wor ds</w>
Tusc any</w>
S now</w>
Res er
P urim</w>
P late</w>
Netop hathite</w>
Liter ature</w>
Iran ian</w>
He ll
Glasg ow</w>
F all
F .C</w>
E P</w>
Cen a</w>
A ctor</w>
A bel
5 :
19 31</w>
y —</w>
wor keth</w>
whi te-
thick et</w>
ter med</w>
t ty</w>
sur faces</w>
sig ning</w>
sand al</w>
reas oned</w>
ra ven</w>
par a
out break</w>
oper ate</w>
net works</w>
mu a</w>
mission aries</w>
les sons</w>
legisl ation</w>
leg end</w>
in si
immi e</w>
graphi cs</w>
flav or</w>
dra gons</w>
disgu ise</w>
deb ts</w>
dd on</w>
cre dit
com est</w>
ber yl</w>
b ending</w>
ath a</w>
and y</w>
an archi
amp ton</w>
acc using</w>
ac counted</w>
Z id
Wol f
Ty chi
Th ummim</w>
T -
Reli gion</w>
P ick</w>
Ni col
N ure
M unicip
Lab or
Jezre elite</w>
G au
En d
Ed die</w>
Colo mb
C raig</w>
Ash er
Ara d</w>
All an</w>
A iah</w>
- of-
x ion</w>
turtle doves</w>
transgre ss</w>
ten sion</w>
sli ding</w>
separ ates</w>
respe ctive</w>
re ins</w>
plu mb</w>
organi sation</w>
migh tily</w>
loca lity</w>
l ord
intelle ctual</w>
insu lting</w>
indi cates</w>
i land</w>
home less</w>
go ings</w>
gl ow</w>
gener ously</w>
g g</w>
fun ds</w>
frac ture</w>
for ds</w>
erup tion</w>
enjo ying</w>
dest ination</w>
deman ding</w>
conserv ative</w>
bro oks</w>
bloo m</w>
au then
as sign</w>
ali m</w>
al tered</w>
acquaint ance</w>
abhor red</w>
Van cou
Tychi cus</w>
To o</w>
T r
S ri</w>
S ind
Re kem</w>
Or ton</w>
Malki jah</w>
M agog</w>
In side</w>
Ho sah</w>
Hear t</w>
Esh col</w>
E ss
Co ok</w>
B au
An ato
Admi ral</w>
189 0</w>
, 500</w>
' Amen</w>
vehi cles</w>
v ard</w>
trac t</w>
top az</w>
sub mitted</w>
stri ving</w>
sha tter</w>
scor ching</w>
ro tation</w>
ran so
ra g
pti ve</w>
prof ession</w>
off s</w>
occur ring</w>
myr tle</w>
mo vable</w>
mistre at</w>
min al</w>
ma ment</w>
k ens</w>
ja iler</w>
it em</w>
ir regular</w>
ino sa
in numerable</w>
i as</w>
hand ling</w>
goo d
flat tering</w>
fa inted</w>
fa ding</w>
f ond</w>
ev alu
en as</w>
educ ational</w>
disposs essed</w>
dis k</w>
cti ves</w>
conveni ent</w>
as ingly</w>
ar bit
adop tion</w>
acti vi
Ra di
R C
Mele ch</w>
Langu age</w>
Lad an</w>
K ab
Jab esh-
J immie</w>
He ll</w>
Ham me
Buk ki</w>
Ben o
Be d
B ury</w>
B ud
Ari star
Abi b</w>
' Cursed</w>
vis its</w>
v is</w>
testi fies</w>
te t</w>
t aller</w>
sum ing</w>
subst ances</w>
sigh ing</w>
revol ted</w>
remn ants</w>
radi ant</w>
psycho logy</w>
promo tion</w>
pro cedure</w>
prin ts</w>
mo od</w>
mi ld</w>
man dra
le t
le m</w>
incu rable</w>
hon oured</w>
histor ians</w>
gu ed</w>
ge ar</w>
for ks</w>
exhor tation</w>
dru m</w>
doub tless</w>
deca des</w>
de fied</w>
d ating</w>
con vince</w>
col li
ca ge</w>
bra gging</w>
bo ils</w>
ati </w>
ar ches</w>
ali stic</w>
Zach arias</w>
Vi e
Sham mua</w>
San he
Pen te
Na amah</w>
Lux emb
Li e</w>
Jer ry</w>
Hazer oth</w>
Go zan</w>
Go ing</w>
Ev entually</w>
E der</w>
Argent ine</w>
7 0
voic ed</w>
vitam ine</w>
twi st</w>
tro phy</w>
star ving</w>
st ern
spe ech
so vere
sing le-
she af</w>
san ctu
ro t
pa th
na i</w>
me lts</w>
low land</w>
law less</w>
i ster</w>
ha dst</w>
gli mp
gener ated</w>
g loo
frequ ency</w>
fla shing</w>
expla ins</w>
excell ency</w>
ever -
dus k</w>
doct rin
dire ct
descri bing</w>
custo mary</w>
cul tures</w>
conven tional</w>
car di
canop y</w>
c ites</w>
bri dges</w>
bo mbs</w>
bi ological</w>
ba ij
ali ze</w>
acc es
ac et
Wür tte
Wel sh</w>
V .</w>
Sul tan</w>
Si x
S cal
P owers</w>
Lo st</w>
Le a</w>
Is shi
I ng
Do st</w>
Dak ota</w>
Clau dius</w>
Catho li
Al ready</w>
Aber de
A dra
9 :
9 00</w>
4 50</w>
193 0s</w>
10 1</w>
wor mwood</w>
vul tures</w>
ves —
ur gent</w>
ul ate</w>
swe etness</w>
str ated</w>
stal ls</w>
stab bed</w>
si us</w>
regul ation</w>
rai ds</w>
par ish</w>
p sy</w>
over head</w>
orig ins</w>
min ary</w>
mid wives</w>
lu d</w>
log ne</w>
incl ination</w>
he ls</w>
ha sty</w>
grand daughter</w>
fu tile</w>
fam ines</w>
ex emp
ent ation</w>
ele vated</w>
dimini shed</w>
cra shed</w>
consider ably</w>
con front</w>
comp ul
co py
bott les</w>
a .
U r</w>
Tran s
THE OD
T un
Prote ct</w>
Prin ces</w>
Play Station</w>
O U
Ne thin
Jo si
In cl
Hart ley</w>
Haggi th</w>
Ha il</w>
E re
Dra ft</w>
Ch erethites</w>
Ch ana
Buf fy</w>
Beatri ce</w>
Be zer</w>
4 :
wi </w>
vehi cle</w>
v ests</w>
v ani
unimp ortant</w>
to ss</w>
the ories</w>
tend ency</w>
tab ernacles</w>
sk y
scat tering</w>
run ner</w>
ru gby</w>
regi me</w>
red dish</w>
power less</w>
people —
pack age</w>
over sight</w>
or ney</w>
municip al</w>
mista ken</w>
min ers</w>
mb ur
ma ps</w>
la omer</w>
kno cking</w>
hundre d
ha th-
gh s</w>
fi sts</w>
f as
er als</w>
epide mic</w>
entre ated</w>
diale ct</w>
cur ve</w>
cou pled</w>
consu mes</w>
cand le</w>
b une</w>
ath ites</w>
arri ving</w>
Z ep
Wag ner</w>
W .
Vancou ver</w>
T ak
Lord —
IS O</w>
Genti le</w>
Ge mariah</w>
G lo
English -
Egy p
E ra
C .
Az arel</w>
As semble</w>
A taroth</w>
zz ard</w>
vigor ous</w>
v eyed</w>
ur ging</w>
tu de</w>
top ic</w>
there after</w>
t ance</w>
t ac
survi val</w>
su res</w>
sil enced</w>
she er</w>
s ors</w>
refuge es</w>
re views</w>
re public</w>
qu ic
plo tting</w>
pi ous</w>
oppos ing</w>
ner ve</w>
mu tual</w>
le ment</w>
is er</w>
indu cted</w>
impati ent</w>
fu ri
fo lding</w>
en ce
ed itors</w>
e- wee</w>
dr in</w>
disp leas
di gging</w>
bri mstone</w>
ap him</w>
af f
ac res</w>
US B</w>
Te ma</w>
St ory</w>
Scand in
S cri
S chi
S A</w>
Pe e-wee</w>
Nure mberg</w>
Ne ba
N ear
N ation
Mili tary</w>
Lord —</w>
Hoph ni</w>
Eng ine
E ver</w>
Car ry</w>
Bar bar
Aristar chus</w>
Ad mah</w>
Abi shua</w>
21- 22</w>
1, 500</w>
… </w>
w er
v ague</w>
un ite</w>
te ous</w>
stubborn ness</w>
sto ve</w>
sorcer ers</w>
so aked</w>
she vi
she lls</w>
she dding</w>
se ct</w>
rou tes</w>
reserv o
record ings</w>
quarre ls</w>
pursu es</w>
prophe tess</w>
prin cess</w>
pa use</w>
or ate</w>
manufac tur
ma el</w>
ll is</w>
li zard</w>
law lessness</w>
it is</w>
illu min
hur ts</w>
fe ud
expan se</w>
est -
earth quakes</w>
deser ved</w>
dang ers</w>
comm end</w>
bus hels</w>
au x</w>
as cri
ar am</w>
ang rily</w>
ag an</w>
adv ent
Zer ahiah</w>
We ll
W ond
T wi
Str ong</w>
Sou theast</w>
Somer set</w>
Sib mah</w>
Shor tly</w>
O t
Nor folk</w>
N is
M ouse</w>
Jap hia</w>
Histor ical</w>
Hatt ush</w>
Ge ber</w>
Fore igners</w>
Des cri
Conserv ative</w>
Ach bor</w>
187 1</w>
. Selah</w>
~ </w>
whi stle</w>
war d-
sy ste
sy m
spe c
sli pping</w>
sin e
signi fi
se h</w>
progra mming</w>
pri ces</w>
par as
it z
interpre ter</w>
imit ate</w>
il -
heav e-offering</w>
he ating</w>
h j
gra phic</w>
glo bal</w>
exce pti
elabor ate</w>
dge -
dest iny</w>
d .</w>
continu ously</w>
compe te</w>
cen ess</w>
c ession</w>
bu </w>
blasphe me</w>
ari sto
ali tion</w>
accep tance</w>
ab yss</w>
` Go</w>
__ __
Vi olet</w>
Thuring ia</w>
P ari
O phel</w>
No twithstanding</w>
Mo za</w>
Medi eval</w>
Loo king</w>
K az
Joi arib</w>
J al
Hu go</w>
Hou ston</w>
Ha y
Eshtemo a</w>
Car los</w>
Be g
B and</w>
un expected</w>
ti de</w>
thi ans</w>
th al</w>
tar ried</w>
sub divided</w>
spor ting</w>
s berg</w>
ro ars</w>
revel ations</w>
rel ates</w>
ra vines</w>
physi cally</w>
phy lia</w>
perple xed</w>
oy en</w>
mo ld</w>
me lan
la vi
guaran te
g ence</w>
extrac ted</w>
expla ining</w>
en joy
dra ft</w>
di ffer</w>
depu ty</w>
demonstr ated</w>
d ine</w>
cryp togra
compli cated</w>
comp ati
ca ps</w>
beg in
U sually</w>
Poti phar</w>
Pam phylia</w>
O reg
Mas sah</w>
Mah lah</w>
Li v
Leon ardo</w>
Is hi</w>
E dge</w>
Di shan</w>
Bui lding</w>
Bi bli
Az er
Argo b</w>
Abisha g</w>
ye *</w>
x on</w>
vege table</w>
tur mo
tru thful</w>
trou bling</w>
tre ati
toler ate</w>
thre aten</w>
te ers</w>
sur vey</w>
suppor ters</w>
si mul
san na</w>
rel ating</w>
re strial</w>
re apers</w>
promp tly</w>
pre d
pat terns</w>
p leading</w>
or ah</w>
oper ates</w>
obvi ously</w>
mu zzle</w>
mm ers</w>
mandra kes</w>
lo o</w>
li um</w>
inv itation</w>
inspi ration</w>
il ers</w>
hill side</w>
hi ssing</w>
grow l</w>
gol f</w>
for th
flo ating</w>
exerci sed</w>
evil- doers</w>
es seth</w>
dra gging</w>
dra fted</w>
concent rated</w>
calcul ated</w>
c ci</w>
bur g-
bo′ am</w>
bo lt</w>
bit ing</w>
arrog antly</w>
arch s</w>
al eh</w>
accep ting</w>
Wi se</w>
Sm ack
Shu the
Sanhe drin</w>
Pau lo</w>
Ob serv
Nazar ene</w>
K ri
K evin</w>
Hel on</w>
Hano ch</w>
H ugh
Gir l</w>
F light</w>
De Leon</w>
C ran
Bak bu
App le</w>
An y
Am ster
Ahi lud</w>
* ye*</w>
′ e
— oracle</w>
turmo il</w>
ten ants</w>
t ing
su its</w>
speci men</w>
si mpl
rub ber</w>
ri bb
ren own</w>
relati onships</w>
ranso med</w>
quo tes</w>
popul ations</w>
ow es</w>
mi ra
medit ation</w>
m _</w>
loo k
inqu iry</w>
in ner
in de
im pressive</w>
half way</w>
gi o</w>
ex ul
en qu
e loqu
dru gs</w>
dor f</w>
depri ved</w>
curi osity</w>
cti cut</w>
cl ut
chi ef
c ate
bo dily</w>
bear ers</w>
be headed</w>
bag gage</w>
ar ded</w>
anni m</w>
We b</w>
Tal mon</w>
She th
Rest ore</w>
Pres ence</w>
P allu</w>
Mede ba</w>
Je ffer
Hele z</w>
He mi
Gr ant</w>
Fried rich</w>
Ephra thah</w>
D C</w>
Conne cticut</w>
An der
3 2-
' the</w>
' Aurora</w>
— as</w>
x y</w>
wi shing</w>
war p</w>
tru m</w>
t at
sugg esti
sk in
si m</w>
sh ower</w>
sei zes</w>
righte ously</w>
ri ots</w>
restra int</w>
re ll</w>
po ems</w>
our g</w>
organi st</w>
or g</w>
mour ners</w>
mo tion
m ples</w>
m ouse</w>
ist ure</w>
incre dible</w>
ho mo
har lo
hal ted</w>
habit ations</w>
gro ans</w>
go al
gi ver</w>
g on
fil med</w>
fa tho
deg .
decre ase</w>
de iah</w>
dar ker</w>
d ross</w>
communic ations</w>
cle ar
ca ster</w>
bo mb</w>
bit ten</w>
be e</w>
alt itude</w>
al ai</w>
ad ad</w>
accus ations</w>
a imed</w>
Z anoah</w>
Württe mberg</w>
W H
Syn ago
Stall one</w>
Sp rings</w>
Si ci
Pel atiah</w>
Na ioth</w>
Mal ay
Lo cation</w>
Lei p
Jere mias</w>
Je bus</w>
Hein rich</w>
Er nest</w>
Econo my</w>
Coun tess</w>
Che t</w>
Bad en-
Ba se</w>
B ob
Atlan ta</w>
188 8</w>
vari ations</w>
v .</w>
un faithfulness</w>
twenty- seventh</w>
tu ously</w>
tion _</w>
thir ds</w>
th urn</w>
te les
sten ch</w>
state ments</w>
spontan eous</w>
shor ts</w>
shi ft</w>
satis factory</w>
re signed</w>
poor est</w>
pi c
philos ophi
over night</w>
lu mp</w>
light nings</w>
la yeth</w>
k ites</w>
im pl
husband men</w>
hospit ality</w>
head -
har dness</w>
fla sk</w>
fi ve-
fat ness</w>
f o</w>
dist ingui
dimini sh</w>
corru pti
cor ri
ch ant</w>
ca de</w>
bond man</w>
betro thed</w>
az im</w>
Wat er
W icked</w>
Uni ons</w>
Solo thurn</w>
Shel u
S ite</w>
Poli tical</w>
Ph an
P C</w>
Manas ′
John ny</w>
Jo ce
In formation</w>
Gre ve</w>
Gio van
Gal a
Fri ends</w>
D am</w>
Cre t
Cher ub
Bi chri</w>
Aven ue</w>
Al an</w>
A ter</w>
21 st</w>
189 7</w>
volcan ic</w>
un ned</w>
tast es</w>
sw arming</w>
stru ggling</w>
st rous</w>
st out</w>
st on
spi der</w>
soci eties</w>
shu b</w>
se ller</w>
rup ture</w>
ru mors</w>
ro th</w>
re hear
ra vine</w>
promi sing</w>
premi ered</w>
pi cking</w>
phi dim</w>
par adise</w>
over turned</w>
m less</w>
m itting</w>
li tion</w>
journa list</w>
grape vine</w>
gener ate</w>
ensla ved</w>
eng ing</w>
eli c</w>
distin ctly</w>
de ar
cross bars</w>
compri ses</w>
col or
cli ent</w>
chan ces</w>
ca vity</w>
bo xing</w>
ari ses</w>
an tum</w>
ak h</w>
ach ment</w>
Wol f</w>
Tech nology</w>
THEOD ORE</w>
Re phidim</w>
R ay</w>
Mo squ
Medi cine</w>
Mar ah</w>
Le hi</w>
Le ft</w>
L E</w>
Je ka
Je an-
Ho diah</w>
Hes se</w>
H ence</w>
Giovan ni</w>
Fa thers</w>
Eag le</w>
Comm unity</w>
Celebr ate</w>
C aph
Ba ker</w>
B CE</w>
Ahi ra</w>
Ab idan</w>
A cce
8 :
} </w>
tren ch</w>
travel er</w>
total ed</w>
t ag</w>
sto oped</w>
sequ ence</w>
s ition</w>
prece ded</w>
pollu te</w>
ou b
ostri ches</w>
mb le
l ent</w>
int ently</w>
instin ct</w>
ide th</w>
hear tedly</w>
ha ts</w>
geogra phical</w>
gall ows</w>
ga de</w>
fulfi l</w>
free -
fore men</w>
fier ceness</w>
dri fted</w>
disper se</w>
dis charged</w>
crac ked</w>
clo ths</w>
cent ra
bo asts</w>
an thro
ag ite</w>
adequ ate</w>
ac ular</w>
X IV</w>
Tha iland</w>
T ul
Smack Down</w>
Pro claim</w>
Nim shi</w>
Nim rod</w>
Na ar
M é
L ang
Jo zadak</w>
Hor ites</w>
Has shub</w>
Gu st
Ele aleh</w>
Del ta</w>
Ch ang
Beth- el</w>
As sir</w>
23- 24</w>
18 50</w>
18 0</w>
vest ments</w>
trac ed</w>
thr ong</w>
tacti cs</w>
ski lls</w>
rou se</w>
rese mbling</w>
ran ged</w>
ran dom</w>
pupi ls</w>
persecu tions</w>
peace fully</w>
na i
modi fied</w>
massac re</w>
man uel</w>
li te</w>
ki sses</w>
j uni
insur ance</w>
help ful</w>
hand -
grape vines</w>
fulfi llment</w>
fl ing</w>
fil thiness</w>
fast est</w>
encoun ter</w>
en er
e u</w>
dimen sions</w>
den burg</w>
de bu
con grat
colle cting</w>
can tly</w>
bin ds</w>
bare foot</w>
attend ance</w>
ar id</w>
anni versary</w>
ac a</w>
W u</w>
Sha al
S R</w>
Re ha
R C</w>
Ob serve</w>
O s
Mo bile</w>
Me mbers</w>
K el
Ju li
Joce lyn</w>
Hindu </w>
Exam ples</w>
Ev ans</w>
Do g</w>
Ch ange</w>
Bol shevi
Benjamin ite</w>
Bal ti
Al pha</w>
======== ========
5 –
2 3
18 70</w>
us ury</w>
und oub
ulti mately</w>
s— all</w>
swo llen</w>
stu pi
spect acle</w>
spe lling</w>
sin king</w>
shel ters</w>
ri sons</w>
re lied</w>
pu ffed</w>
pro xim
pre achers</w>
phe mer
par liamentary</w>
one- fifth</w>
on so</w>
nati onally</w>
n atu
mole cules</w>
me e
le tus</w>
la be
ke -
it ess</w>
in an</w>
hi ah</w>
ha tt
ha sten</w>
gli ttering</w>
gla sses</w>
es a</w>
enti ce</w>
en mity</w>
en large</w>
ed ited</w>
disgu sted</w>
disc our
di amond</w>
dep ended</w>
de fy</w>
confi sc
con text</w>
con genital</w>
colle ctions</w>
cha l
cere ly</w>
cau ti
bu yer</w>
blan kets</w>
bac king</w>
all as</w>
agree ments</w>
administr ator</w>
achiev ements</w>
accomp lishments</w>
ac on</w>
a ya</w>
a anah</w>
U sing</w>
Thur sday</w>
Thor n
Stu art</w>
Shi ttim</w>
Ro ll</w>
R .
Phi los
Pat sy</w>
N ine</w>
L '
Jo′ ab</w>
Has hum</w>
Hap good</w>
Hamme datha</w>
Fi re
Fer r
F ern
E T
Di e</w>
D ol
Clar a</w>
Cher ub</w>
Cau ca
Bulg aria</w>
Beno it</w>
Amster dam</w>
5 00,000</w>
3 3
20 s</w>
188 5</w>
' Make</w>
' Listen</w>
vin tage</w>
ve lo
thirty- six</w>
testi fying</w>
sure ty</w>
supervis ors</w>
squ ee
signifi cantly</w>
sha d</w>
se ah</w>
s se</w>
ro of
refle ct</w>
r ating</w>
quo te</w>
quarre ling</w>
pro ven</w>
p es
n ap
gener a</w>
gar bage</w>
fin deth</w>
fi elder</w>
distin ctive</w>
dan cer</w>
compu ting</w>
co h</w>
car av
cab inet</w>
bu ck</w>
bid ding</w>
bi ans</w>
bal ls</w>
asc ending</w>
anch o</w>
am el</w>
accur ately</w>
Shelu miel</w>
Seren ity</w>
S tru
S hua</w>
Rain bow</w>
Ped ah
Paki st
Man asses</w>
In stru
In spe
Han nibal</w>
Gover nor
Go od
G y
G on
Faith ful</w>
En ter</w>
C ry
C ard</w>
Bur g
Ar arat</w>
A x
188 0</w>
18 65</w>
wor ries</w>
waf ers</w>
vo ting</w>
upri ghtly</w>
tw o
trou sers</w>
tri bun
th undered</w>
ster ns</w>
speech less</w>
show eth</w>
sett ling</w>
sco pic</w>
s ville</w>
rou d</w>
ri fle</w>
radi cal</w>
pro bable</w>
ph ers</w>
per taining</w>
per il</w>
pa tho
organi ze</w>
occurren ce</w>
nickn ame</w>
mon y</w>
me al-
javel in</w>
inf antile</w>
histor ically</w>
ha teth</w>
gen it
g ery</w>
g el</w>
fug itive</w>
fan ta
f enced</w>
expi red</w>
elimin ate</w>
el -
dissip ated</w>
di str
di es
curren cy</w>
cry st
ca ver
c ited</w>
bloo d-
belong ings</w>
bal ances</w>
ax is</w>
av ah</w>
ar di
ali en
X I</w>
Ven ice</w>
V la
Ukra ine</w>
Tamauli pas
T able</w>
Stev ens</w>
S han
Rul er</w>
Ron sdale</w>
Re lease</w>
R ancho</w>
Po ol</w>
Pag iel</w>
Mid d
Mar iti
Ma dison</w>
Ho sanna</w>
Ho dav
Goo gle</w>
GN U</w>
Fin nish</w>
Cur se</w>
Chalde a</w>
Can al</w>
Can a</w>
CH </w>
Au thor
Ash tor
22- 23</w>
19- 20</w>
wo of</w>
whisper ing</w>
where on</w>
va kia</w>
ut tering</w>
under go</w>
und y</w>
u th</w>
tru th
tor ial</w>
ti on-
stor k</w>
spiri tually</w>
sp in</w>
schedu led</w>
sancti fication</w>
s ower</w>
ru m</w>
rese mble</w>
quie ted</w>
prud ence</w>
persecu ting</w>
mu ttered</w>
medi ator</w>
mar ri
ll ors</w>
la mented</w>
k icked</w>
j ury</w>
in sane</w>
in qui
i k
hurrican es</w>
hind ered</w>
hatt an</w>
happi ly</w>
g room</w>
fossi l</w>
ed itions</w>
e lder
du ces</w>
dre aming</w>
disp lays</w>
defi les</w>
compon ent</w>
comm ended</w>
che ated</w>
ch lor
bo x
al mon
ag ency</w>
ab str
a im
_ Distribution</w>
Z am
V eg
Sacrifi ce</w>
Pro vin
Oz ma</w>
O holah</w>
Mort al</w>
Mo vement</w>
M E</w>
Lu d</w>
Liver pool</w>
Har ris</w>
H au
Gre y</w>
Go ds</w>
Every body</w>
Elizabe than</w>
Eli zur</w>
Def ense</w>
D ab
Cul ture</w>
189 1</w>
10 .
' a</w>
x ity</w>
vi br
upro ot</w>
to ken</w>
sw er
summ ary</w>
st one
st ine</w>
spe cul
ri cher</w>
reconci le</w>
re nd</w>
rabb it</w>
pro ving</w>
pper y</w>
po ckets</w>
overwhel m</w>
o z</w>
memor ies</w>
line age</w>
land scape</w>
guar d
ga ze
g ars</w>
fra ud</w>
fle es</w>
fav ors</w>
estim ate</w>
en es</w>
door keepers</w>
devast ation</w>
destro yers</w>
daughter s-in-law</w>
compreh end</w>
co tton</w>
ce asing</w>
be el</w>
attrac tion</w>
att ach</w>
alle gi
ak a</w>
agre es</w>
adap tation</w>
ab ase</w>
a ah</w>
Tamaulipas ._</w>
Shun em</w>
S ig
S cor
Netop hah</w>
Lu cy</w>
Ju lian</w>
Inter lude</w>
H are</w>
Ga elic</w>
Fle t
Char lie</w>
Bul le
Bar on</w>
Amalek ite</w>
A F
1 40</w>
1 25</w>
′ ia</w>
wrong -
watch tower</w>
war dly</w>
ver ses</w>
ven om</w>
us —
un ites</w>
ud ing</w>
tra itor</w>
t ending</w>
suspe ct</w>
sun -
ster shire</w>
speci fied</w>
sist er
si de-
sca b</w>
s ly</w>
ru bies</w>
repro ached</w>
re t
re ared</w>
qu ad
physi cist</w>
peri shing</w>
pe tro
particip ated</w>
obsc ure</w>
metal lic</w>
mer ging</w>
mean time</w>
me ta
man ners</w>
ly n
infe cted</w>
illustr ated</w>
hol deth</w>
gri m</w>
gener als</w>
gen ius</w>
fir mament</w>
f it
escap ing</w>
en sure</w>
el ine</w>
dra mati
dire cting</w>
dimen sional</w>
cover ings</w>
ci sterns</w>
batt le-
am in</w>
al is</w>
acces sible</w>
Vin ce</w>
Trou ble</w>
Sal ute</w>
S w
Re al</w>
Pro bably</w>
Nethin im</w>
Nam ur</w>
My steri
M A</w>
K night</w>
In c.</w>
Hugh es</w>
H op
H an</w>
Gu il
Gol an</w>
Eli as</w>
D im
Clar k</w>
Bus iness</w>
Bru s
Beg inning</w>
Azer baij
Al lied</w>
18 67</w>
18 66</w>
wi ck
volu mes</w>
u es</w>
ther n
sigh ted</w>
shir ts</w>
shi pping</w>
rou sed</w>
reti rement</w>
pro je
per forms</w>
organi sed</w>
obe isance</w>
o dy</w>
nu m</w>
migr ation</w>
mat s</w>
legisl ative</w>
it ary</w>
hon esty</w>
hol m</w>
herd smen</w>
head ing</w>
gu inea-
f ring
expen ses</w>
er ers</w>
end ary</w>
disc </w>
disappe ars</w>
di ver
constru ct</w>
confid ently</w>
car ni
av ing</w>
alle ged</w>
af firm</w>
ad u</w>
ad dy</w>
Zuri shaddai</w>
Zu ar</w>
W CW</w>
Shes han</w>
She deur</w>
Represent atives</w>
N ed</w>
Me tho
Man hattan</w>
Ma king</w>
Kad esh-
Je ff</w>
Hund red</w>
Hemi sphere</w>
Gide oni</w>
Der be</w>
D ub
D ow
Con su
Com mer
Chalde an</w>
7 :
whi pped</w>
vir tually</w>
up wards</w>
un holy</w>
to o
thern most</w>
ter rifi
te c</w>
tab let</w>
ta avah</w>
t ough</w>
st ac
spon ge</w>
spar rows</w>
situ ations</w>
ri an</w>
public ans</w>
popul ous</w>
pe h</w>
p he</w>
overwhel ming</w>
out casts</w>
oper ator</w>
ninety- nine</w>
mo isture</w>
me ts</w>
lef to
la e</w>
ke e</w>
infin ite</w>
hor rified</w>
gener osity</w>
fur rows</w>
floo ded</w>
floo d
disp at
com ment</w>
co ck
cen e</w>
c ats</w>
att u</w>
as is</w>
archa e
ace ous</w>
abbrevi ated</w>
ab ideth</w>
Zo har</w>
[...]
