,
the
.
of
and
to
in
a
you
is
I
that
will
for
he
``
his
was
with
''
be
;
it
The
not
from
they
Lord
them
on
him
And
as
all
have
your
are
who
God
's
me
their
my
:
by
said
were
had
He
?
people
shall
this
one
at
out
!
do
but
has
up
or
which
her
But
They
Israel
Then
an
king
there
when
man
son
what
)
(
into
n't
we
You
so
'
land
us
made
no
like
did
It
come
day
because
So
came
men
also
against
before
1
those
unto
went
its
over
been
go
about
For
down
she
2
house
our
3
if
Jesus
4
5
6
can
7
In
time
8
these
make
10
9
may
am
12
11
things
away
When
other
David
would
sons
13
say
give
put
then
two
know
city
14
15
thou
hand
--
more
This
thy
16
place
must
after
name
17
let
upon
father
children
good
18
way
see
first
Moses
any
now
Jerusalem
take
20
If
back
great
than
earth
19
Judah
every
took
through
among
A
thee
even
21
own
days
many
brought
gave
where
life
only
saying
22
some
sent
years
right
called
His
says
Do
should
saw
23
ye
Now
told
again
My
given
heard
done
Egypt
24
left
Yahweh
bring
Jehovah
very
live
work
25
set
found
O
heart
There
We
hath
evil
until
word
could
water
three
each
Christ
eat
26
how
offering
eyes
King
off
death
long
holy
words
27
does
whom
love
another
same
became
fire
himself
nations
As
under
woman
She
tell
old
28
just
What
All
year
Let
priest
gold
never
without
world
side
sin
together
hands
well
around
30
servant
being
head
29
Your
heaven
answered
here
much
family
become
power
while
born
Saul
known
person
between
asked
get
according
wife
seven
priests
face
young
such
That
blood
keep
going
end
used
dead
near
most
night
still
feet
taken
cities
little
high
These
Jacob
'll
hundred
31
servants
altar
speak
nor
might
mother
food
both
die
voice
part
law
turned
died
living
everything
brother
Aaron
hear
nothing
Why
spoke
themselves
whole
seen
After
four
On
rest
help
new
thing
body
sea
32
silver
killed
sword
peace
No
country
temple
Who
want
light
Israelites
thousand
commanded
far
At
strong
_@@
Solomon
drink
turn
glory
women
ground
army
kings
too
[
33
began
ever
fear
Therefore
'@@
enemies
mouth
Spirit
coming
France
full
bread
]
written
shalt
able
home
cut
Joseph
One
second
find
kingdom
war
gods
daughter
along
Babylon
five
Son
faith
yet
look
Father
therefore
comes
stood
destroy
offerings
brothers
Him
How
whose
sins
34
wicked
got
town
field
number
show
lived
morning
having
Abraham
hast
forever
pass
times
-@@
region
John
gone
forth
anything
fathers
descendants
use
named
built
May
send
tribe
last
destroyed
saith
35
others
stand
north
wine
Levites
anyone
always
'm
though
kill
during
sheep
Go
toward
anger
Jews
everyone
why
afraid
since
think
month
spirit
child
From
Paul
looked
front
ten
large
tent
kept
To
return
Pharaoh
leaders
prophet
doing
burnt
prophets
worship
oil
listen
fall
disciples
un@@
serve
flesh
've
spoken
36
grain
strength
small
Philistines
United
soul
east
third
Joshua
battle
led
department
poor
wise
leave
Holy
Because
next
order
covenant
praise
daughters
stone
Temple
open
lives
money
truth
unclean
true
places
Their
returned
nation
cause
save
37
tree
ask
joy
mountain
fell
neither
Peter
thought
wall
ways
gate
above
wisdom
believe
Jordan
something
camp
sight
better
Thus
40
American
filled
LORD
call
yourselves
behold
answer
gathered
once
38
Thou
six
cast
Is
wo
mountains
works
later
angel
fruit
animals
wind
master
trouble
¶
within
free
obey
offer
Me
presence
clothes
today
waters
cry
south
sacrifice
replied
angry
trees
're
mercy
half
longer
righteous
message
Behold
S@@
pray
ancestors
makes
ate
River
book
de
enough
male
mighty
chief
New
hope
lay
...
sun
righteousness
kind
few
received
best
mind
wood
area
present
knew
fight
39
making
wrong
followed
States
towns
wilderness
hold
Benjamin
By
human
ready
knowledge
broken
honor
happened
judge
families
hard
walk
yourself
alone
door
throne
burned
Moab
someone
command
understand
heavens
in@@
carried
stones
With
rock
early
Ephraim
midst
Some
ones
thus
heads
houses
Those
pay
soon
enter
laid
blessed
gives
round
re@@
twelve
outside
Come
chosen
rule
hearts
age
myself
husband
mine
build
standing
|
_
need
cried
west
promise
following
Take
desert
Jeremiah
Samuel
meet
evening
judgment
ark
Be
often
darkness
covered
Even
room
Look
soldiers
receive
follow
A@@
top
opened
giving
care
clean
o
spread
sat
concerning
none
river
certain
moved
case
held
passed
sound
group
—
Mount
41
charge
behind
Joab
Manasseh
lord
inheritance
white
appointed
throughout
idols
-
important
Zion
Isaac
42
raised
lie
Yes
enemy
state
pieces
remember
saved
ca
tribes
border
birth
doth
brethren
twenty
else
burn
horses
run
promised
boy
sister
lies
thereof
art
already
bear
elders
seek
means
wanted
different
across
fine
line
wrath
whether
cubits
speaking
sacrifices
E@@
happen
43
friends
dwell
Of
sure
C@@
rich
offered
including
form
alive
buried
Hezekiah
P@@
appeared
meeting
former
hair
shame
e@@
less
English
stay
leader
thine
service
gates
sing
German
bad
goes
carry
names
Jonathan
deep
music
located
break
ran
gather
seed
pure
delivered
skin
Give
People
O@@
wives
D@@
inhabitants
prayer
hate
Where
road
Assyria
beginning
reign
ears
wild
god
World
t@@
special
hill
attack
court
B@@
table
faithful
lead
T@@
started
animal
eye
walls
princes
served
gift
fat
bed
44
45
looking
entered
seventh
incense
matter
Samaria
—@@
commune
parts
o@@
G@@
Tell
whatever
rise
married
valley
caused
While
sky
k@@
stop
deliver
Yet
See
rain
struck
surely
trust
en@@
dust
peoples
several
quickly
bronze
salvation
Have
hosts
understanding
teach
finished
fields
Gilead
dry
entrance
bless
er
officials
palace
iron
sinned
loved
grace
language
destruction
continued
false
news
justice
y@@
remain
itself
50
girl
lost
authority
band
except
months
meat
Sea
cloud
'I
football
wide
M@@
read
sign
placed
Elijah
greater
teaching
An
Most
till
foot
rejoice
England
crowd
lips
created
reason
happy
iniquity
season
cattle
es
really
wrote
desire
W.
sanctuary
punish
inside
friend
Thy
British
cover
Here
Man
d@@
46
Ahab
district
li@@
Absalom
K@@
sit
Edom
rather
laws
capital
released
L@@
lifted
church
beautiful
Law
South
bones
won
F@@
dark
Are
province
September
Jeroboam
Esau
grow
rose
officers
slave
angels
gifts
beside
However
please
flock
curse
lion
prepared
talk
close
i
ship
Germany
lot
hour
*
walked
believed
bow
s@@
belong
linen
building
system
red
Every
royal
witness
bodies
birds
burning
members
le@@
completely
de@@
song
fled
sake
point
glad
slaves
March
fourth
ram
series
stopped
French
met
assembly
common
thirty
sold
g@@
knows
remained
taking
War
arrived
ear
fifty
fact
almost
chariots
ers
prison
ing
Re@@
attention
Her
course
I@@
Egyptians
Mary
North
generation
broke
blind
Make
either
Valley
47
sitting
joined
July
wait
reached
established
August
Oh
countries
formed
entire
change
en
City
past
i@@
commands
Many
showed
possession
air
lands
Each
guard
indeed
June
main
m@@
instead
stayed
tongue
branches
big
however
January
sleep
H@@
Not
letter
p@@
di@@
forty
century
October
guilty
middle
James
Or
sick
government
W@@
48
watch
short
co@@
Its
eaten
force
powerful
beast
cross
rules
Gentiles
Daniel
territory
worked
tabernacle
er@@
play
u@@
Sabbath
Canaan
Also
April
Our
Elisha
Listen
Will
moment
dream
London
ruler
grew
takes
low
arms
single
thanks
neighbor
Nebuchadnezzar
a@@
least
female
divided
beyond
arm
e
write
multitude
poured
played
′@@
secret
harvest
wings
based
changed
share
miles
reigned
Baal
an@@
firstborn
wealth
bull
plant
olive
commandments
lying
2007
December
R@@
company
Simon
ahead
piece
Pharisees
tried
blessing
3@@
troops
working
disease
ago
Whoever
vision
defeated
act
public
terrible
escape
waste
messengers
ordered
control
household
taught
hills
length
Jehoshaphat
continue
northern
lest
committed
weak
loud
storm
villages
population
ti@@
ar@@
history
est
deeds
Levi
considered
Mr.
heavy
fish
removed
mean
stars
se@@
al
High
lambs
clear
ashamed
November
49
eternal
apart
aside
la@@
declares
refused
rulers
using
z@@
feast
portion
2006
usually
y
although
l@@
school
eight
acts
oath
N@@
Get
favor
`@@
captured
story
University
player
healed
seemed
t
example
largest
suffer
game
whoever
goats
foolish
member
forward
scattered
team
certainly
al@@
V@@
punishment
threw
During
fool
respect
faces
hide
herself
shut
blue
shown
grass
Galilee
caught
followers
account
be@@
agreement
black
fast
signs
wickedness
4@@
safe
wash
goat
Only
ed
religious
'The
famine
tents
film
inner
garments
decided
m
doors
moon
Since
prayed
cup
proud
Dan
York
boat
Jewish
buy
milk
pain
Gad
National
orders
Hebron
generations
suddenly
streets
pleased
famous
flocks
Please
bowed
fought
February
County
ruled
Eleazar
edge
lamb
Great
neck
hidden
try
East
wants
sides
forget
official
labor
perfect
fallen
relatives
ends
Instead
talking
'd
Did
album
vessels
chose
million
slain
possible
c@@
Reuben
island
community
West
horns
hurt
n@@
accept
Elohim
Like
51
clothing
pillars
History
due
II
ro@@
s
thrown
ts
Jehu
manner
Kingdom
eating
U@@
sacred
ation
Good
%
Job
5@@
seeing
Almighty
armies
strike
ated
Roman
statutes
bore
bringing
flour
sometimes
total
party
anointed
felt
'You
Before
ma@@
Everyone
period
Blessed
America
Just
dost
walking
oxen
greatly
clouds
forgive
congregation
Lebanon
b@@
pour
departed
property
ra@@
Balaam
belongs
immediately
bound
ca@@
business
yours
worshiped
path
straight
6@@
rams
forced
Zedekiah
Jericho
Remember
telling
tenth
pride
feel
purpose
thoughts
sweet
ha@@
groups
learn
position
2005
speaks
apostles
general
workers
Passover
guilt
con@@
writing
reward
ri@@
reported
Shechem
me@@
Bring
empty
sorrow
trying
plans
on@@
ly
species
steps
seat
late
testimony
attacked
Abram
Co@@
helped
municipality
throw
Amorites
image
green
2@@
host
k
brings
produce
garden
possess
ox
prince
lo@@
&
riches
Bethel
sisters
choose
judges
st@@
captain
fellow
fair
fifth
question
breath
remembered
parents
wish
52
sought
grave
horse
cometh
commandment
floor
complete
desolate
quiet
perish
Pilate
innocent
Europe
fighting
appear
measure
or@@
paid
especially
weight
numbered
result
arose
journey
Abner
beasts
marry
16@@
included
future
allowed
raise
vineyard
move
Asa
it@@
Praise
courtyard
smoke
Damascus
chariot
Put
donkey
Mo@@
rivers
le
spring
bird
mi@@
ar
counsel
Can
De@@
term
Rachel
lift
hearing
Josiah
altars
appearance
ating
kindness
plan
hungry
touched
loves
commander
mixed
fill
foreign
flee
Mar@@
el
dwelt
Tent
2008
ourselves
leading
dis@@
sinful
running
cases
pit
prepare
added
below
/@@
drew
Isaiah
report
comfort
declared
published
pounds
First
touch
crown
ring
teeth
Ro@@
In@@
ch@@
Miss
Tyre
thousands
forces
include
hated
revealed
Mordecai
governor
crying
waiting
test
political
declare
disaster
Hear
sexual
wheat
rejected
bought
fully
Laban
f@@
military
ah
President
Philistine
quite
strange
dear
refuse
la
Say
ho@@
Well
songs
village
Abimelech
victory
Master
7@@
surface
planted
national
honey
measured
increase
refuge
learned
shows
ne@@
widow
Union
youth
hours
Ammonites
kingdoms
distance
hot
si@@
similar
handed
hid
drive
snow
popular
Noah
League
ted
judged
becomes
suffering
rescue
purple
15@@
spirits
various
type
53
Se@@
silent
older
produced
es@@
Which
plants
visit
st
sense
kinds
v@@
plague
list
punished
southern
meaning
wonderful
further
precious
Satan
–
careful
obeyed
beloved
deal
unless
beat
nine
km
per
ships
leaves
Bashan
founded
towards
discovered
th
Church
Australia
stretched
to@@
shouted
creatures
India
l
feed
leaving
prophesy
pe@@
lose
te@@
—the
search
Be@@
covering
office
direction
captivity
remove
shepherd
turning
meal
Aram
Surely
square
h@@
major
Christian
te
escaped
bitter
cloth
local
mo@@
consider
price
sa@@
at@@
television
addition
staff
54
stick
heat
remains
Esther
shekels
performed
forest
lower
um
presented
rod
recorded
Rehoboam
sinners
win
record
troubled
forgotten
violence
nature
clans
swear
support
wear
pleasure
n
Beth
bulls
Gideon
China
Pas-de-Calais
beauty
space
Haman
$
Zechariah
lions
join
Zadok
shadow
Herod
camped
ting
sad
shout
g
start
dogs
grapes
noise
donkeys
draw
Messiah
Though
j@@
highest
arrows
Y@@
opposite
Canaanites
street
interest
robe
Le@@
Asia
cedar
responsible
size
stranger
2000
plain
harm
ations
tears
State
sixth
ancient
no@@
delight
prisoners
upright
trumpet
drunk
Red
baptized
he@@
allow
60
Gate
remnant
ine
upper
separate
2004
THE
w@@
dwelling
rings
atonement
images
ous
height
messenger
dies
Nord-Pas-de-Calais
ma
minister
clan
witnesses
8@@
thinking
cold
horn
dog
Ammon
subject
carrying
metal
Joash
'This
modern
stands
ab@@
worthy
Al@@
Samson
original
Two
sees
Ma@@
consumed
th@@
sacrificed
Simeon
daily
getting
settled
pity
speech
Moreover
natural
55
swords
Greek
camels
defiled
News
Again
vi@@
House
mount
European
Amen
keeping
womb
Day
weeping
Yeshua
letters
thick
Queen
chains
Sarah
scroll
tomb
swore
I.
Henry
glorious
Sir
officer
suffered
satisfied
worth
closed
washed
J@@
Jehoiada
circumcised
character
movie
livestock
commit
Other
developed
vine
ant
ac@@
value
greatest
seventy
foundation
everywhere
100
murder
garment
terror
17@@
willing
everlasting
forgiven
Ye
Naphtali
demons
Con@@
perhaps
Z@@
brass
ice
vain
seems
counted
listened
advice
Sodom
distress
foreigners
ended
r@@
mourning
prayers
p
clothed
rooms
accepted
belonged
western
9@@
Indeed
spear
Jesse
vineyards
fulfilled
persons
idea
owner
sending
station
real
coat
driven
Bethlehem
ad@@
carefully
truly
shepherds
Ahaz
inches
defeat
sh@@
u
b
coast
George
crossed
slaughter
hit
golden
cursed
net
plays
week
outer
reach
observe
x
Japan
Bo@@
languages
trumpets
Ishmael
summer
z
ch
base
action
Israelite
spent
bright
Selah
According
areas
Ar@@
ings
Philip
Later
eastern
release
y-@@
legs
Azariah
torn
winds
younger
looks
marriage
lo
goods
thyself
pre@@
2003
William
didst
Spanish
56
gain
ates
books
opening
instructions
gospel
Book
amount
rocks
Anyone
continually
offspring
School
Di@@
ans
besides
do@@
—and
necessary
seem
sub@@
ashes
turns
ites
surrounding
Keep
pi@@
treated
view
sell
Zebulun
crushed
warriors
captains
count
ll@@
Pakistan
match
knowing
begin
asking
utterly
saints
watched
Nathan
playing
commanders
Republic
abundance
wilt
tropical
center
shake
homes
shoulder
object
current
ni@@
lines
as@@
sir
eth
keeps
naked
tells
Although
drinking
Everything
provide
patient
bo@@
wonders
ought
p.
curtain
shield
watching
blow
man@@
level
judgments
Sinai
bury
heal
agreed
club
oldest
Ahaziah
falls
d
separated
Italian
uses
am@@
devour
ai
county
burden
grown
Gibeah
se
compassion
yoke
gets
rising
Asher
wept
tear
fools
sharp
lamp
ness
U.S.
c
Party
Shimei
ruin
cave
dressed
borders
t-@@
feared
increased
crops
talked
General
wherever
ley
adultery
miracles
smote
Aisne
finger
Early
ta@@
Egyptian
fail
armed
enjoy
weapons
calling
window
worse
stronger
14@@
fresh
Balak
drank
prey
Paris
California
treasures
baby
Picardie
St.
depart
professional
Speak
ge@@
Me@@
tomorrow
guards
Li@@
records
praised
shed
corners
troubles
Shall
Three
Adam
Judas
Calvados
instruments
Benaiah
tore
weeks
Amaziah
Syria
protect
roof
division
clay
Judea
singing
events
believers
spake
Caleb
mark
2001
surrounded
Western
bi@@
eighth
determined
regard
inter@@
branch
serving
success
corner
flow
teachers
Basse-Normandie
fi@@
humble
announced
Today
study
flood
ing@@
hi@@
Chaldeans
les
Woe
finally
hurricane
exalted
tower
op@@
holding
ruins
57
70
higher
passing
effect
safety
dried
poles
po@@
Car@@
queen
fortified
larger
souls
teachings
title
Issachar
pleasing
fury
provided
pro@@
color
waves
Midian
yes
An@@
heavenly
successful
therein
Should
bare
Lot
devil
drawn
mourn
weep
Mizpah
Par@@
regular
su@@
acted
pillar
Chinese
required
Switzerland
Italy
completed
abandoned
star
generally
weighed
lake
captive
Royal
rebelled
desires
assembled
duty
invited
pasture
silence
ci@@
movement
im@@
shot
restore
spiritual
Eli
preach
churches
festival
thank
exile
ons
flowing
causes
synagogue
beneath
s—@@
trusted
Never
mu@@
figure
12@@
Gilgal
perform
ter
als
over@@
states
suppose
Shemaiah
wounded
planned
putting
traveled
Once
mouths
exactly
bottom
District
id
ent
needed
sand
race
Ai
ge
x@@
establish
chi@@
mi
ms
lack
pulled
add
Charles
bit
He@@
ses
fig
needy
Place
Empire
2002
ds
directed
trade
minds
Teacher
chance
numerous
girls
loaves
strangers
Jezreel
Ne@@
Earth
Gath
bowl
inherit
Thomas
En@@
confidence
Ark
et
proclaim
twice
ter@@
development
thorns
leads
Jehoiakim
promises
amazed
preached
wheels
per@@
relations
northwest
tall
58
Su@@
ite
stubborn
slew
“@@
Gibeon
Lo@@
honored
cruel
catch
goeth
boys
Pro@@
flame
prove
ag@@
Bar@@
paths
e-@@
About
lamps
hired
nearly
scatter
meant
latter
San
bu@@
ru@@
gi@@
simple
request
ce@@
treat
ephod
winter
Har@@
el@@
heritage
cherubim
hears
ry
material
danger
observed
waited
pregnant
trap
Sihon
growing
vow
central
Prince
par@@
instruction
spot
ia
bases
needs
._
ages
moving
International
knees
wound
celebrate
Government
final
key
information
sex
fe@@
includes
dreams
stage
spend
pot
huge
shook
loose
ton
lightning
Ireland
Heshbon
warned
barley
praying
organization
palm
Per@@
ck
tes
class
Japanese
killing
Michael
Barnabas
practice
international
mon@@
dedicated
flowers
sort
numbers
forms
plunder
bars
happens
slept
ve@@
scribes
despised
basket
prostitute
posts
salt
afflicted
so@@
probably
out@@
spoil
T
stumble
E
Euphrates
r
paper
creature
fierce
appears
Word
calls
root
Canada
da
honest
fun
gu@@
stream
native
difficult
hall
go@@
Heaven
Armies
ke@@
threshing
laugh
Both
Central
chest
Turn
spices
du@@
h
understood
Ramah
Australian
double
plenty
tax
Levite
honour
teacher
behalf
hunger
non-@@
calf
`And
Sheba
widows
Jo@@
rights
Sidon
related
Africa
herds
den
standard
career
seized
herd
gracious
59
horsemen
drove
Shiloh
Asaph
yea
Does
board
currently
loss
terrified
heed
video
divide
ic
Micah
Jew
equal
captives
oppressed
pleasant
version
becoming
up@@
worthless
Leah
games
S
Thee
goodness
simply
reports
sorry
faithfulness
touches
finds
choice
Another
forsaken
owned
rescued
tied
boast
firm
ent@@
smaller
praises
evidence
loyal
failed
Uriah
influence
wave
anymore
Island
memory
virgin
note
sabbath
qu@@
sts
Ho@@
picked
minutes
source
tired
marked
police
Scriptures
sackcloth
arise
College
grief
Seir
role
Belgian
fellowship
event
Joram
neighbors
approached
secure
rebuilt
health
Nevertheless
spare
Men
ruined
il@@
range
ne
ex@@
affliction
decree
site
Send
objects
boundary
box
tongues
vessel
dew
Atlantic
fed
windows
Je@@
shoulders
Hebrew
eats
questions
Nor
dawn
lots
unleavened
marched
realized
entirely
assigned
store
falling
crowds
bands
Next
for@@
private
greatness
wonder
beaten
Merari
car
Kings
ling
tremble
commonly
earlier
chamber
Neither
bank
rebellious
To@@
.@@
Sha@@
reproach
puts
shields
provinces
Love
Ca@@
remaining
car@@
roots
sha@@
described
springs
courage
slowly
Hu@@
experience
Lamb
Council
shine
Hamath
stories
III
Life
ke
terms
theory
singers
males
Ex@@
fixed
conditions
powers
Ab@@
bowls
profit
streams
follows
Rock
changes
proper
violent
travel
Peace
impossible
Nothing
cease
thirsty
canton
li
fingers
claim
job
Name
afternoon
ls
scribe
thin
hole
cha@@
Nile
Mrs.
sets
Indian
62
tu@@
seeking
13@@
foreigner
idol
ur@@
None
tri@@
weary
council
asleep
curtains
La@@
ors
merciful
process
fruits
D
ins
wi@@
proclaimed
So@@
afterward
Si@@
scarlet
ancestor
row
tables
breaking
summoned
chambers
ity
har@@
prophesied
65
vengeance
divisions
Persia
redeemed
Latin
Go@@
ve
veil
nose
warm
No@@
di
islands
ks
ll
dug
suburbs
Sing
ba@@
sed
steal
slaughtered
sixty
articles
succeeded
the@@
social
visions
Po@@
ability
recognized
hu@@
decide
ordinances
sworn
flight
abominations
ninth
elected
Uzziah
section
Caesar
warning
pu@@
ator
valleys
physical
individual
abomination
whenever
Championship
ment
seated
shouting
soil
St@@
Was
self-@@
ck@@
talents
sp@@
possessions
prisoner
Berlin
siege
step
Mon@@
majesty
Gedaliah
Such
crucified
robes
ass
1998
Hilkiah
Emperor
crime
foundations
easy
Pe@@
us@@
restored
min@@
eleven
Truly
Jonah
ary
resurrection
Britain
mass
holds
blew
Rome
difference
<GNT>
<RSV>
<NCV>
<JUB>
1999
<MSG>
<NIV>
<GUTEN>
<HCSB>
<DRA>
<GNV>
<TLB>
<NOG>
<ISV>
<NKJV>
mostly
<MEV>
<CEB>
<NDIVCOM>
buildings
<ESV>
<BBE>
<ICB>
<ASV>
<NRSV>
<SWKP>
Ha@@
<NET>
<YLT>
<LEB>
<ERV>
<KJ21>
<NLV>
<NWKP>
<DARBY>
<NLT>
<SDIVCOM>
<WEB>
<NIRV>
<CEV>
<NABRE>
<GW>
Has
matters
Kohath
faced
Bi@@
Meanwhile
singer
disgrace
Minister
proved
64
jealous
begged
Spain
serious
Park
shore
date
hail
laughed
mb@@
Through
fathered
breasts
courts
smell
beings
ir@@
preaching
bag
treasure
seal
appoint
na
bone
des
humans
breast
slow
asks
pursue
Korah
page
overcome
C
astray
Nun
Rebekah
rested
covers
sits
All-Powerful
19@@
likewise
Show
Boaz
showing
broad
yeast
ens
Among
signed
bearing
soldier
Abiathar
tail
blessings
facing
faint
personal
upward
wearing
Hall
desolation
available
clearly
ka
devoured
actor
thunder
ard
direct
10@@
200
Man@@
hates
re
severe
rid
|@@
supply
fifteen
Amnon
Ezra
youngest
scurvy
charged
1@@
despise
consume
flat
cries
Tamar
Timothy
Gu@@
Jephthah
voices
ap@@
explain
referred
testify
0@@
Meeting
guide
Award
ance
multiply
Ber@@
capture
Sovereign
risen
directly
relative
sudden
pursued
conceived
doubt
fly
pull
perfume
Perhaps
Abijah
strengthened
condition
ver@@
hiding
closely
ves
issue
redeem
fortress
regions
originally
1994
desired
ber@@
Finally
uncircumcised
Scotland
reply
thence
wing
Baruch
writer
noticed
ra
freedom
Ad@@
os
rebuke
hearken
eagle
'Do
Out
Festival
union
belt
dying
easily
agree
Football
causing
jealousy
energy
distant
61
detestable
actions
cu@@
actually
novel
mentioned
Richard
Jotham
Mu@@
Shaphan
ed@@
realize
deserted
Do@@
forsake
Priest
setting
districts
Miriam
lovers
Te@@
particular
gained
ste@@
ta
gathering
weather
ding
science
Aquitaine
slay
stretch
lights
Mi@@
endures
noon
disciple
points
Tabernacle
Elam
listening
snake
shekel
Suppose
Hananiah
granted
listed
approach
stead
Death
teams
Arise
soft
decision
ina
Washington
ham
chiefs
regarded
instructed
porch
taste
Darius
particularly
63
sleeping
trembling
Beth-@@
Baasha
Lake
destroying
pool
Russian
Land
pick
freely
breadth
responded
Music
opportunity
deceit
unable
furnace
uncle
Hiram
ropes
fourteen
celebrated
rage
Gironde
Carmel
ze
conscience
sore
lla
Savior
on-@@
Chi@@
der
wages
Bu@@
hell
ked
lu@@
citizens
condemned
Shallum
march
f
zed
carved
borne
sealed
is@@
nakedness
Ra@@
Any
cost
Jehoram
endure
ously
ride
tribute
Robert
settle
instance
drawing
com@@
expected
66
loving
seas
locusts
Sa@@
safely
ing-@@
shining
issued
Ge@@
ou@@
picture
types
vanity
split
rejoiced
Yea
hundreds
Hittites
feeling
Jeshua
concerned
runs
ker
interpretation
Ki@@
ner
La
Cor@@
stomach
Adonijah
pp
train
roar
tablets
notice
descended
wounds
governors
Naomi
Wherefore
leather
Mexico
1997
worn
independent
N
author
Old
dealt
Sheol
crush
wool
highly
southwest
kissed
Cyrus
introduced
figs
supposed
circumcision
ours
passes
extended
ful
hooks
Du@@
maketh
end@@
reading
shaken
gas
godly
Hosts
pressure
advantage
le-@@
Nazareth
boards
possessed
believes
iniquities
lame
create
acting
centre
usual
nearby
prosper
Micaiah
unfaithful
giveth
sang
production
US
trip
we@@
style
begat
che@@
content
Ri@@
Ask
Russia
Her@@
75
ill
skilled
thief
beg
nobles
useless
Ko@@
Lu@@
damage
depths
heap
succeed
humbled
consecrated
Stay
ments
services
ceased
trial
Jack
dropped
shoot
Hittite
Black
degree
Ch@@
s_
straw
accompanied
Ah
alike
Chicago
men@@
Fear
grows
previous
religion
é@@
grant
UK
Na@@
WWE
Sun
masters
Young
Pacific
comforted
au@@
can@@
fit
thirst
strengthen
Mor@@
’s
80
computer
blemish
'What
jar
kiss
northwestern
na@@
smite
repay
tra@@
cleansed
swallowed
systems
worshiping
solemn
opinion
seeds
Seven
s—
sixteen
replaced
yellow
nights
Un@@
studied
serpent
wherein
ga@@
entering
Joe
defend
Scripture
executed
armor
bar@@
design
plains
growth
normal
width
arrested
defile
Under
plot
snare
Ba@@
Mine
permanent
sanctified
Elizabeth
Cup
Ta@@
J.
Cha@@
sow
average
Abishai
Jebusites
Amalekites
Johanan
tic
Conniston
Saint-@@
ster
hung
deceived
2009
Best
shape
finish
im
Juda
census
deceive
companions
brave
'If
tender
custom
We@@
Fi@@
Arnon
encamped
glass
structure
features
Mediterranean
narrow
parable
father-in-law
diseases
descendant
tested
merely
substance
shade
bent
Pi@@
explained
rate
Green
welcome
manager
era
visited
exceedingly
glorified
Academy
ana
ative
dominion
Wales
continues
Phinehas
security
White
arrow
charges
Socialist
ephah
disgusting
wrapped
skins
B
haste
attempt
20@@
Dr.
cutting
to-day
Macedonia
Hazael
secretly
creation
Arameans
Jim
ants
Meshullam
ines
Mer@@
network
Battle
rolled
multiplied
designed
gladness
begins
ence
Majesty
rows
afterwards
kills
Pre@@
1996
steadfast
Cal@@
demanded
Or@@
Year
Northern
begot
problems
L
awake
Return
cubit
contains
quick
chair
reject
well-@@
M
fourteenth
Asherah
thrust
frightened
weighing
officially
ally
bl@@
bride
ang@@
ph@@
fault
organized
ty
grandson
ir
flower
El@@
Zerubbabel
Og
worry
director
joyful
lords
walks
BC
patience
ul@@
authorities
Babylonians
eighteen
musical
cla@@
forehead
harp
ministry
kindled
warn
demon
Andrew
active
wheel
ran@@
Y
confusion
dinner
sends
abroad
mainly
involved
ocean
Syrians
Province
Open
lets
Brothers
holiness
fulfill
block
Sarthe
thigh
ded
Catholic
devoted
roll
W
conduct
Ke@@
solid
previously
towers
Whatever
drop
loins
repaired
mer@@
sentence
accomplished
1995
Louis
Cain
dish
S.
anointing
temperature
produces
Would
Zeruiah
deny
merchants
ies
twenty-five
begun
Army
wrought
smile
Mc@@
que
attacks
port
utter
Stand
Hurricane
stirred
election
cows
Ruth
answering
Save
harps
ambush
husbands
education
mere
exclaimed
calves
pair
post
w
sounds
Wikipedia
Nebat
practices
Mark
Zerah
ordinary
Antioch
_The
duties
mention
consists
deserve
execute
cre@@
twelfth
Can@@
press
mystery
G
loudly
sinner
schools
Vi@@
Division
'We
chased
chain
doctor
ig@@
anoint
ad
Martha
Himself
acceptable
tragedy
Lachish
measures
ches
re-@@
recognize
gentle
cakes
Shi@@
Lady
ju@@
receives
discipline
situation
rises
Ocean
spears
rode
El
thanksgiving
A.
vows
otherwise
mor@@
Nineveh
protection
aloud
wars
society
Gaza
Angel
Ahijah
repent
upset
earthquake
curses
rebellion
Street
ari@@
murderer
figures
av@@
inhabited
Sisera
ss@@
ys
belly
H.
unit
headed
intended
fruitful
exchange
president
pile
minute
1993
article
calm
anguish
healing
1992
regulations
payment
Dutch
ri
Ti@@
cups
excellent
ning
adversaries
Ekron
v
market
prosperity
economic
parties
condemn
sailed
data
Joel
wore
occasion
guests
lampstand
swept
Tarshish
units
industrial
fame
scales
Others
examine
Nabal
nest
saves
d-@@
sh
ev@@
frames
coals
obtained
avoid
graves
Duke
yield
hanging
Victoria
abide
ati@@
flying
thinks
Florida
Jehoahaz
justified
Qu@@
baptism
300
mile
ering
ha
500
smooth
legal
Naboth
cal
Whenever
dance
proof
—a
Mal@@
approximately
backs
attached
ess
sm
deer
She@@
mar@@
Call
horrible
cords
67
dress
mentions
students
Mac@@
Maaseiah
brown
abundant
astonished
Lo
Little
ending
C.
adopted
sti@@
valuable
surprised
Jehoash
Disney
Nadab
mer
she@@
acacia
transgressions
flag
sinning
pestilence
encouraged
fountain
whatsoever
Smith
contempt
Elkanah
ser@@
defense
expression
au
ball
pledge
Gomorrah
#
Long
0.@@
Grand
rough
Ja@@
Ni@@
horror
signal
V
bears
von
sc@@
rebuild
collected
sickness
worker
Pu@@
Nations
statue
nets
accuse
Ru@@
afar
arrest
Martin
Naaman
compared
passage
Watch
revenge
load
elements
arrogant
abandon
treaty
associated
a-@@
half-@@
likely
industry
ff
bri@@
confess
utensils
Pa@@
Scottish
stolen
sprinkle
stic
X@@
gatekeepers
gra@@
wander
healthy
neighbour
folly
rope
shaped
memorial
culture
Eastern
require
deeply
ren@@
cleanse
Abel
hang
variety
il
splendor
all@@
dove
Am
bows
Soviet
containing
Jezebel
More
roads
under@@
Kadesh
super@@
starting
her@@
Parliament
expect
Suddenly
purification
ler
M.
Edward
s-@@
belonging
Gi@@
cor@@
Bal@@
Association
Kish
ces
Court
F.
1990
hurry
Stephen
400
skies
Canadian
inquire
composed
vast
tie
wedding
construction
Islands
Southern
connected
drama
searched
Art
Texas
selling
contrary
cal@@
id@@
returning
announce
prophecy
occupied
widely
happiness
saving
effort
Second
burst
P
Che@@
fa@@
occurred
and@@
degrees
Alexander
Covenant
Irish
scale
pri@@
disappear
furious
shelter
Hebrews
corrupt
Christians
basis
pleases
Baptist
ties
league
claimed
pressed
university
blameless
companies
finest
badly
onto
Bay
arranged
For@@
touching
Beersheba
feasts
frequently
oak
whosoever
hardly
suggested
companion
speed
overlaid
recovered
method
oppress
uncleanness
ered
eggs
planet
railway
”
chase
war@@
ingly
artist
circle
sail
symbol
supper
lling
Tri@@
status
bridge
Saint
supported
Ashdod
leprosy
driving
et@@
survivors
pomegranates
aged
banquet
ki@@
Obadiah
reap
first-born
constant
spite
Ithamar
Set
sa
wipe
Haran
riding
engaged
Israelis
taketh
ki
lady
deed
synagogues
–@@
pastures
accused
CHAPTER
fate
corn
ol@@
doorway
problem
approval
Until
den@@
Stop
af@@
calamity
va
BBC
Leave
Amalek
anti@@
68
reed
somewhat
bar
measuring
indignation
eleventh
transgression
denied
Over
Amon
Pay
ger
results
Judge
Events
fl@@
90
squ@@
Eliab
dirt
theirs
stripped
Jehoiachin
Eden
tin
Hezron
anywhere
Greeks
Labor
statute
advanced
integrity
Tarling
ford
ents
majority
portions
Los
enters
sufficient
Live
composer
preserve
Achish
Loire
strip
69
al-@@
barren
co-@@
vines
dynasty
ali@@
ns
united
magic
noble
ale
tops
mothers
cedars
é
Middle
bind
71
Ephesus
ft
surprise
Ver@@
liver
ic@@
seasons
ars
fairly
possibly
instant
regarding
pole
eventually
Wi@@
relationship
Silas
goddess
trained
ast@@
attended
cent
controlled
bullock
flames
mad
Armenian
secretary
equipment
recently
res
shaking
Ga@@
correct
und@@
championship
pitched
survive
ned
bs
farther
strikes
finding
Chief
burns
exist
program
Elah
Ju@@
doctrine
rushed
demand
importance
quietly
apostle
Pray
divine
1,000
sprinkled
burnt-offering
applied
TV
des@@
brook
track
fertile
contained
Stone
resting
aware
serves
awarded
est@@
surround
software
slavery
sto@@
za
fatherless
task
likeness
copy
ten@@
Captain
oppression
dy
gs
stepped
convention
Fe@@
tt@@
vo@@
The@@
palaces
fu@@
pots
1989
mayest
Gra@@
rent
Moabites
18@@
Au@@
Brazilian
beard
1979
OF
U
R.
breaks
existence
sounded
flows
speaketh
treatment
mp@@
Gershon
th-@@
wooden
scene
gateway
Ahithophel
Illustration
provoke
tre@@
Seraiah
kin
recent
Lazarus
R
sandals
characters
Maybe
administrative
helps
H
oracle
jewels
aries
1974
rejoicing
tempted
performance
blows
sockets
spreading
Secretary
Grace
Hadadezer
experienced
ters
Hazor
deaf
mud
ach
formerly
fashion
southwestern
ville
Am@@
ya
pretty
maid
o'clock
links
injury
electric
traditional
location
satisfy
ano
sk@@
1-2
Col@@
Amorite
stir
jo@@
stored
ow@@
origin
model
As@@
staying
couple
unknown
Sal@@
bridegroom
asses
examined
happening
á@@
kidneys
Center
visible
1-@@
Hivites
ching
project
gardens
ak@@
ang
valiant
X
Babylonia
med
ven@@
nurse
Club
conquered
flies
slightly
repeated
learning
twisted
mortal
stated
code
er-@@
reputation
spies
dancing
perished
Pays
research
relief
Canaanite
lls
helping
Otherwise
ze@@
noted
mis@@
tone
smiled
Nahor
1970
tradition
ps
exposed
dragon
Children
pointed
respected
Games
Prize
operation
Soon
pa@@
References
Ahasuerus
rear
chemical
sanctify
formation
players
Angeles
shing
ach@@
fulness
swift
Hannah
Prophet
burial
principal
woven
frame
Upon
Hadad
plate
sum
cord
ol
Shem
murdered
footballer
+
cart
fo@@
en-@@
1975
Cu@@
Bill
Shelah
doings
fever
actress
disappeared
Perez
lia
ko@@
basin
prevent
fastened
sown
ara
affairs
strife
radio
betray
pushed
stronghold
ob@@
Perizzites
Maacah
discharge
revelation
Time
ld@@
lover
fifteenth
Prime
Th@@
lled
cur@@
brag
lovely
smitten
ce
camps
refers
tor@@
gar@@
believing
retired
acknowledge
Write
1973
ruling
Ben@@
Without
dare
hearkened
rebel
limit
perpetual
constantly
1967
Asahel
waist
distribution
Kid
throat
lawful
1991
reveal
benefit
annual
Dorothy
forgot
dismayed
hardened
seer
literature
Rise
pages
statement
stock
Fire
Tra@@
connection
Is@@
Caesarea
decrees
ud@@
stoned
Abigail
acquired
entry
potter
bringeth
urged
eager
bush
Omri
divorce
Hill
timber
inquired
1980
land@@
Bri@@
hurried
grabbed
km²
Ham
wake
situated
Act
nigh
mourned
Someone
genus
Very
cell
hoped
Sar@@
gre@@
shared
mes
handle
aid
difficulty
text
ere@@
tro@@
whither
earned
Arthur
dangerous
habitation
Michal
Jabesh
oni@@
instrument
misery
ot
poverty
firmly
colour
liveth
ani@@
statues
eighty
envy
planning
Orchestra
warrior
offers
fiery
maker
taxes
winning
Robin
feature
Still
ideas
contain
trans@@
cow
1977
bra@@
ton@@
labour
eastward
fasting
yards
prophesying
encourage
sovereign
Tropical
confirmed
ant@@
1,@@
studio
d'@@
closer
sin@@
Whose
Heman
vote
Ahikam
medical
overtake
harlot
purify
user
der@@
Company
in-@@
remembrance
wherewith
eunuchs
collection
supplies
bur@@
ward
conducted
countenance
zing
1945
midnight
policy
uncovered
Human
households
1969
aroma
locked
600
decisions
plagues
affected
provoked
directions
commercial
helpless
wiped
activities
cloak
protected
exiles
ery
wasted
Negev
pronounce
ori@@
glorify
Libnah
Tirzah
hunt
you—@@
coal
pronounced
half-tribe
seize
selected
babies
1988
refer
forgiveness
Social
Gather
hanged
missing
bitterness
thirteen
Sarai
screen
ti
baskets
limited
Rimmon
Dead
Against
Teachings
Keilah
sion
0
throwing
crimes
ron@@
twenty-four
greet
shave
roaring
knoweth
purposes
Titus
Sunday
ac
thither
Industrial
trembled
1972
blame
gray
gri@@
ath
Big
ordinance
advance
responsibility
Zimri
Athaliah
brain
holes
struggle
Carolyn
Whom
poison
mother-in-law
Nethaniah
fore@@
Nobel
Ramoth
swallow
traveling
training
ari
Ziba
Six
purified
Awards
comedy
chasing
washing
guitar
zz@@
pasturelands
bal@@
easier
quarter
—that
positions
mal@@
receiving
doves
bathe
grieved
sadness
trail
72
diligently
Amasa
gh@@
dragged
blowing
ino
Turkish
Sh@@
Society
200@@
Hor@@
Desert
keeper
del
shi@@
Gehazi
smallest
Anathoth
error
machine
compare
pl@@
tread
imp@@
precepts
Use
weapon
ther@@
bags
extent
ancestral
ges
Ze@@
manna
pale
response
19th
ying
rebuked
deceitful
profane
extremely
pan@@
thread
tion
por@@
Ten
'Let
Santa
sen@@
laying
repair
activity
seeks
Moon
appeal
Netherlands
African
Happy
interesting
destroys
ak
Certainly
products
Follow
concubine
Manoah
snakes
films
Evil
drinks
Wisdom
heights
betrayed
ministers
edition
lifetime
melt
estimated
es—@@
Obed
refuses
Bruce
Sch@@
ore
plead
stupid
robbed
Hur
rac@@
Women
perfectly
sports
Know
reaches
Harry
Help
'Thus
od
depend
bosom
thoroughly
tha
concern
describes
complex
worshipped
Belgium
reaching
Pope
centuries
banks
wondered
disgraced
residents
AND
mankind
busy
conductor
attacking
ine@@
knowest
withered
farmers
ease
Bread
ro
ss
Han@@
Sennacherib
Dear
sticks
significant
contact
Midianites
existed
via
lament
IV
effects
Super
treasury
Adams
sla@@
settlement
reasons
argue
Anne
festivals
college
useful
faithfully
ky
seats
Having
Uncle
Feast
trampled
builders
'My
twenty-two
Pal@@
fla@@
sal@@
Doctor
continual
Road
ble
Le
Eli@@
leg
pains
belief
quality
steel
partly
brightness
1981
redemption
Cross
Mag@@
represented
Hagar
deeper
Eliakim
describe
mate
trespass
piano
mental
commanding
opposed
primary
stri@@
rare
ved
blown
Hermon
crop
stations
awesome
Q@@
kers
sport
dread
reduced
attitude
Ahimaaz
Sp@@
Four
delay
ounces
kid
sting
gun
Capernaum
1976
Kar@@
worst
Greece
triumph
Ammonite
scientific
boil
Night
lowest
20th
ceremony
ats
falsely
Fair
anti-@@
newspaper
combined
Federation
rank
rapidly
ction
ening
hand@@
Uzziel
Eliashib
1971
Priests
d—@@
1984
Ham@@
anxious
shouts
openly
testified
deliverance
helper
Geba
wandering
sl@@
daughter-in-law
Major
Aroer
Line
discovery
Artaxerxes
bitterly
element
familiar
ators
wa@@
pal@@
Greet
ty@@
Bur@@
constructed
despite
moves
Department
myrrh
fer@@
Ethiopia
1918
Mattaniah
Workers
string
Ner
Eglon
3-@@
hatred
altogether
Jones
kindly
prominent
K
Democratic
Arabah
ere
praising
shoes
judging
independence
Think
head@@
distributed
administration
loving-kindness
qui@@
jail
lt
mat@@
frogs
Mephibosheth
income
ging
climbed
welcomed
farm
tions
shortly
sweep
supplication
Ger@@
Assyrians
claims
Unto
Carolina
historical
display
1982
Linux
heathen
Succoth
godless
Five
ordained
dri@@
lad
brand
arrival
worldwide
obeying
diameter
Elishama
twentieth
Count
confident
Bellew
Star
rush
Mat@@
victims
Reubenites
examples
ese
30@@
ched
28@@
insult
Storm
Brazil
pipe
ab
elder
spared
1987
crossing
Jupiter
Rejoice
eng@@
wishes
Hi@@
route
Winter
musician
Eber
efforts
cymbals
Were
1961
Inter@@
interested
answers
earliest
confounded
exceeding
debut
sta@@
Amariah
1968
searching
wet
Wrestling
opera
pe
ene@@
Machir
Free
Records
whereas
Bani
student
baked
teth
hor@@
informed
je@@
knife
Immediately
highway
pattern
Rabbah
foolishness
Committee
ess@@
Cush
ani
foes
1912
Message
circumstances
Entertainment
politician
defined
Susa
largely
don@@
copies
St
Festus
Poland
feeble
'Why
are@@
civil
craft
Eliezer
ear@@
studies
messages
dly
emperor
:@@
territories
necks
producer
orphans
watchman
arts
liar
Tobiah
ct@@
tip
prevailed
deadly
10,000
tombs
farmer
primarily
Barak
Gar@@
cook
Bela
prostitutes
lock
Better
fuel
Thine
prevail
assistant
groan
biggest
extreme
ga
Olives
ry@@
confused
permitted
sayings
watches
Sometimes
alien
volume
woe
ently
conquer
obtain
registered
berg
Tar@@
whence
dollars
arrive
materials
immorality
heir
feeding
1914
ken
ba
Zealand
marks
op
beheld
beating
Golden
dig
scripture
weeds
'em
nodded
si
ly@@
mocked
laughter
thrones
perceived
repentance
Ste@@
alongside
presents
threshold
Goshen
dishes
Woman
magazine
Eliphaz
Boy
pen@@
Ahimelech
tidings
150
ignorant
adversary
exalt
mounted
etc
Cursed
traded
ivory
Hashabiah
Up
Mario
mercies
ash
Ziklag
cl@@
recover
cherub
ripe
sin-offering
Jephunneh
3,@@
angle
accident
funeral
forests
tooth
beseech
convinced
fied
hat
customs
pictures
tru@@
boats
fold
mission
typically
experts
persuaded
fiction
regularly
AN@@
bonds
EN@@
Scott
5-@@
lazy
mistake
manifest
cyclone
motion
cho@@
wandered
wast
Nebuzaradan
2,@@
Amram
ving
Amminadab
Likewise
ality
ata
cells
managed
provides
=
conflict
Federal
liquid
testimonies
shes
maintain
ong
Museum
guest
shadows
E.
nails
forming
moons
opens
Ac@@
yard
Congress
cake
individuals
proceeded
1986
loaded
worm
guarantee
spit
Austria
whirlwind
Sydney
/
pp@@
sis
wished
beds
pen
Light
Biography
notable
behavior
ctions
Vo@@
crooked
sack
producing
westward
beach
returns
yesterday
intercourse
celebration
dung
Persian
gen@@
orchestra
failure
mic
Saturn
Teach
instances
Horeb
declaration
preserved
proposed
pigs
ver
obedience
devices
F
giant
Box
priesthood
1983
bald
dates
treasuries
ming
llo
inch
ä@@
mist
Az@@
Kiriath
lend
injured
panic
amazing
IN@@
persecuted
moth
Sweden
virgins
sources
Gezer
ko
tithes
copper
sia
bottle
persecute
coins
occur
Sabbaths
increasing
Virginia
mingled
internal
zo@@
considerable
perverse
boundaries
carries
hi
polluted
Lorry
clothe
Play
afflict
Val@@
politics
argument
ur
1960
Following
shone
Gadites
Right
episode
ay
starts
render
organ
mann
oblation
cts
lifting
pin
hin
Steele
Twelve
scepter
flash
spy
Ahitub
infection
ate@@
award
hypocrites
Olympics
Waring
wealthy
attend
designs
striking
Ben
'Who
trusts
—I
multiple
Water
Way
85
abode
repairs
tons
Gre@@
Upper
core
infants
Prophets
array
Meshach
mon
dwells
columns
Shadrach
skill
collect
prize
calendar
Mighty
raw
Institute
ian
respond
items
inhabitant
Shakespeare
Last
stumbling
allows
Jehiel
lust
wholly
Brion
Francisco
cool
Justice
absence
Joppa
owed
1978
cul@@
—to
ut@@
friendship
casting
Rephaim
consecrate
actual
liberty
represents
clo@@
glance
hire
reference
journeyed
commits
77
Sadducees
dreamed
raging
stores
freed
media
backward
sites
owners
lasts
Besides
Sho@@
withdrew
hy@@
concubines
empire
liked
library
insults
graven
animated
Arab
depression
Min@@
interests
co
ber
Iddo
violently
Mountains
Cape
CH@@
yl@@
guarded
Des@@
em
Governor
Wait
dishonor
designated
Bre@@
rods
subjects
an-@@
Rahab
ff@@
Char@@
Windows
shew
relation
Enoch
leaf
sen
Ephron
Ban@@
announces
gotten
Adonay
Gog
apparently
cared
1949
cra@@
ransom
Rose
scorn
Nintendo
ths
Cyprus
Ka@@
debt
curious
Mr
'He
Seth
two-@@
climb
marries
represent
slopes
Marie
beams
pan
distinct
facts
Avice
permission
Van
conversation
extend
thieves
fy
develop
ure
standards
eighteenth
molten
flew
Pharisee
Tower
weakness
arguments
exact
threatened
defect
tal@@
Gulf
cultural
shattered
Jair
movies
slipped
Furthermore
temporary
specific
ably
iti@@
battles
fortresses
ct
Hushai
kindred
reserved
mock
ranks
woods
han
Com@@
Agrippa
whi@@
guess
Air
musicians
Sit
9-@@
temples
classes
Media
fears
orbit
colors
ah@@
demands
naturally
citizen
paying
Internet
—all
'Go
loaf
device
accordance
alism
crew
leth
,@@
°
tea
secrets
melted
Afterward
ep@@
minor
Eat
dim
friendly
goal
woke
stole
publicly
sank
Hanan
zeal
Jean
writers
Philadelphia
headquarters
Romans
whispered
Jubilee
deth
methods
admitted
description
shrines
murmured
smashed
Service
Austrian
shaft
gradually
wells
ungodly
pop
translated
teaches
willingly
locust
endurance
Ser@@
Fre@@
bold
Far
passion
sions
Olympic
Cathedral
moral
cally
symptoms
product
yarn
meters
Tomorrow
cat@@
ung
basins
1962
burdens
oppose
1911
Edomites
cure
talent
renamed
maybe
ut
ini
0-@@
bondage
Boston
*@@
USA
approaching
2.@@
driver
Gal@@
composition
Pekah
mistress
robbers
lasting
assemble
gently
1963
deaths
flaming
ller
recompense
delighted
operating
changing
Revolution
well-known
campaign
stuff
greetings
Ehud
sho@@
requires
penalty
verse
1.@@
caves
Lee
access
Prepare
examination
Several
micro@@
besieged
Debir
earthly
winged
zi@@
Nebo
uni@@
tour
competition
provisions
tar@@
Pen@@
cuts
fre@@
bul@@
high-@@
toil
wage
remarkable
organs
my@@
'Look
Cri@@
pla@@
separation
dispute
cares
frankincense
securely
contribution
1990s
Jebusite
generous
dough
Hamor
evildoers
—you
dishonest
workmen
nice
brief
blast
ities
stared
Terah
Assyrian
74
lit
Lift
self
expensive
rot
seeth
zer
ni
'Come
ai@@
Wil@@
progress
comp@@
Between
wither
classical
Ter@@
trains
walled
ping
one-@@
oh
73
discover
rewarded
additional
nearest
toes
ries
audience
ped
clubs
Wal@@
survived
stationed
charity
Melchizedek
edges
'It
—he
sailors
sheet
m-@@
Jeduthun
owing
tting
champion
featured
plane
proverb
da@@
Public
hither
listens
rebels
Hoshea
peak
Salt
principle
Airport
colt
tonight
Mahanaim
capable
lat@@
platform
loyalty
heavily
eagerly
Walloon
1985
Dagon
corruption
coats
département
fin@@
Office
tries
oth
oned
magicians
hollow
cs
Tor@@
pur@@
San@@
females
Christmas
boldly
risk
web
limits
sur@@
Swiss
cm
2-@@
criminal
lasted
adult
website
sufferings
fragrant
namely
domestic
1948
Mahli
albums
knelt
filthy
1st
pocket
Patricia
cia
quit
hat@@
partner
fasted
chooses
'Your
trick
Cry
spots
rider
Gospel
ron
vest
'And
counties
ü@@
credit
wanting
roughly
silk
zes
mid-@@
abundantly
castle
entrusted
function
pit@@
1947
peaceful
steady
expert
rob
'They
fort
conspired
Overview
centurion
Ohio
laughing
infant
bell
details
Jazer
1952
Ain
earnestly
Arabia
quarts
ctive
tracks
lists
cting
papers
P.
tus
mo
strongly
1906
cher
99
lah
shameful
descent
notes
lean
Within
profaned
ston
Ananias
Premier
lamentation
J
derived
falsehood
trample
n-@@
rocky
Sur@@
4-@@
hospital
1964
quantity
jumped
approved
Germans
spi@@
Raw
Statistics
northeast
Americans
cursing
fortunes
Run
guided
Sam@@
worried
chaff
passover
bor@@
lodge
Glory
Bethany
Hockey
cap@@
Men@@
ism
Beth@@
slight
Zebedee
solemnly
remainder
lied
1946
5,000
nostrils
Mas@@
invite
folk
despair
severely
1980s
sted
Mississippi
jewelry
stairs
Teman
reverence
cro@@
pine
hairs
4.@@
painted
bits
recording
Honor
powder
Nahshon
od@@
Verily
theatre
27@@
fires
Barzillai
Amoz
camel
cri@@
launched
cy@@
slope
hunting
ö@@
tics
discussion
calleth
handmaid
Jedaiah
honorable
concert
Abinadab
complained
engine
va@@
fragrance
Family
cti@@
Alas
Brown
mph
pouring
bigger
95
bite
Sab@@
ornaments
Im@@
Felix
evident
Radio
distressed
specimens
daylight
lowered
enjoyed
Town
pitch
blazing
Geography
System
Hor
son-in-law
to-morrow
unjust
kes
loses
owe
thereby
ES
Summer
Fu@@
Pashhur
tiny
storms
Obey
Bra@@
accord
3.@@
ef@@
sole
turneth
Zobah
Matthew
Rabbi
eri@@
addressed
ology
rim
Ophir
Frank
Jeiel
du
ano@@
Creek
allotted
park
els
Chris
attempted
grievous
tte
Treaty
cooking
multitudes
bribe
testing
Goliath
nobody
uncover
AR@@
29@@
Consider
Maker
submit
everybody
ster@@
Lamech
discouraged
affirmation
Er@@
bother
ink
medicine
metres
Vienna
8-@@
Kelly
tly
Babylonian
wo@@
spe@@
questioned
yer
wrestling
depth
letting
ye@@
1913
vowed
plainly
Professor
ban
Shephatiah
loo@@
insight
1917
cooked
Abihu
liars
distinguished
philosophy
1907
Anna
gla@@
Heber
insulted
unity
heaps
dip
maintained
mes@@
1919
Muslim
somewhere
juice
Rather
shop
1966
southeast
movements
gloom
Symphony
í@@
ER@@
column
sugar
habit
76
ero@@
Foundation
morrow
tt
odor
cheeks
Kareah
Tom
Pan@@
Bel@@
Bless
versions
contributions
L.
Ashkelon
fortune
Korea
Ben-Hadad
External
climate
Order
Nor@@
excuse
normally
proclaims
traders
cistern
corpse
enti@@
overthrow
spreads
lin
collectors
perceive
fli@@
owl
1954
reckoned
Hanun
appearing
raising
lan@@
Aramean
intelligence
plundered
trapped
supplied
countryside
cru@@
o-@@
gaze
5.@@
label
leap
Sy@@
ban@@
Lower
Hinnom
jars
firstfruits
25@@
Jethro
strongholds
fornication
pound
joint
purchase
dumb
Swedish
ment@@
san@@
rail
nervous
ok
ow
1959
Cre@@
verily
merchandise
landfall
Barabbas
favour
worms
oven
intense
Wo
lyre
Billy
fills
trusting
painting
lacking
forbidden
Stagg
lieth
Bureau
greeted
levels
tithe
thirteenth
chronicles
owns
weigh
beer
weights
sel@@
hyssop
Oxford
miraculous
seth
illness
occurs
dra@@
balance
capacity
Force
pierced
1939
Japheth
awe
employed
harder
pigeons
baptize
wickedly
knocked
dramatic
Pennsylvania
ascended
bill
Francis
logy
grandchildren
Kedar
78
sacrificing
skull
Wilson
ignorance
wrongdoing
fearful
plates
Kedesh
Altar
accomplish
deck
printed
inspired
functions
loops
afford
Cornelius
Fa@@
subdued
architecture
ereth
—it
Whether
parables
poet
forbid
Kidron
treacherous
ged
Hag@@
bass
practiced
Medes
resist
Has@@
turban
log
drift
wiser
alarm
colony
nu@@
atmosphere
lid
4,@@
Tabor
him@@
6-@@
cured
humanity
outstretched
cleansing
stadium
pardon
mice
Anah
1965
Ku@@
hammer
exhausted
Tour
AD
shock
watered
lofty
moreover
seventeen
Nicole
tribal
handsome
un
expressed
complain
My@@
uttered
Barabant
wasteland
tools
Gil@@
bro@@
unusual
Er
destroyer
doeth
capitals
eh
ini@@
Jonadab
tails
sink
str@@
stuck
nearer
Benjaminites
quarters
NHL
sorts
Unleavened
Mil@@
Shealtiel
Pass
remind
Albert
G.
temptation
que@@
hammered
tur@@
Nethanel
awful
Megiddo
typical
strongest
rah
dedication
um@@
conscious
Sierra
grey
Stanley
ax
Remaliah
Uzzi
prostitution
att@@
complaint
swiftly
gn@@
drag
joining
Timnah
greedy
Joah
1916
void
Port
dieth
clever
Deliver
financial
Ezer
Psalm
aim
organizations
Press
don
abominable
extensive
pping
aircraft
basic
detail
correction
Coast
cted
girded
Gen@@
Game
recovery
Kohathites
k-@@
parallel
1960s
contract
blocks
distinction
Cam@@
loot
lar@@
heifer
Modern
argued
craftsmen
crippled
stops
7-@@
br@@
cousin
Haggai
Sub@@
`I
poly@@
disobedient
revolution
top@@
Shemesh
fire@@
Xerxes
rushing
prime
hal@@
protects
locks
borough
Chronicles
sunset
1908
ridge
'When
pluck
dia
dwellings
footstool
ind@@
mixture
fails
Fame
—they
quarrel
Iscariot
swung
hotel
push
ph
proclaiming
muscles
wailing
atory
Dar@@
shocked
3,000
groaning
Bible
bend
wisely
transgressed
Peor
confirm
Ghost
83
principles
Forest
iting
unions
Michigan
foods
users
indicate
Civil
resident
Elihu
Conference
twilight
keepers
anus
decorated
toe
Shout
fur@@
Hanani
handful
chin
meets
extraordinary
cheat
1/2
conspiracy
Florence
admit
00
darkened
Princess
awards
jump
Commonwealth
mm
stroke
Dra@@
layer
Paran
ghost
Tu@@
Song
breastplate
operations
beam
external
intelligent
torment
purchased
lian
logical
exercise
asteroid
2,000
environment
corpses
consisting
contend
opposition
Arts
murderers
stra@@
Zebah
bel
Gri@@
Islamic
absent
watchmen
ory
vegetables
influenced
Maria
Riblah
Kenaz
ids
fro
Hal@@
grounds
injustice
q@@
stumbled
replace
Abiram
miracle
suitable
performing
secondary
accounts
amongst
cheek
88
ja@@
apple
feelings
War@@
Ash@@
hence
three-@@
rural
consent
gathers
ey@@
crazy
crowned
enormous
spo@@
races
elect
peculiar
fearing
prudent
sprang
1944
fication
allies
regional
flourish
boasting
'No
Turkey
1958
confined
pursuing
delights
B.
converted
shaved
IN
bath
professor
nominated
marvelous
Apollos
ser
Bilhah
miserable
Massachusetts
properly
Tamaulipas
Dedan
decreed
invaded
descend
Kong
founder
remarked
effective
interpret
tasted
vers
Georgia
guitarist
meter
obedient
cian
wolf
broadcast
Gershom
association
Waseche
Wild
longest
dared
disturbed
breathed
ances
websites
Nu@@
anyway
rely
long-@@
pregnancy
resulted
ue
priestly
1956
equally
Magdalene
Manchester
wail
flowed
Gold
dozen
wolves
resources
cer@@
Dibon
Bank
Blue
Fox
overflow
tool
floods
begotten
rin@@
victim
jackals
doomed
che
hangings
Jearim
sacks
writings
199@@
arrogance
bre@@
water@@
parted
bricks
Triple
air@@
Moscow
cen@@
mob
stays
hearted
Education
preparing
Mountain
strings
tribulation
1955
Beriah
mythology
surrender
sickle
childhood
subsequent
Jes@@
81
leaned
sle@@
60@@
boiled
singles
creeping
Saxony
Ziph
wood@@
colored
bedroom
D.
couch
settlements
Wa@@
Power
absolutely
y_
somebody
Ed@@
traps
98
spotted
Being
lonely
Por@@
hero
wire
fellows
determine
seriously
merry
consulted
.com
Anti@@
86
Columbia
Zalmunna
=@@
ws
sounding
pha@@
tran@@
Alabama
practical
ened
col@@
pack
Dathan
carcass
urban
occasionally
New@@
matches
pagan
Moabite
Dis@@
totally
fishing
1970s
resulting
trustworthy
mers
7,@@
Age
Deborah
northward
operated
trodden
Kashmir
torch
marching
instruct
Railway
breakfast
chocolate
cancer
Reuel
Amos
God-@@
GOD
'How
models
winepress
Rezin
lesson
Nazi
Helene
signet
solar
apply
dismissed
mainland
nuclear
frequent
steward
dy@@
Caribbean
helmet
divination
Congregation
bond
val@@
universe
Zephaniah
builds
Rehob
Science
se-@@
gl@@
superior
mules
Armenia
Eu@@
ey
ST@@
atomic
yo@@
Jason
Ama@@
Syrian
fist
87
sive
bru@@
Wake
Frederick
baseball
Hurry
ignore
Abednego
episodes
—for
ama
cli@@
avenger
slip
monster
communication
repented
ele@@
sung
settlers
6,@@
Christianity
tan
ong@@
obvious
appetite
estate
50@@
Williams
Da@@
issues
Gaal
bloodshed
ade
pre-@@
Sidonians
Bathsheba
Izhar
Group
of@@
Shu@@
sch@@
Parrish
Despite
ker@@
successfully
permit
relatively
||@@
sendeth
tossed
loveth
seconds
supports
ny
Champion
ign@@
Jeroham
Sto@@
mini@@
Along
vomit
Sin
1932
views
channel
ral
plucked
Cap@@
transferred
Film
Anthea
Voyager
raises
Fo@@
Branch
84
tumult
Harim
cks
cy
translation
Ram
fix
Seraph
UN@@
7.@@
sores
trading
VI
Daughter
imagine
transport
Ly@@
Above
Beor
titles
ministered
alert
necessity
invented
dull
Zelophehad
cavalry
prosperous
sun@@
iness
inclined
penis
wal@@
Hamilton
extra
leaven
link
120
Nahash
excited
ards
carbon
Kal@@
mm@@
thereon
privately
Whedon
proceed
gladly
Cambridge
crowns
smiling
so-called
Araunah
explanation
Team
Hepher
burg
Fri@@
work@@
ato@@
physics
fying
mix
ble@@
sledge
Illinois
Tekoa
Gerar
thi@@
Hitler
cliff
fights
sabbaths
ene
Zi@@
onyx
accepts
furniture
God—@@
exists
Dorn
Es@@
shares
imagination
landed
phi@@
ceremonies
Khan
ath@@
Islam
tend
mill
merchant
mosques
IC@@
Pri@@
medium
divorced
seals
hem
enrolled
Ben-hadad
prescribed
bushes
van
ner@@
unpunished
occupation
compass
lessly
coffee
Baal-@@
Jozabad
occupy
proportion
ney
diet
wherefore
patiently
assure
pat@@
1950
Main
honors
700
bowels
cker
Command
82
cing
affection
script
intend
Athens
amounts
Palace
Sanctuary
Assembly
chart
subsequently
Don@@
polished
raid
ea
humiliated
'Lord
exception
Sin@@
sil@@
drunken
ice-@@
frontier
sale
hoping
reeds
pul@@
Poor
deserves
Creator
gro@@
lyres
periods
allowing
steep
Sanballat
loan
Census
idle
starring
doom
1936
embroidered
feathers
ation@@
Wars
Castle
Priscilla
insects
loads
hockey
Kent
Asian
iah
tw@@
Munich
Channel
Had
traditions
jaws
scarcely
6.@@
dealing
Series
gen
forty-five
250
apparent
representing
bel@@
Zeus
ctors
damaged
Kane
causeth
Ancient
butter
Milburgh
ational
1937
Philharmonic
List
keys
hopes
address
abound
plow
southward
breach
missed
mature
Vashti
jubilee
plan@@
bus
Cla@@
yo
sells
heareth
lap
Res@@
masses
heirs
down@@
1941
tan@@
sing@@
to-night
dwelleth
Beach
Opera
fowl
petition
ther
ops
rains
astonishment
fictional
losing
scheme
Into
paralyzed
Class
appropriate
archers
seventy-five
800
alternative
Answer
fantasy
uri@@
post@@
freewill
Saints
childless
Lam@@
ja
Denmark
chapter
banner
89
our@@
knee
son@@
parched
secured
birthday
Melbourne
Geshur
AS@@
az@@
Jr.
year-old
Unless
Philistia
Greater
disobeyed
suit
1957
ninety
ascend
tor
federal
fleet
differences
staring
cont@@
combination
all-@@
back@@
membership
consisted
immediate
wor@@
1905
Lest
IS@@
glanced
overflowing
racing
Pat@@
arguing
lder
ignored
southeastern
riders
leadership
bullocks
nevertheless
faster
flu@@
True
sincere
s—the
Offer
Mad@@
-like
card
ous@@
mas
79
slander
practically
impression
trace
fancy
off@@
showers
swelling
discussed
believer
Bran@@
anybody
ater
Cl@@
meetings
smash
schemes
sojourner
Hold
cycle
by@@
reality
lic
courageous
AL@@
Zin
Ben-@@
coach
values
Milcah
wagons
alo@@
shi
lac@@
Saying
En
Ker@@
Wherever
Cuba
whip
terrify
winner
DVD
shoots
maximum
weakened
1900
defects
terrors
Much
creating
Bad
ER
18th
placing
speaker
Concerning
Hel@@
ders
ena
filling
mortals
Ontario
reduce
Eliel
mechanical
closest
Graham
educated
drives
sses
Together
achieved
terribly
Zoar
telephone
paused
brush
contested
1920
Zorah
tight
elsewhere
16th
stopping
dd@@
Mamre
1953
K.
minded
cking
splendid
acy
Laws
twins
sharply
l-@@
medieval
one@@
Immer
Seek
'A
credited
skillful
urge
shell
glo@@
Babel
oxygen
ils
softly
A.@@
Garden
humility
Beer-sheba
thunders
Iran
kilometres
collapse
ners
solution
hook
airport
Jane
pearls
passengers
limbs
invasion
May@@
wondrous
personally
Kill
communities
Sam
Bezalel
Shar@@
overwhelmed
eli@@
oning
lin@@
nursing
Wor@@
Portuguese
Board
Hoyt
bas@@
Saturday
majestic
offense
miss
Worship
din
mining
harsh
Bethuel
advised
cud
conceive
score
depends
rarely
metropolitan
Uzzah
stable
virtue
Dal@@
eu@@
Polish
40@@
WWF
vile
cabin
Small
Eve
1938
confessed
predicted
asteroids
meditate
writes
Heavenly
Build
sections
haughty
longing
analysis
Dun@@
Fort
rooster
pans
Fer@@
Rechab
greeting
j
mammals
suggest
d—
counting
Detroit
Mrs
Microsoft
footsteps
phrase
girdle
refined
Marian
Could
Wat@@
torches
pools
erected
mp
Third
wax
cap
yan
iling
mah
Lyne
rou@@
mildew
Elsa
Johnson
AN
restrained
bia
tal
Norway
ssi@@
grains
successor
Iron
ack
Shelemiah
greed
impurity
Far@@
grandfather
char@@
cypress
summon
Pays-de-la-Loire
Tony
rep@@
lilies
displeased
shu@@
horizon
comparison
ern@@
expecting
characteristics
file
1942
merged
mischief
gang
makers
herbs
Ammihud
consult
delivers
4-5
Dynasty
De
tests
dar@@
factor
offended
offices
existing
devised
pegs
piled
Gera
measurements
km/h
withdraw
assured
rival
adding
civilization
drops
medi@@
kinsmen
eg@@
12,000
assumed
departure
twenty-three
'God
Guard
Frontier
ka@@
theme
Nehemiah
Navy
storage
fer
Sylvia
3-4
leper
eni@@
ce-@@
ch-@@
tis
intent
Report
understands
application
counselors
descending
execution
to-@@
marble
loosed
Dinah
24@@
residence
Hospital
comic
Crete
well-being
Othniel
ointment
ve-@@
thorn
blossom
ón
acid
Tre@@
Judgment
Pad@@
Belteshazzar
begging
arrives
sigh
meth
applications
ascent
cked
′ah
vanished
lighted
Half
bran@@
ania
concluded
painful
providing
protest
shovels
tical
ledge
stricken
wan@@
ane@@
Huram
Had@@
discern
extending
Ir@@
committee
artists
flute
Ticino
Beware
courses
sojourn
1910
Bou@@
Uri
shortened
contrast
mantle
zone
e_
joyfully
Whosoever
upstairs
bility
Tur@@
stu@@
shines
pleaded
Senate
monthly
deserts
tter
dian
tation
requested
crash
percent
boo@@
valor
Hol@@
knock
Pl@@
rever@@
ING
digital
OR@@
sh-@@
tho@@
Sons
overthrown
1943
technology
somehow
riddle
ace
graduated
supporting
avenge
shakes
Years
occasions
Jobab
essential
tin@@
unrighteousness
Seeing
rolling
favorite
Remove
check
traffic
indicated
mil@@
holiday
Fla@@
XX@@
hides
outward
Aijalon
1951
genealogy
putteth
preparation
ited
Mother
contributed
pits
VII
increases
Asshur
disappointed
fatal
1933
feels
ance@@
Sor@@
bloody
realm
gon
waved
observations
Jersey
urine
antly
evils
immoral
mat
deals
ire
Shobal
gue
economy
1915
sign@@
godliness
assist
conclusion
water-@@
rotten
Walt
millions
Caiaphas
39@@
ition
acc@@
vol@@
disobedience
5,@@
ft.
planting
VIII
inherited
Formula
mathematics
temper
Bush
orange
Cast
dividing
nation@@
shamed
'But
Adar
pulling
arm@@
newly
run@@
sorrows
epi@@
corrupted
Baanah
abuse
shear
Memphis
whereof
devastated
observation
Hun@@
lain
soccer
multi@@
Cut
billion
aci@@
grip
lai
provision
'Take
Mel@@
senior
mirror
Adaiah
excitement
garrison
Bor@@
express
Muslims
circulation
Oklahoma
saddle
scenes
LE@@
Hercules
underneath
Mont@@
Uni@@
Alice
Convention
Constitution
bid
promoted
municipalities
hip
twined
snares
editor
star@@
Win@@
pointing
Punjab
Baseball
imprisoned
thumb
oral
insisted
raiment
ves@@
imprisonment
stretching
identified
gam@@
pairs
Jackson
Throughout
fleeing
mid@@
Jether
thirty-two
blade
peace-offerings
dro@@
pays
seashore
heated
sw@@
lightly
collector
attendants
Awake
endured
eyed
selfish
1934
stages
5th
visiting
starred
span
Number
dirty
Indians
Commission
dipped
condemnation
Baals
corresponding
Hormah
computers
treacherously
absorbed
dependent
lip
lined
iled
steadily
inward
sor@@
delicate
blossoms
soci@@
Trust
document
sha
desirable
Always
there@@
8.@@
roles
conception
sour
violet
sters
installed
Abbottabad
aired
cards
tr@@
eagles
wondering
luck
fishes
baker
Cilicia
prospered
concealed
possibility
accusation
crowded
Bavaria
Karl
plotted
poisonous
cling
embrace
ie
lawyer
cable
lity
settings
influential
disorder
Sil@@
saddled
with@@
Agag
coastal
zation
draws
crimson
presently
Corinth
pavement
grape
ceremonially
drowned
ist
tering
coin
Cho@@
rapid
uprightness
stature
introduction
beforehand
trials
es—
Comp@@
5-6
map
flashed
Mari@@
Sand@@
ll-@@
massive
proclamation
ly-@@
eunuch
depending
Ari@@
Adullam
Midianite
rai@@
lish
ide@@
physician
organic
hometown
plu@@
..
radi@@
satellite
Space
downfall
enthroned
temperatures
bowing
em@@
organisms
online
1935
spoiled
parent
eateth
Special
ethnic
Gershonites
antiscorbutic
stru@@
mule
solo
ECW
Cro@@
retain
farthest
ou
logs
nor@@
Zebadiah
dignity
emptied
print
sympathy
195@@
Ish@@
Hy@@
encamp
sharing
colours
hemorrhage
wins
lays
Vol@@
grind
Organization
Area
Tsebaoth
formal
govern
3rd
Region
Hong
breathing
ck-@@
tempest
Shaul
Obed-Edom
controversy
Meribah
Iraq
Fran@@
Hallelujah
cation
home@@
prevented
associate
persecution
storehouses
downward
2-3
Porges
institutions
brick
gers
xi@@
expelled
mysterious
Hungary
goest
sailing
blesses
readily
Ce@@
cleared
behaviour
'These
vinegar
weaker
dae
selection
reliable
Brian
savior
Friday
laborers
neighboring
,000,000
ung@@
four-@@
earrings
cheerful
Pour
pped
staves
any@@
obeys
stubble
fullness
Abdon
DNA
Around
longed
sayest
tab@@
enlarged
extends
paint
esh
Thank
welfare
ack@@
stained
win@@
suggestion
ord@@
Lev@@
crystal
devise
TH@@
DS
ub@@
critical
Kennedy
Shebna
IX
HELEN
gr@@
programs
ond@@
conference
weaned
mail
Ages
Jeush
besought
Redeemer
bribes
s.
taboo
mal
semi-@@
Mayenne
ita
console
shouldest
abhor
Agreement
rec@@
desk
ministering
grade
Hawaii
oppressor
desiring
—this
delayed
15th
.”
Myself
uproar
IT@@
Devil
painter
Work
Tan@@
Neriah
swine
definite
prefer
bay
ino@@
interior
scholars
Hardy
motor
fitting
Mushi
concerts
Ornan
res@@
historic
invade
rites
ined
Angels
Tru@@
proudly
briefly
cher@@
imposed
EL@@
Mexican
Tamil
or-@@
Shammah
Sta@@
ly_
gazelle
finely
confession
vol
tissue
wroth
engraved
—not
primitive
worshipers
evidently
sal
onal
partners
background
dense
Field
house@@
tive
closing
whisper
grasp
shirt
Behind
án
exchanged
c.
blasphemed
Ci@@
atus
constitution
1-3
Shepherd
law@@
swell
gging
6th
louder
Ele@@
sunrise
Whi@@
mines
Rio
renewed
tens
perfection
Diego
O'@@
sling
sulfur
Lawrence
nests
swarm
us_
mmed
fired
authors
collapsed
awoke
1940
Molech
retained
patch
foreheads
grand
smoking
deg
ration
dated
Writings
remote
sk
tragedies
'Because
persuade
fluid
workman
apparel
Hast
Korean
CE
surviving
matic
committing
follower
coastlands
hits
universal
feasting
unique
RA@@
sweet-smelling
Rescue
1000
Jabin
Zaccur
Menahem
hewn
Taylor
respectively
sentenced
Ty@@
attempts
resolution
reconciliation
factors
scent
SS
Dossonville
T.
fal@@
Beyond
autumn
sand@@
speci@@
poetry
Walk
Cas@@
pretend
ritually
Bridge
speckled
accustomed
lovingkindness
suffrage
quoted
Alliance
Flanders
boiling
motives
haters
Christopher
mus
vestibule
accurate
squares
leaning
Pictures
bow@@
gor@@
popularity
distinguish
plea
oc@@
cheese
withheld
ama@@
Super@@
giants
fitted
hon@@
bit@@
fetus
lowly
candidate
heel
threat
forcing
Apostles
Zabad
de-@@
disputes
Something
Aphek
Wilderness
considers
cathedral
representative
Sk@@
uniform
diligent
ssed
Ophrah
profitable
Times
fle@@
roasted
dishonored
novels
Elders
Kra@@
Romania
Bozrah
mia
guy
wri@@
oun@@
At@@
ripped
punishing
engineering
es_
swarms
9-10
Neu@@
management
rests
goin
Lar@@
fri@@
int@@
h-@@
AT@@
frighten
Land@@
binding
electronic
Tro@@
Achan
Tal@@
Lion
rays
app@@
Makkedah
Hot
1901
reckon
Finland
revolutionary
deepest
cou@@
markets
threescore
designation
Choose
Jerahmeel
shrine
recognition
alist
Afterwards
cr@@
grinding
lunch
Pas@@
Onan
les@@
pes
visitors
favorable
Zichri
Sup@@
eldest
Chemosh
crust
baptizing
characteristic
wit
130
keth
Fraulein
lyrics
Ahi@@
stripes
Category
king@@
cer
Roger
continent
ae
remembers
heels
hel
Fall
Chancellor
ritual
Jahath
encouragement
plowed
Achaia
voted
assistance
forty-two
Cy@@
Centre
seventeenth
fowls
Op@@
hunter
Toronto
expansion
Trade
Marshall
needle
om
Topheth
cars
pomegranate
conceal
doctors
4th
axes
JOHN
target
frost
senses
bah
piles
US@@
Hope
bearer
Peleg
faded
alliance
sapphire
Ebal
advisers
courtyards
6-7
ola
ced
Sharon
94
olives
museum
Lan@@
jah
yed
Bob
Warrington
Warner
redeemer
permanently
abdomen
7-8
lers
breathe
victorious
flashes
blues
discuss
stump
roo@@
fe
Rehum
delegates
Bro@@
itions
elections
'Give
Lau@@
killer
notably
removal
dissolved
investigation
vertical
incident
ski@@
attain
Don
sac@@
Anak
focus
wrestler
Hen@@
carpenters
Born
artistic
quenched
continuing
sorrowful
supreme
coasts
Bl@@
Jerubbaal
magnetic
purge
Protestant
Mus@@
Elon
Thi@@
ashore
Murray
ise
self-control
strive
bud
onian
waits
crushing
st-@@
00@@
Delilah
emb@@
ku@@
198@@
ets
swears
AM
Gro@@
bark
ona
identity
God-of-the-Angel-Armies
oppressors
drought
lodged
ger@@
Supreme
Luz
industries
Child
plaster
Meshech
Ah@@
Germain
detective
RE@@
romantic
ences
plus
Peninsula
West@@
ert
gal@@
Erik
madness
Vincent
Charlotte
hill-country
Tubal
positive
actors
Pedaiah
pursuit
manifested
Belshazzar
sighed
stre@@
retreat
desperate
hoofs
sphere
Square
unlike
revolt
rained
Westminster
newspapers
Down
bracelets
110
sation
ful@@
Lin@@
Shishak
complaining
Mes@@
pin@@
classified
Allen
Ford
Tam@@
Forgive
thankful
canal
non@@
cargo
restitution
plots
slu@@
appearances
Sla@@
Security
nineteenth
pas@@
Pisgah
nephew
claiming
Gilboa
gg@@
Uz
defence
concerns
aring
destined
moments
tarry
adults
contemporary
boughs
guns
vy
Cou@@
Zer@@
pipes
facilities
ala
Spe@@
Dor@@
sustained
divers
rejoices
ure@@
ura
Sherebiah
residue
1929
drug
mayor
Cra@@
consequences
travels
custody
malice
fur
Hainaut
titled
Gabriel
Figure
stealing
12th
eness
controls
unbelief
significance
monument
7th
lig@@
exiled
Bishop
interrupted
Adah
N.
density
resting-place
mustered
Ram@@
dispersed
Fill
hydro@@
partiality
Azmaveth
Ethan
ington
alt@@
plateau
Neptune
Aunt
Draw
cit@@
arrangement
emp@@
danced
gan
muscle
terrifying
2nd
tted
Kansas
free@@
stiff
reminder
whereby
Lieutenant
one-third
Highway
pilot
magnified
ter-@@
Jared
vanish
attained
Colorado
cat
Thirty
tube
inferior
Prussia
stress
Jan@@
plac@@
circles
ancy
atu@@
Akkub
Mishael
eternity
Jerimoth
palms
Unlike
leavened
cus
straightway
*I*
cubs
spoils
torrent
injuries
INGOLF
regards
Argentina
Station
travail
collar
vin
psalm
refusing
Makir
rebuilding
victories
stern
Asaiah
scorpions
kitchen
Horse
strain
Cur@@
93
abo@@
correctly
Arctic
Mur@@
Note
Nation
cheer
Official
leaped
select
defended
defender
Jehohanan
agent
guiding
me—@@
equ@@
henceforth
Ferdinand
refreshed
wagon
axe
canst
hastily
lles
chemistry
onia
warnings
melody
Fal@@
Indonesia
17th
rubble
hurled
them@@
processes
grieve
ounce
Tha@@
Imperial
sli@@
sian
gossip
AT
Edrei
limb
blot
wed
Shoop
ill-@@
sequel
Throw
mire
pours
Hide
Arba
mps
strictly
warfare
int
g-@@
speakers
hostile
Virgin
compelled
genuine
lessness
mani@@
performances
reproof
sprout
initially
Kadmiel
ancients
Mid@@
literary
difficulties
Miller
nought
tightly
brilliant
subjected
Bru@@
ows
Thessalonica
tra
displayed
ining
passeth
read@@
democracy
Further
Berechiah
projects
bells
attentive
shops
Yorkshire
concept
Steve
P.M.
Truth
justify
interpreted
weekly
ek
Cover
life@@
Decree
ash@@
aceae
stirs
ane
throws
Than
hardware
anism
Foreign
Anthony
illegal
disc@@
Bon@@
dreadful
shoe
bon@@
executive
kno@@
Ur@@
ira
Att@@
jaw
Jess
fountains
hun@@
150@@
flax
Ai@@
Trevert
Turks
Horon
96
talks
nd
withhold
tennis
Zur
equivalent
Blow
herb
Mam@@
ately
choir
ental
'As
ON@@
flung
vocals
Israeli
Mattithiah
electricity
mound
likes
wick
hoof
banished
Hut
aroused
11-12
Malchijah
graze
devotion
Mareshah
wa
criminals
fans
tes@@
dome
Persians
overtook
aliens
idae
Shecaniah
Singapore
wineskins
Kenites
landing
lifts
Spring
poem
Socialists
Bla@@
itch
violated
post-@@
—but
Ethiopians
packed
Sol@@
wan
folks
lings
ads
resistance
Mah@@
harmony
refrain
Landon
Ashtaroth
Ramoth-gilead
electrical
AL
laughs
Cushite
Monday
burnt-offerings
identical
dashed
ency
acquire
decent
Over@@
fra@@
harvested
Hart
sized
sooner
50,000
faithless
attracted
pa
mysteries
smo@@
Binnui
los
underground
decides
wireless
light@@
twenty-eight
97
remarks
alized
Ittai
Ca
bert
prolonged
pho@@
Julius
tain@@
Birmingham
certainty
lakes
Rail
chi
grandmother
impact
lee
documents
soap
ish
hood
Britannica
ji@@
ot@@
here@@
Gomer
Anything
Saxe-@@
bi
Silver
Home
nia
mping
Walter
orphan
Director
neglect
clock
crows
one-tenth
Break
frozen
Austin
Eliphelet
Socialism
Beth-shemesh
stagger
92
kindle
God@@
ren
whips
Buy
1909
arrange
End
visual
kilometers
esses
hers
Lou@@
jobs
Eng@@
teen
exhibited
lam
sty
Tim
falleth
ED
thro@@
dens
Ap@@
Drink
Portugal
mit@@
8-9
traditionally
equipped
specifically
mute
Pete
Plan@@
meals
classic
bake
hut
arian
Pierre
intention
Puerto
assemblies
maiden
Earl
deliverer
stem
Bir@@
Dor
side@@
Batista
Shaphat
satisfaction
Add@@
withstand
`Lo
devils
ben@@
reaction
fan
Zibeon
eyelids
day@@
Samaritan
rat@@
oaks
considering
12-13
ands
harden
departments
avenged
Aquila
Hugh
Norwegian
11@@
yearly
blo@@
goals
promote
'Where
cliffs
tones
egg
murders
ion
Stretch
machines
inger
ades
sprinkling
artificial
cane
Aha
explore
Benny
ast
Jabbok
play@@
tically
Library
All@@
uring
zi
sensible
Instruction
dances
tures
ordination
Renaissance
prophesies
dedicate
bleeding
tearing
widespread
debate
absolute
Prophesy
earn
Artemis
cated
intensity
tz@@
claws
twin
buying
maids
13th
deli@@
mag@@
doest
foxes
whilst
inhabit
blocked
zealous
texts
fragments
Grammy
IM@@
challenge
unconscious
24,000
sup@@
scriptures
ax@@
Mesopotamia
magnificent
Muhammad
devout
Columbus
whore
pleasures
manage
commission
ored
1921
Kon@@
Anton
itt@@
gun@@
restricted
devi@@
affair
err
bunch
riseth
Theatre
requirements
prays
reveals
Ob@@
sakes
oceans
adorned
foolishly
chen
'Behold
Cru@@
opponent
mit
Aunty
Stra@@
Outside
elite
heroes
neighborhood
Vernon
dyed
Till
cock
linked
Depart
Gedor
impure
d_
cle@@
Brook
Research
pierce
endureth
Carmi
sensitive
Arabic
storerooms
blindness
stor@@
Stadium
fies
Food
expanded
twenty-one
'S
mortar
smart
ture
bou@@
hunted
cunning
groves
sales
Phoenix
feld
invisible
embarrassed
Sun@@
booths
guides
standeth
breeze
essing
latest
Christ@@
sunk
Kir
thirty-five
91
cornerstone
chan@@
Hil@@
derision
anxiety
Louisiana
bolts
ham@@
definition
compassionate
Blood
nail
harshly
az
studying
Bull
aspect
pet
dor@@
196@@
Za@@
tempered
dropping
abolished
Lead
rite
1930
suicide
stretches
ISBN
ick@@
9.@@
arch
Johann
Af@@
speedily
han@@
IL@@
bo
pun@@
Universal
circuit
humankind
tz
Minnesota
Mars
EILEEN
AC@@
sexually
Cold
one-half
mosque
gird
rounded
shooting
briers
withdrawn
atives
guarding
8,@@
Shelomith
Ang@@
'There
foot@@
Attack
serpents
summit
es-@@
bed@@
sizes
Jah@@
PADDA
ander
mber@@
mocking
mast
decay
Labour
interview
impe@@
revive
aw@@
lobe
hostility
cles
Abbey
consideration
disobey
1904
cleave
sings
contest
Zilpah
Ariel
expectation
incline
cular
Carl
Elioenai
complaints
HADDA
joke
one-year-old
codes
councils
administered
foothills
provoking
Lotan
enduring
vegetation
format
Ottoman
doorposts
blasphemy
Orthodox
vel@@
convection
North-West
ring@@
distribute
explored
tations
improved
rats
fence
technique
del@@
soli@@
hating
plastic
barn
cke@@
Enosh
sled
declaring
slide
Quebec
ugly
Urim
Dark
transfer
gazed
unmarried
quantities
continuous
presentation
É@@
chew
Metropolitan
tered
80@@
drivers
wind@@
jasper
scor@@
wearied
Journal
brake
keepeth
confronted
qualities
cross-@@
OS
Head
bb@@
reform
threats
1889
Abiezer
forgave
hosted
RI@@
millstone
gh
folded
Territory
feeds
160@@
labored
Mis@@
leprous
shallow
Ara@@
scorched
voyage
Reichstag
sn@@
lusts
furnished
n.
Ve@@
extinct
establishment
preferred
sitteth
supplications
Maon
9th
Mayor
Ph@@
academic
Tappuah
repeat
circumcise
Arizona
sheets
uterus
adventure
Edomite
mul@@
sey
carcasses
q
allotment
Helen
daytime
knives
revived
onic
stringed
author@@
Gamaliel
luxury
launch
ES@@
`The
outsiders
crucify
unbelievers
structures
roofs
Oreb
Days
rat
fir
Madrid
Dev@@
representatives
saint
tormented
usage
panels
ux
accidentally
accusers
extension
Due
preacher
Mir@@
Righteous
emerged
ula
damsel
val
Elnathan
Ahinoam
universities
dam
lighter
Near
Ardèche
Geneva
careless
Gibeonites
diseased
sunlight
flint
robbery
Juan
mou@@
Bear
bundle
ora
and-@@
berry
signals
p-@@
Bethsaida
wider
Connie
dic
birthright
`What
regret
hastened
oaths
wasting
layers
Lat@@
rainfall
plentiful
lacks
extratropical
nes
ope
fork
fade
way@@
you—
Maya
appointment
pressing
sub-@@
Eshtaol
Cleveland
boldness
ots
sher
illustration
bathed
Jarmuth
factory
En-@@
Herodias
Meraioth
lick
presenting
José
Amanda
brow
sco@@
Dishon
Neco
pur
Part
processing
sepulchre
mode
unrighteous
smiteth
1903
harmful
awa@@
salute
proverbs
0s
fac@@
Hon@@
Serve
bab@@
nah
FC
twenty-fourth
Arioch
phone
rounds
violin
diligence
1:@@
gli@@
Beeroth
embraced
175
startled
Ali
dam@@
Leader
bordered
tank
Delaiah
involving
bees
me—
opponents
elevation
Country
100,000
3:@@
skirt
defeating
suspended
climbing
e—@@
engineer
flooding
JUDGE
Gaius
joins
unintentionally
oni
cream
totem
gallons
Gray
Back
brighter
Wisconsin
tion@@
guidance
Dick
comfortable
auto@@
Taiwan
valuation
rest@@
Den@@
whomever
vice
Laish
approve
partial
seest
ctor
leopard
tunnel
Destroy
welcomes
disasters
suspected
stein
za@@
overall
inform
Rest
Fibsy
hen@@
censer
bet
pink
baths
howl
sober
Bud
parliament
Declare
composers
Away
Star@@
org@@
stirring
tambourines
hear@@
maidens
doubts
fil@@
Vol
diverse
vin@@
Howard
Guinea
Crawford
witnessed
edi@@
Sti@@
yearling
Uzza
charging
Greetings
forsook
boss
soles
Taanach
rightly
agony
Methuselah
experiences
Gothic
7,000
Havilah
compassed
aching
programme
pianist
silly
Wilt
Sou@@
pig
joints
conquest
procession
satraps
Azekah
biology
pitcher
immense
aled
Doth
roe
voluntary
shire
Pharao
qualified
demolished
developing
gy
designer
ological
Philippi
pher
liberal
Jael
mindful
enabled
deliberately
subtropical
UR@@
te-@@
bai
Jeshaiah
philosopher
passenger
fro@@
Cast@@
Late
Luke
bil@@
analy@@
uprooted
ó@@
counts
rendered
wrongs
Sports
uncircumcision
folds
Tola
consecration
Sher@@
outskirts
ú@@
gul@@
ious
stray
ideal
advise
consist
14th
y—@@
rejects
Nazirite
properties
ssa
alle@@
1950s
thin@@
x-@@
cereal
far@@
earnest
Corporation
Russell
sel
evolution
negative
sion@@
snapped
dium
fishermen
governed
hesitated
Project
grab
savage
Montreal
Jahaz
bun@@
sea-@@
Sim@@
convocation
assa@@
tempt
accompany
initial
Enan
Cameron
Ebed
entrails
Potter
furnishings
genealogies
Beloved
inging
Levitical
atively
flo@@
exult
excess
past@@
costly
hailstones
wears
Councils
Clo@@
1923
acute
Franklin
90@@
darling
sar@@
ère
gi
Ag@@
’
13-14
lampstands
ken@@
1902
fee
endless
1898
clusters
exhort
torture
sur-@@
Zoan
e.g
Eth@@
bla@@
glands
Joiada
SH@@
songwriter
gged
Nature
Ye@@
Native
Byzantine
razor
thites
disciplined
reigns
evolved
fewer
Billboard
Jehozadak
Alaska
Eileen
franchise
AD@@
non-Jewish
stand@@
bridle
dominant
Notes
boots
wronged
10-11
consciousness
evermore
almond
Obed-edom
Bell
lon@@
punk
purposed
overthrew
votes
MURRAY
'Be
hel@@
Davis
NFL
pastureland
Things
tar
Max
neighbours
ckle
innocence
starve
Zippor
ranked
high@@
'Get
magnify
ase
193@@
vation
substitute
Believe
stamp
adversity
Must
itu@@
handled
ough@@
ith
nowhere
occasional
Books
20,000
vari@@
dan
angles
see@@
Hills
perfected
yri@@
worships
kids
subdue
Executive
sheath
Faith
Venus
dal@@
tele@@
ale@@
Kir@@
Sion
dispossess
a_
pus
dre@@
drums
Sciences
devouring
foul
specially
t_
Footnote
beliefs
Ay@@
unhappy
unbelieving
raisins
pos@@
30,000
enclosed
literally
Hollywood
walketh
ana@@
soup
semen
helpers
perfumes
Messenger
rust
beware
Yu@@
swimming
°C
Heritage
profits
marrying
fasten
Thompson
consolation
fellow-@@
protested
valued
uel
fog
assume
encountered
Oholibamah
Point
passions
reader
Iowa
Danish
Aramaic
preparations
engines
Strike
mus@@
slumber
ranges
hurting
Tahath
ON
searches
ingen
zero
assisted
builder
attending
1922
beareth
swe@@
reprove
2:@@
reasoning
filth
Ethiopian
gains
Brother
faraway
Med@@
lau@@
jug
iner
sati@@
Pha@@
Police
ditch
una
O'Brien
destructive
ort
colonial
Dublin
è@@
discussing
blu@@
centers
stink
Ar
offensive
CD
governments
guardian
nineteen
isles
crawling
spilled
tallest
har
aboard
Salvation
swim
red-@@
pace
197@@
symbols
suggests
15-16
Missouri
Guide
Lord@@
medal
forts
Rider
low-@@
cents
peg
alphabet
heim
eve
Try
rash
TI@@
breastpiece
lle
Iconium
Testimony
overlay
sowed
odd
Trophy
Republican
steam
historian
celebrating
RO@@
ousness
Shebaniah
Mun@@
earth@@
saviour
lioness
Fin@@
Shema
compounds
'In
ruthless
mped
gentleman
requests
Kam@@
Constantinople
ku
of-@@
pervert
continental
cult
caring
highways
personality
applies
looketh
rations
Ann
dollar
sheaves
stal@@
appealed
buds
Standard
Carter
Kor@@
candlestick
mble
Trowbridge
critics
Zebul
speeches
originated
styles
rewards
bra
seeketh
Nob
troop
colonies
minimum
'For
harbour
struggled
Mach@@
s—and
fattened
Ken@@
Nobody
OL@@
Wadi
attendant
criticism
suspicion
Angle
Bangladesh
mont
magistrates
ribs
TO
consuming
Top
Ezekiel
Al
ERNEST
conducting
responsibilities
Local
mite
fugitives
despises
ore@@
contents
mites
Basemath
fores@@
Hearken
Antarctic
kk@@
ologist
indi@@
incorporated
14-15
accursed
reconciled
itation
Mike
Elim
robber
fins
combat
Nebuchadrezzar
Nathanael
Gileadite
lily
booty
bacteria
necessarily
shapes
instantly
ith@@
marine
grams
penny
Ministry
inscription
clean@@
Wash
bad@@
reserve
swi@@
kel
floors
gation
burying
insist
kins
founding
aiah
engage
hateful
Matt
sunshine
anchor
beans
bladder
labors
cent@@
Gran@@
channels
fleece
yielded
posted
setteth
bles
Javan
Gun@@
neutral
owls
quench
alities
17-18
publication
bly
ever@@
sheth
shorter
Meremoth
amazement
eliminated
farms
Bol@@
Studios
Michmash
waxed
Dominican
barns
oner
Gold@@
Scho@@
Rabshakeh
citadel
ada
formally
thanked
questioning
fetch
arrangements
gy@@
he-goats
dries
São
Ober@@
Abihail
Pittsburgh
fashioned
thighs
underworld
repro@@
Arabian
Colonel
Lloyd
ann@@
grazing
experiments
sies
Azel
entitled
adds
cali@@
Lystra
—in
amen
borrow
A.M.
kets
peninsula
sm@@
finishing
Cephas
Pon@@
hay
emergency
horizontal
Price
Hath
compound
cha
rushes
peri@@
treating
did@@
proves
lli@@
deceitfully
neglected
tumors
expose
arrayed
inland
hairy
good-@@
pottery
Baal@@
scientists
Find
Gihon
Common
gay
alarmed
destitute
ref@@
thy@@
Mahalalel
expedition
inf@@
gall
ris
rie
harbor
deception
apples
perverted
Jahaziel
1924
skirts
Antonio
quiver
Guerrero
polis
adi@@
tun@@
Sergeant
equality
pushing
protector
sy@@
dom
Benhadad
Troas
homage
Patrick
Laodicea
Jamin
Originally
senseless
carpenter
pay-per-view
hites
Hivite
sburg
steri@@
rowing
IS
category
discerning
hallowed
defeats
coloured
diviners
Ol@@
ace@@
varied
Tennessee
EC@@
Heth
porters
Abimelek
Millo
inflicted
ee
Bartholomew
riot
Kin@@
brim
ud
yelled
thickness
characterized
mming
remembering
involves
chapel
Ath@@
Kiriath-jearim
emotions
definitely
fortunate
itive
dungeon
posterity
Beer
carts
drummer
Saviour
say@@
Sham@@
funny
homeland
unfailing
punishes
Bowl
Dru@@
keen
Tab@@
Fl@@
Taking
Ulysses
Black@@
establishing
inst@@
glowing
tunic
hinder
camp@@
at-@@
Gam@@
decline
mustard
honestly
sweat
weaver
tributary
stocks
idolatry
benefits
Tahpanhes
Pit
ridicule
Danites
Personal
Negeb
assurance
resolved
immigrants
orbits
adapted
disguised
travelling
Solar
Bun@@
experiment
nourished
visitor
fish@@
Salmon
alists
ics
dead@@
good-bye
fooled
liness
renowned
WrestleMania
zar@@
vicinity
Alexandria
ing—@@
Zo@@
erect
mar
heavier
gal
charts
Epi@@
Ul@@
repaid
viewed
whe@@
Libya
trunk
ée
daybreak
flags
Del@@
withers
aded
prior
bat@@
Ira
wards
vagina
Shushan
1928
Beautiful
masons
governing
accompanying
Philippines
rescues
Independence
overseers
Eg@@
abides
sol@@
Jer@@
license
patients
Shur
radiation
SS@@
med@@
vi
Mercy
boxes
Sat@@
fir@@
impulse
reigning
cious
planets
Penuel
Judean
bishop
consumption
stran@@
lacked
murmur
coun@@
symboli@@
Ren@@
kinsman
circumference
Talmai
cultivated
ldest
inno@@
000
UN
Brayley
ambition
Hes@@
Milan
mechanics
beget
Hades
ction@@
Terror
Minor
ress
stare
inn
farming
tragic
nonsense
potential
10-@@
restrain
afflictions
gentleness
travelled
Napoleon
appalled
this@@
zer@@
homer
fabric
imagined
Out@@
Brabant
soothing
locals
Living
Catherine
Arpad
strips
disgust
weed
warming
tch
ng@@
particles
Heavyweight
pop@@
Julia
stan@@
succeeds
Sen@@
choked
Administration
welding
Chin@@
grasshoppers
Ross
Galatia
pretended
berries
journal
adjacent
dice
silently
tourist
LI@@
Serug
glacier
dle
Sweet
metals
Ephah
Morgan
Kishon
mediums
Yo@@
favored
eth@@
toucheth
expense
subjection
fox
tricked
atic
starvation
forgiving
distances
reside
machinery
jo
gazing
Flee
Wall
preceding
uniforms
liber@@
basketball
removing
suck
Samaritans
Corner
server
suburb
resort
bushel
motive
Jeremoth
Sel@@
barely
avoided
commenced
concentration
lime
oph@@
Search
institution
glean
AM@@
choicest
renew
EM@@
faction
Bow
butler
hen
thistles
natives
sou@@
tent@@
constitutional
referring
carriage
Kit@@
ree@@
Blan@@
ple@@
tors
fundamental
½
Libni
ays
thirty-three
deposit
dge
lly
tier
unfair
mightier
8th
Beatles
adulterers
Chest
nursed
ship@@
stan
Wizard
Ch`@@
shining-greatness
gin
shores
scourge
inscribed
solitary
clap
halt
reflected
Gor@@
comm@@
devours
announcement
tel
py
goodly
contention
sy
screamed
Oholibah
Jacques
105
sows
und
FI@@
CD@@
influences
pres@@
consequence
nar@@
pursuers
wares
bestowed
Frieda
ute
Arphaxad
Margaret
Harold
casts
noisy
Ph.D.
Fight
1.5
Shel@@
Pat
plowing
urus
attempting
tasks
ambi@@
amateur
1925
cab@@
Squ@@
blinded
threatening
Elath
agriculture
ez
llers
escapes
tant
Arabs
gravity
strict
Magazine
Pla@@
bounds
receiveth
Member
hooves
attractive
ranging
phase
Z
Vietnam
Cow@@
temperate
jun@@
Works
ender
ador@@
100@@
nes@@
enraged
ius
10th
Commons
onward
Turner
succession
them—@@
Zeeb
ound
devote
ox@@
man-@@
dom@@
ek@@
gener@@
Kur@@
Reu
suffers
savor
gavest
kin@@
Indiana
communion
Joktan
chiefly
esteemed
Hungarian
intending
determination
bat
compensation
License
martial
rags
ssing
disputed
Ammiel
thing@@
probe
'Here
Abarim
roared
Tzu
Whiteside
Capital
6,000
ven
covet
transformed
shah
Boys
Zabdi
4,000
Hosea
FIFA
residing
Em@@
20-21
counselor
enable
tu
sacrificial
Grandma
Wail
1895
tta
dor
peth
Yourself
spell
Said
populated
architect
tune
Augustus
Network
Medical
sche
acquainted
ladder
twenty-seven
'n
oli@@
dol@@
strengthening
AC
Edinburgh
featuring
platter
cc@@
weighs
rainbow
ag
session
Afghanistan
xes
taunt
°@@
theater
genre
tti@@
craftsman
Wright
attributed
ceiling
deported
volcano
maidservant
presidential
checked
Allies
loom
Tommy
1899
Final
navy
Bag@@
quake
Azrikam
hedge
scra@@
Career
Flemish
misfortune
'On
creator
ared
sta
Fle@@
Nay
drunkenness
isolated
observing
1892
sch
ints
physicians
wastes
Theodore
assault
reli@@
1927
rooted
Ahiezer
Fish
jest
veth
clasps
flowering
lesser
Chapel
Northwest
virginity
sleeps
Article
Provence-Alpes-Côte
commissioned
Prix
domain
Celtic
Ahio
Ak@@
Sepharvaim
hiss
stamped
ownership
Kurt
pinned
Bernard
Fair@@
sively
employees
psalms
tremendous
1/@@
wat@@
1,0@@
answereth
Enough
Gordon
Kat@@
campus
failing
allied
surrounds
Fools
besiege
spelled
defenses
Deep
completion
hu
black@@
edict
stro@@
scientist
drained
tended
Jimmy
demo@@
ling@@
scre@@
dist@@
Seattle
measurement
Lincoln
kingship
Testament
Health
Anakim
thirty-seven
sustain
Cyrene
Shammai
empty-handed
Eliasaph
Ith@@
acknowledged
rubbed
Jachin
counter@@
behave
Franz
cour@@
examines
Malluch
discretion
duke
impressed
190@@
grove
foe
ower
sufficiently
Righteousness
purity
brazen
rus
prophetic
Nicodemus
hypocrisy
logic
trembles
register
zy
sit@@
libations
cigarette
lewdness
yn
Mac
Cer@@
provincial
aling
phe@@
Borough
dash
uttermost
Josue
neuro@@
ric
intervals
heal@@
bred
output
enthusiasm
Sudan
Destruction
Vil@@
CO@@
amid
Crucify
delivery
thed
rati@@
1878
et-@@
dness
wag@@
′i@@
á
treats
slightest
treachery
associates
sincerity
chers
yn@@
consistent
classification
varieties
formula
equity
convicted
Rev@@
psycho@@
rates
bondmen
Lay
than@@
Apollo
cricket
McMahon
Bas@@
over-@@
worldly
200,000
hordes
emotion
corrected
dearly
Tele@@
pointless
marketplace
Joyce
nicknamed
borrowed
crisis
vital
jazz
mathematician
Ass@@
dg@@
facedown
wont
ev
crack
goaltender
varying
plunged
vo
ow-@@
Clinton
ed-@@
ranch
Otto
ç@@
Jor@@
scholar
Las
16-17
Timna
rides
sharpened
coo@@
Tarsus
Wind
dr@@
Blake
meek
approaches
Crown
representation
mber
Whoso
Pur@@
twenty-third
Liège
van@@
kick
sme@@
dru@@
smen
Ny@@
privilege
l'@@
Often
defending
dominated
Fine
Pokémon
'Then
marveled
gia
spacecraft
Phar@@
ole
tumor
Lewis
ceremonial
consu@@
themes
person@@
ports
Parlow
lication
Almost
Except
Commander
sid@@
Ishmaelites
ffi@@
Beth-horon
Machpelah
remaineth
reptiles
dwarf
covereth
peaks
cheap
Dam@@
Nicholas
Oz
Pin@@
fairness
break@@
1879
believeth
Gla@@
electro@@
bounded
multi-@@
nailed
uncertain
mixing
Herbert
Alfred
Pil@@
excluded
crosses
fun@@
theatrical
bruised
tale
comedian
ré@@
proceeds
Bern@@
rang
scared
raped
present-day
Sci@@
onist
processor
Migdol
eno@@
EN
ed—@@
Shunammite
Ling
apron
lead@@
chorus
Presently
Ono
nuts
Orange
covetousness
Large
Rhine-Westphalia
aria
row@@
businesses
snow-@@
rumor
tenths
snatched
subspecies
Jediael
flat@@
Ale@@
unwilling
LUCY
divorces
richly
reth
moderate
improve
bli@@
lim@@
aspects
18-19
1894
container
Judaea
parks
,000|
travelers
Oli@@
tto
Bahurim
leaping
northeastern
Hindenburg
Mercury
ple
relieved
statistics
magnitude
cluster
age-during
curved
Son@@
emotional
Chu@@
repeatedly
portrayed
allowance
eling
scatters
Abi@@
Str@@
spice
restaurant
year@@
Zu@@
monastery
ambassadors
Gregorian
vary
yielding
Joy
logist
costs
puzzled
d'Azur
awakened
gravel
Rou@@
sware
beards
organism
ld-@@
emerald
Doeg
Blo@@
Oliver
ua
therewith
fron@@
wn
Television
zo
obliged
criticized
releases
ali
declined
Salem
earthen
intimate
Gittite
fighter
relieve
gale
nan
efficiency
Lor@@
onists
Hoglah
Pradesh
Javogues
and/or
challenged
annually
Uranus
doubled
naval
etc.
tre
Chu
twenty-nine
focused
Annals
overcame
Parosh
arily
hymns
youths
Holland
Ges@@
morsel
circular
SP@@
chus
worrying
agricultural
raiding
mirth
Coun@@
bio@@
journeys
pper
democratic
Ephrath
oring
ste
makest
Bebai
railroad
Ring
holocaust
hearth
eye@@
Czech
revi@@
'Is
Santiago
bling
references
restless
phenomenon
Nelson
tricks
farewell
highlands
prophecies
Thebes
selves
breed
countless
gaining
gran@@
lding
transportation
venture
witchcraft
ld
straps
demonstrate
chairs
slayer
lung
kah
Alphaeus
minority
aches
bing
mid
asunder
swing
Natural
Kiriathaim
spending
delivering
behaved
cup@@
valour
Gibbethon
foreskin
offence
cemetery
inspection
11th
Sid@@
Junior
Mau@@
Camp
Elimelech
Cour@@
longs
locations
pangs
bundles
drunkards
£@@
stormy
Jac@@
scri@@
brow@@
catching
spaces
fifties
excessive
intestines
Gab@@
Tran@@
it—@@
tters
‘@@
Acc@@
Bildad
blotted
ul
E′phraim
overseas
Orleans
obligation
stew
whoredom
trough
aging
poli@@
ely
outcome
Q
Green@@
Memorial
lucky
cate
phs
Etam
hymn
missions
Baalah
repe@@
Wo@@
long@@
ski
sely
alization
mbling
Haiti
Jacob@@
entertainment
achieve
jumping
sci@@
Cause
barracks
melting
Kan@@
sash
stairway
fetters
hn
sig@@
Sophie
1887
joyous
hydrogen
mother@@
lodging
Hazar
ard@@
ge-@@
technical
creates
une
wrong@@
molding
risked
partakers
Rhine
Gr@@
26@@
Wood
wouldest
night@@
sman
simplicity
censers
mistreated
abruptly
convert
nic@@
Communist
recall
prolong
over-against
1926
crest
departing
assassinated
Vice
seldom
fifty-two
bites
apo@@
ing—
Jam@@
360
lic@@
moan
god@@
breeding
ound@@
Sound
banned
{
hawk
'Please
1896
paintings
overseer
economics
ware
divi@@
propaganda
Rephaiah
Archi@@
Judeans
Barnea
Chebar
ill@@
hardship
Jeekes
Rico
comforts
ridden
`Thou
vit@@
MTV
Michaels
Ralph
aunt
Nico@@
outcry
extremity
Amasai
resumed
AR
Video
encouraging
lighting
_Ibid._
beli@@
advisors
opinions
Pelethites
Jeconiah
Raise
thes
Bigvai
thri@@
honeycomb
utmost
ically
sul@@
transgressors
crow
rey
Ji@@
Oriental
Girgashites
onite
wretched
chairman
fried
Kenite
wh@@
Nahath
Whence
Cave
Simpson
Wilhelm
Aven
abdominal
solve
Senator
Law@@
investigate
ples
~@@
kneel
eneth
Present
Kenan
Development
pers
ago@@
Shinar
Spi@@
justly
techniques
naming
bodyguard
Total
Sav@@
ried
survivor
humiliation
runners
Thanks
blanket
crept
world@@
recorder
128
affect
gesture
barrier
bbing
wrecked
pt
sensation
participate
mills
Shimron
Al-@@
reads
swinging
kie
burdened
sixteenth
entreat
Ori@@
cinnamon
Shimea
Ishbosheth
picks
counsels
_Industrial
mono@@
Leviathan
drunkard
Test
dai
convict
Sunderland
reminded
respects
bats
phic
Glasgow
sible
south-east
tobacco
protein
Ven@@
backed
heroic
divides
handkerchief
Literature
uphold
indignant
harmed
bler
delightful
Actor
Maha@@
Snow
come@@
trespasses
cruelty
partially
í
Dan@@
lized
crawl
Purim
eco@@
Netophathite
south-@@
decade
ravens
nerves
laden
Cena
5:@@
publish
ny@@
pra@@
Tuscany
Words
ladies
sailor
1931
rude
mobile
verdict
connects
Iranian
EP
patches
F.C
Plate
lessons
Pick
operate
flavor
Eddie
y—
Religion
thicket
surfaces
para@@
dragons
Jezreelite
disguise
accounted
debts
Deli@@
school@@
raven
signing
comest
bending
legend
termed
achi@@
accusing
outbreak
ination
networks
white-@@
Aiah
supp@@
sandal
reasoned
Gau@@
Allan
legislation
missionaries
beryl
Craig
Arad
Thummim
worketh
log@@
12-@@
194@@
Admiral
respective
insulting
separates
indicates
graphy
Orton
Bau@@
will@@
'Amen
AS
enjoying
Cook
tos
Heart
anda
generously
fords
Rekem
Malkijah
altered
bet@@
Eshcol
mightily
intellectual
conservative
Ez@@
Bad@@
Magog
bloom
tension
rs
homeless
ams
Tychicus
assign
1890
Sri
brooks
demanding
plumb
acquaintance
abhorred
fracture
reins
Too
eruption
turtledoves
Inside
thite
9,@@
locality
Hosah
destination
transgress
Pho@@
glow
organisation
funds
convenient
reg@@
profession
Bury
arti@@
submitted
Bukki
jailer
tit@@
mistreat
flattering
Abib
employment
Beau@@
Hell
educational
Pub@@
shatter
spar@@
temp@@
innumerable
myrtle
Language
fading
oped
rotation
ffs
scorching
topaz
pled
item
life-@@
Ladan
know@@
irregular
disk
occurring
anic
handling
striving
Jimmie
tract
vehicles
fainted
'Cursed
gir@@
Ala@@
fond
adoption
dispossessed
promotion
substances
ordering
wer
remnants
boils
fare
physi@@
sighing
mood
thers
Cat@@
yers
dating
decades
Zacharias
Shammua
incurable
drum
Naamah
visits
arches
bes
taller
less@@
bragging
Argentine
exp@@
70@@
convince
mmer
Eventually
Av@@
dos
AB@@
ache
procedure
exhortation
psychology
ati
liest
revolted
kn@@
cage
Going
honoured
historians
forks
defied
Eder
testifies
doubtless
Lie
mild
radiant
gear
Jerry
Gozan
Hazeroth
flashing
Imp@@
cultures
sus
bombs
vitamine
frequency
450
lla@@
dusk
Dost
lawless
Lea
Iz@@
twist
Already
generated
Powers
zu@@
lowland
starving
Dakota
melts
Welsh
describing
sca@@
1930s
hadst
101
V.
customary
excellency
Sultan
heart@@
ony@@
900
conventional
Claudius
explains
9:@@
mn@@
Lost
cites
sheaf
stake
nai
itor
voiced
biological
single-@@
bridges
Poly@@
S.@@
canopy
considerably
Princes
midwives
Ur
conce@@
diminished
regulation
part@@
Trans@@
confront
elevated
PlayStation
wormwood
bottles
Draft
rowed
Beatrice
granddaughter
stabbed
origins
hasty
stalls
Haggith
divin@@
Protect
crashed
Buffy
ols
inclination
futile
sweetness
itz
Cherethites
HE@@
vultures
Pra@@
Hartley
Bezer
urgent
Hail
overhead
median
famines
parish
Tak@@
municipal
oversight
fists
lice
unimportant
Azarel
powerless
toss
maps
candle
dialect
scattering
regime
Gemariah
arriving
Ataroth
ep
Wagner
ISO
rugby
entreated
people—@@
Mit@@
Bac@@
epidemic
Ran@@
mates
curve
runner
tendency
package
W.@@
theories
wi
Gentile
knocking
miners
mistaken
consumes
form@@
disa@@
Dre@@
coupled
tabernacles
vehicle
conver@@
ria
reddish
Assemble
Las@@
Lord—@@
C.@@
Vancouver
survival
industri@@
mbled
Maj@@
urging
condu@@
impatient
republic
thereafter
vigorous
Ever
sheer
inducted
21-22
Hophni
Aristarchus
Military
nerve
editors
acres
Schi@@
Carry
tac@@
Pee-wee
Nation@@
plotting
Tema
topic
sten
refugees
brimstone
reviews
pot@@
USB
Nar@@
Admah
Lord—
mutual
Abishua
1,500
silenced
opposing
digging
Nuremberg
Story
vent
folding
oured
hah
Conservative
deserved
prophetess
Shortly
dity
Achbor
bushels
Sibmah
alms
princess
sten@@
Nag@@
ckers
Mouse
IR@@
stle
stly
.Selah
expanse
dangers
Ful@@
Southeast
1871
lizard
tend@@
crow@@
sect
Somerset
Geber
commend
Zerahiah
…
first-@@
shedding
soaked
recordings
hurts
Historical
Strong
shells
Hattush
ray
sorcerers
OM@@
stove
unite
routes
vague
Foreigners
Jon@@
lawlessness
pause
angrily
Norfolk
stubbornness
pursues
Japhia
Rac@@
quarrels
earthquakes
heating
elaborate
destiny
compete
vated
Thuringia
imitate
Air@@
fan@@
Ophel
interpreter
Joiarib
Band
Violet
acceptance
d.
global
prices
slipping
ick
ty-@@
~
Houston
Plu@@
Eshtemoa
Amb@@
Medieval
Notwithstanding
hoo@@
blaspheme
neth
graphic
programming
mun@@
Bour@@
Moza
Hugo
`Go
snow@@
Looking
continuously
Aar@@
nie
Carlos
Mic@@
abyss
heave-offering
whistle
complicated
ern
Leonardo
demonstrated
Usually
Potiphar
relates
ature
tarried
Abishag
ss-@@
21@@
caps
mold
quart
sporting
unexpected
extracted
explaining
tide
perplexed
sberg
revelations
Rama@@
Mahlah
Dishan
Massah
Edge
physically
Argob
unt
rying
ravines
dine
draft
differ
Wall@@
elites
ec@@
Building
Ishi
subdivided
deputy
Pamphylia
roars
drafted
survey
hissing
truthful
Flight
invitation
threaten
obviously
evil-doers
concentrated
Stre@@
pleading
Sanhedrin
biting
Wise
Haz@@
vegetable
Girl
arim
supporters
DeLeon
mandrakes
ides
hillside
tolerate
Hanoch
eing
*ye*
promptly
Ball@@
accepting
relating
exercised
calculated
Kevin
operates
Helon
muzzle
patterns
Ahilud
Mand@@
Prote@@
Apple
Fra@@
Paulo
troubling
inspiration
Tob@@
arrogantly
chess
growl
bolt
floating
Nazarene
dragging
reapers
dged
Kri@@
populations
endeav@@
parti@@
ransomed
Web
′e@@
inquiry
Pau@@
Grant
varies
impressive
meditation
owes
renown
'the
beheaded
you@@
specimen
gt
ho
Helez
Pallu
Connecticut
deprived
Presence
baggage
Ear@@
bodily
Medeba
Friedrich
'Aurora
Ephrathah
drugs
gio
—oracle
halfway
indu@@
Restore
relationships
Talmon
trac@@
turmoil
curiosity
DC
tenants
kind@@
quotes
bearers
rubber
Chet
Base
Micro@@
Jebus
Naioth
Here@@
Ernest
baal
cid@@
restraint
1888
incredible
bomb
Location
Jeremias
bee
onites
Atlanta
-de-@@
gon@@
16-@@
Countess
habitations
dross
the-@@
deg.@@
regi@@
righteously
shower
poems
diary
scar
Pelatiah
altitude
aimed
Springs
Economy
warp
Four@@
mouse
wishing
decrease
riots
—as
contra@@
seizes
bitten
sai
otic
14-@@
darker
communications
halted
groans
sne@@
Zanoah
Heinrich
ay@@
Stallone
organist
Fro@@
accusations
filmed
mourners
igh
PC
spontaneous
overnight
onally
21st
Wicked
satisfactory
fatness
lump
stench
Johnny
diminish
Site
list@@
ima@@
Alan
Friends
layeth
unfaithfulness
ine-@@
resigned
bondman
sse@@
Information
ttered
variations
poorest
Sau@@
ement
ass@@
Cop@@
betrothed
inted
hardness
shorts
Hav@@
Wit@@
ort@@
grateful
1897
chant
Solothurn
shift
Avenue
lightnings
husbandmen
min
hospitality
Bichri
sers
Dam
statements
twenty-seventh
On@@
Political
lou@@
Jud@@
Greve
Unions
Ater
five-@@
chor@@
flask
LE
overturned
udes
cavity
client
premiered
ques
stout
Jean-@@
promising
IP@@
Hodiah
ravine
Baker
Rephidim
prof@@
ela
swarming
Eagle
tastes
Wolf
Fathers
volcanic
Community
m.
comprises
8:@@
Lehi
enslaved
Hesse
picking
arises
App@@
paradise
Medicine
C-@@
societies
BCE
sni@@
rain@@
Giovanni
Rap@@
Under@@
Left
Abidan
rumors
Technology
crossbars
boxing
Marah
seller
chances
spider
fts
Celebrate
THEODORE
distinctly
struggling
rupture
journalist
Ahira
Ray
Hence
grapevine
Lang@@
len@@
stooped
totaled
reasonable
}
intently
pret@@
SmackDown
t—@@
regul@@
inv@@
Thailand
pollute
Beth-el
traveler
preceded
Proclaim
Cir@@
Hasshub
gallows
Delta
23-24
sson
1850
Reg@@
rel
Assir
hats
trench
tel@@
geographical
instru@@
boasts
fierceness
lent
gru@@
ie@@
by-@@
acti@@
ostriches
180
drifted
XIV
disperse
sau@@
Elealeh
syn@@
wel@@
instinct
Nimshi
Nimrod
discharged
fulfil
tag
Jozadak
stadt
cloths
cracked
Horites
Fun@@
foremen
sequence
mati@@
attendance
igh@@
Members
Os@@
23@@
Arti@@
kisses
vestments
persecutions
Wu
resembling
kest
rouse
pupils
massacre
dimensions
Evans
Jocelyn
binds
vers@@
1870
arid
Hindu
insurance
5–@@
batt@@
random
cide
Examples
helpful
tory
collecting
Observe
encounter
grapevines
Dog
Alpha
fastest
rel@@
smith
Kel@@
tactics
snu@@
Benjaminite
cau@@
traced
peacefully
angered
dé@@
skills
fulfillment
filthiness
modified
barefoot
Change
ured
anniversary
hand-@@
throng
s—all
swollen
defy
enlarge
Nine
llu@@
L'@@
glasses
edited
puffed
disgusted
Swe@@
Stuart
Clara
Ferr@@
ros
relied
1885
Benoit
collections
bade
molecules
preachers
spelling
achievements
Bulgaria
shelters
Hapgood
blankets
aph
'Make
nut
ultimately
ke-@@
show@@
sinking
Jo′ab
hasten
Thursday
Friend
Patsy
glittering
R.@@
Hashum
mai
enmity
av
graduate
'Listen
parliamentary
Using
accomplishments
Cherub
context
entice
usury
Die
congenital
cating
ET@@
backing
gues
500,000
Roll
Pier@@
inj@@
buyer
spectacle
Amsterdam
diamond
depended
Shittim
one-fifth
Hammedatha
scal@@
lighten
agreements
administrator
Serenity
Card
presses
ight
Ararat
ascending
metal@@
Shelumiel
dou@@
surety
1880
Cle@@
proven
Rainbow
significantly
dul@@
quote
Manasses
accurately
second-@@
mali@@
findeth
dan@@
computing
Enter
Br@@
genera
rating
testifying
dancer
Donald
quarreling
doers
Faithful
thirty-six
Hannibal
garbage
balls
buck
annu@@
cians
170@@
efficient
lier
Ana@@
supervisors
cabinet
reflect
distinctive
1865
vintage
tening
bene@@
Brun@@
nickname
GNU
gent
historically
owers
AP@@
Finnish
Release
22-23
Ruler
rifle
settling
fugitive
Kno@@
axis
dig@@
javelin
CH
balances
enne
Py@@
ar-@@
showeth
Ukraine
Hosanna
dissipated
ential
speechless
ingham
blood-@@
currency
occurrence
worries
Table
19-20
voting
Pagiel
mony
Cana
thundered
belongings
expired
Nat@@
Canal
semi@@
cle
Madison
wash@@
grand@@
Curse
peril
uprightly
hateth
Rub@@
Google
pertaining
cited
infantile
north-@@
el-@@
Ronsdale
radical
probable
trousers
wre@@
Chaldea
wafers
cism
Venice
father@@
Stevens
organize
Pool
eliminate
Rancho
XI
fenced
spin
hindered
uded
ading
displays
Gods
resemble
insane
Elizur
muttered
S/@@
Zam@@
10.@@
hurricanes
lamented
Everybody
Hau@@
20-@@
cheated
stems
stork
prudence
Fur@@
Liverpool
Lud
Elizabethan
pr@@
Ozma
sanctification
Defense
chlor@@
holder
scheduled
Sacrifice
fossil
Movement
'a
jury
Mortal
Harris
_Distribution
spiritually
whispering
Grey
happily
ille
persecuting
1891
component
defiles
Oholah
Var@@
Culture
sower
groom
doer
editions
Hab@@
mediator
undergo
uss
FA
whereon
dad
dreaming
kicked
woof
ough
commended
agency
estimate
Charlie
adaptation
Interlude
devastation
fraud
Baron
favors
bon
140
pockets
ium
stag@@
Cent@@
Gaelic
Amalekite
Sig@@
doorkeepers
125
agrees
daughters-in-law
stone@@
overwhelm
Tamaulipas._
33@@
cotton
attach
summary
token
bach
Lucy
comprehend
Julian
oz
uproot
Sing@@
memories
Netophah
lineage
attraction
Roman@@
destroyers
Red@@
rend
hard-@@
routed
proving
reconcile
human@@
was@@
flees
specul@@
Hare
Shunem
landscape
rabbit
richer
Elias
Real
cisterns
Han
Tit@@
meantime
ogra@@
coverings
Trouble
Namur
ket
Clark
physicist
suspect
Salute
traitor
rubies
ensure
tag@@
perishing
Bes@@
atri@@
obscure
venom
Inc.
Pol@@
Beginning
watchtower
us—@@
specified
Nethinim
side-@@
infected
Business
generals
merging
ical
Ten@@
escaping
scab
dimensional
p.@@
metallic
Vince
battle-@@
directing
Allied
Knight
-to-@@
verses
participated
grim
alis
leg@@
Golan
189@@
sun-@@
reared
illustrated
hol@@
Hughes
elle
tending
manners
ffe@@
ida
Probably
Guil@@
genius
Sw@@
1867
1866
reproached
firmament
Chaldean
shirts
double-@@
disappears
sper@@
confidently
affirm
alleged
7:@@
Manhattan
legislative
multip@@
heading
honesty
Ned
construct
Zuar
Gad@@
ented
How@@
Making
performs
Sheshan
Gideoni
Hundred
herdsmen
lon
retirement
me-@@
Shedeur
Consu@@
vor@@
Representatives
Wol@@
roused
expenses
Zurishaddai
disc
WCW
organised
tam@@
Hemisphere
oper@@
ank@@
migration
volumes
Jeff
Derbe
sighted
Bak@@
diver@@
shor@@
bac@@
obeisance
shipping
abbreviated
Shim@@
flooded
OR
Michelle
no-@@
moisture
motor@@
situations
sponge
chu@@
horrified
Dictionary
Rehabiah
abideth
Ib@@
allo@@
generosity
Galilean
unholy
overwhelming
122
outcasts
Rameses
Auto@@
Kha@@
self@@
comment
Hunter
Hodaviah
populous
sparrows
upwards
infinite
aming
Rumble
sage
tablet
scar@@
Mozart
Manas′seh
hyper@@
virtually
tough
whipped
i′ah
cats
Jefferson
Que@@
sheep@@
tow@@
operator
Brooklyn
Achor
Pedahzur
furrows
ninety-nine
hind
Zohar
Warren
meadow
lane
tame
nard
urs
Waters
Abijam
Vis@@
Rabb@@
Cloud
34@@
scored
transmission
Stri@@
teri@@
stop@@
Les
ancestry
gross
Sussex
communicate
junction
vian
2.5
Til@@
defensive
Ky@@
ris@@
allegiance
rhythm
trance
Oc@@
mili@@
tti
imperial
protocol
grasped
reverse
gap
Luxembourg
mounds
ald
weaknesses
colle@@
life-giving
chen@@
Isshiah
ah—@@
eries
derives
balm
Bezek
conceited
160
dict@@
ranking
Temanite
armor-bearer
Ther@@
Midlands
stics
sea@@
Rob@@
hitherto
nomination
civilian
snuffers
Bah@@
18-@@
budget
Anglo-@@
cone
horseback
Eric
Tag
adulterous
mac@@
King@@
charm
Von
photographs
Receive
trimmed
ler@@
shuts
detailed
hitting
1846
scouts
pins
orbital
vag@@
1881
repairing
adore
brightly
stic@@
750
Jammu
shri@@
sycamore
fiercely
aud@@
Chin
Schools
defiling
portrait
Acts
lungs
unfortunate
camera
looted
demon@@
gin@@
byword
bir@@
eds
mountain@@
amed
Spor@@
war-@@
marvel
thir@@
Temp@@
mics
dest
organi@@
crashing
Chapter
cir@@
visitation
ts@@
`Let
refresh
kar@@
Alps
persisted
Oscar
XVI
witz
Long@@
Phi@@
wholeheartedly
bulk
exceptions
Dodo
harness
threads
Cler@@
1800
6:@@
dazzling
Championships
hallow
whoredoms
Hotel
noonday
Oz@@
Pekahiah
deceased
Period
tured
footed
SE@@
Buffalo
midday
70,000
Ric@@
defi@@
Seba
catches
Daily
sicknesses
entrances
Liberal
Metal
hopeless
Archbishop
raided
belts
geth
Announce
Paradise
poses
unaware
dge@@
constituency
chur@@
sixty-two
Restoration
i.e
quar@@
Repent
1–@@
strangled
orchard
Nic@@
ensis
Room
J.@@
Oregon
Fletcher
poets
Thornton
singer-songwriter
chap
prohibition
thu@@
Sheep
MP
Mme
Hur@@
anites
planes
Lydia
sluggard
Harvard
showbread
dale
1882
mechanism
Cooper
Leo
guiltless
fortifications
chop
curiously
Douglas
pitchers
confessing
spells
junior
emer@@
laborer
ica
Gregory
graciously
ind
bombing
Annas
now@@
poisoned
damp
mathematical
aloes
Pap@@
Buddhist
extensively
Affairs
rant
purifying
Churches
tern
Zone
short@@
singular
Ryan
ing_
dog@@
key@@
establishes
spied
Dr
TL@@
countrymen
bloo@@
Prussian
commandeth
kneeling
blazed
Cynthia
Ammishaddai
meaningless
`If
Yellow
child@@
boy@@
piety
comely
Norman
scope
Tu
nothin
aspi@@
grandsons
cum
sparks
'So
strove
Zophar
cheating
knit
adventures
people@@
Jabesh-gilead
forge@@
portico
Crow@@
cancel
bbed
remark
D'@@
orchards
Co.
gems
reckoning
hausen
Quick
cah
ornament
reinforced
gold-@@
legally
Doom
ckled
bottomless
bills
handing
prominence
myths
emission
Chang
bes@@
haven
drip
Twenty-@@
Mali
Les@@
AA
clung
gnashing
Leipzig
Jab@@
math
discussions
Hakkoz
appe@@
pledged
evil@@
Voice
full-@@
warmed
pastor
habitat
storehouse
shy
celebrations
wrists
identify
margin
Hus@@
protecting
Scar@@
Armenians
Jehudi
thered
Fil@@
commotion
outsider
reckless
soever
Peru
on—@@
Rhe@@
Slam
mis
Nebaioth
Ves@@
ankle
handles
tter@@
pti@@
Lane
Quar@@
Lab@@
deceiving
mourns
24-25
|-
s._
Page
deserving
leav@@
childbirth
pouch
monarch
Transport
Eleanor
provocation
NASA
he-goat
thah
snatch
recommended
resides
Katrina
gnats
Yu
dresses
band@@
_He
night-@@
agents
await
ci
Rangers
XIII
videos
Bid@@
scout
itors
latitude
pupil
Sus@@
Talk
extinguished
tends
ush
readiness
phrases
SPD
foremost
Watson
enders
Plain
Aberdeen
cab
Jattir
alk@@
1-4
b-@@
Aqu@@
becometh
skillfully
beholding
1848
137
'Father
Saudi
weariness
Queensland
broad@@
hur@@
Uriel
zar
abstain
cello
signature
Mysterio
Ani@@
surrendered
ener
clearing
comforting
uli@@
spoons
bron@@
1860
grouped
Jaazaniah
Promise
rice
God—
mountainous
cipher
connect
Corps
sojourners
criticize
cac@@
TH
Bengal
OW@@
gee
numbering
tourists
bassist
alcohol
Eleasah
Zattu
amp@@
drifting
Jehonadab
offend
A-@@
fs
Mesha
recognised
inus
Isle
Chile
patri@@
relent
infectious
spun
atoms
motioned
pearl
readers
Bus@@
Up@@
envious
Lords
Miners
Milcom
crowed
strayed
Mart@@
Rel@@
Studies
sie
vas
licked
gorge
sincerely
Specimens
Castile
declareth
currents
Oholiab
grating
initi@@
Em
parting
exclusive
Boo@@
ures
cleaned
disp@@
nam@@
harvests
gases
eat@@
separating
psychological
beats
fear@@
Vir@@
outs
Brethren
fat@@
Coming
mislead
stripe
Orion
cash
ier
shades
1886
secre@@
ex-@@
vanities
dst
ath-@@
Horn
remission
pel@@
ef
Horonaim
ested
gu
Norse
Adelie
ix
holders
best@@
cantons
shots
Hegai
seers
ography
progressive
plat@@
canceled
armour
loop
Azubah
Yah
Bundes@@
shelf
ell@@
NS@@
sadd@@
hauled
haul
Wood@@
tus@@
litz
Wealth
Nevada
Whit@@
220
aba
weave
lor@@
lio
lepers
High@@
review
components
Chase
malicious
goldsmith
Nanny
Niger
ader
Ulam
reviled
waving
grope
press@@
e—
15-@@
Indi@@
conviction
vicious
Americas
thorough
animation
engraving
sentiment
book@@
housing
con
heals
Abi′@@
astronomer
evenings
shan
Epher
fieth
'and
harmon@@
differs
Post
alter
abiding
obstinate
dripping
Mikloth
disturb
Weston
Susanna
marrow
innermost
coral
canals
Tishbite
ashi@@
motionless
vely
proposal
Jehozabad
Ho
revenue
slippery
Violence
XII
births
Raamah
contended
Kau@@
ety
opportunities
chastise
improvement
ares
coarse
ide
Him@@
undoubtedly
mos
Jun@@
Guni
after@@
cos
Offerings
vulture
nobleman
tornado
dreaded
viper
rip
Arpachshad
meal-offering
petals
Tokyo
sley
Comm@@
gallery
ttle
c-@@
Jerusalem@@
deprive
tari@@
abounding
sciences
Democrats
chapters
Mixed
Rizpah
Malta
gas@@
substantial
la-@@
127
cement
cruelly
melech
Pentecost
ji
accountable
Earth@@
Rebecca
ob
labor@@
yne
astrologers
ich@@
Meshelemiah
pods
Hezeki′ah
harvesting
contribute
Morning
1,2@@
laver
Boris
camping
files
spoon
camest
buys
Nepheg
simultaneously
Cali@@
whithersoever
quantum
var@@
differently
clerk
hardships
blaze
GE
mockery
IP
particle
disturbance
Steven
gleam
barrel
Roosevelt
blackness
exposure
1857
LO@@
first-fruits
ün@@
loathe
genealogical
Key
guardians
N.@@
urethra
mpi@@
Rh@@
anchors
bruise
Nazis
apt
tournament
Onam
lusted
aks
ases
llen
stability
outstanding
testicles
abilities
exclusively
profound
Hadoram
su
sledges
beggar
gathereth
Century
Hagrites
Sheppard
7–@@
08
stiff-necked
thickets
`Thus
Officer
atha
Picture
Todd
insignificant
Dur@@
Alex
Vic@@
quest
enjoyment
Wii
arc
Kil@@
dging
new@@
surprising
Sure
brac@@
USD
queer
River@@
Agagite
disposed
stalk
1862
Kiss
vigor
Ipswich
abused
Piper
essentially
Shual
Falls
interval
locomotives
sample
contented
neighbouring
Whole-Burnt-Offering
continents
40,000
shrewd
It@@
astounded
Neville
solved
Money
vali@@
25,000
Ephraimites
blamed
some@@
justi@@
Ann@@
coastline
ased
filigree
treads
sty@@
outline
Gershonite
winners
planks
captors
estimates
Nicolas
moti@@
Maryland
inwards
Plat@@
Mishma
purse
breaches
,000
sweeping
rectum
Reaiah
delicious
shewed
wills
mistakes
phenomena
tissues
Antwerp
tales
Ice
Youth
awaits
patron
gold@@
eligible
drying
Hans
slender
unpleasant
Shamir
Shuthelah
loans
4–@@
Eight
lion@@
ison
strategy
Dou@@
grants
Towns
removes
admiration
sex@@
imported
To-day
achievement
120,000
M.@@
plo@@
Nigel
cherubims
Jabez
nurses
lately
Lind@@
Shobab
pillow
vexation
Pop@@
ury
lowlands
Buddhism
elderly
ultimate
lun@@
upside
Stockholm
Moore
6–@@
supervision
them—
operas
edit
Serah
prospect
Attai
ao
loathsome
thunder@@
subtle
plated
Israel—@@
honoring
Ya@@
capit@@
Galaad
ester
whoring
zones
Etham
Colle@@
surgeon
leafy
ich
bullet
Bern
Treat
villain
Code
7,500
controversial
Retrieved
headlong
Sicily
bomb@@
Anglo-Saxon
Online
steals
befall
pie@@
Rhône-Alpes
ben
ell
1841
nur@@
Sheshbazzar
Sop@@
gentlemen
button
Jokshan
gripped
dial
bin
Rocky
hou@@
drown
treasured
idi@@
Samlah
scream
inc@@
indigenous
Shan
-of-@@
stically
Hathach
187@@
Sindh
Consequently
Circle
Korahites
Rain
Fanny
hard@@
vations
badgers
tribune
26-27
treason
Guar@@
Classical
pistol
Hunt
ario
123
administrators
Husham
deser@@
appreciate
drain
pens
Bilhan
ret
medit@@
earning
thor@@
marketplaces
blank
favorably
fall@@
Revolutionary
Strait
ophy@@
wrap
conferred
Either
coffin
Girls
Jar@@
Neil
Mul@@
faults
Emma
dele@@
Kim
connecting
revol@@
NE@@
Sacred
git
gic
ridges
Mahlon
bush@@
wrestled
Bundesliga
Pop
combe
deceives
Ramon
vocal
Gerizim
traces
scare
rated
ambassador
reel
limp
Broadway
rebu@@
containers
Pride
py@@
Conf@@
IA
1861
Aargau
vier
Gardens
rough@@
acetylene
Lithuania
wonderfully
embedded
Kohathite
compact
handfuls
pol@@
Cab@@
increasingly
dir@@
U.
sights
delegation
UT@@
beck
grumbled
swifter
Liber@@
sanctuaries
blue-@@
evil-doing
Kre@@
concrete
scrotum
Pakistani
Vesta
vomiting
truths
colleagues
quietness
Sant@@
Mephaath
Tat@@
duration
Hard
hesitate
reforms
pilgrimage
doctrines
oils
treading
mated
mineral
Rule
't
honourable
anterior
eva
thoughtfully
Ev@@
skeleton
kai
intentions
moths
Lod
Stewart
dep@@
classi@@
sewed
mad@@
Homer
vexed
midfielder
Starr
Rus@@
helmets
’@@
Hank
tha@@
brutal
leu@@
menstrual
Disaster
employer
acquaintances
furnish
Judaism
tribunal
breaketh
zzo
completing
greets
Equ@@
jawbone
ose
Authority
housetops
garrisons
choosing
tongs
asi@@
Xena
sway
bot
South@@
Magic
generator
glimpse
tunics
Palm
imper@@
veness
-up
RC@@
hemisphere
Fau@@
Smash
Free@@
—so
brands
effectively
arch@@
came@@
Costa
wit@@
gram
low@@
thering
sland@@
gleaming
Harrison
sor
depressed
hereafter
freight
jam@@
llow
cross@@
pie
encircled
iz@@
communes
aga@@
yonder
thumbs
Physical
Hamburg
aton@@
steth
Hand
Ezechias
Depression
observer
-in-@@
Beelzebul
sovereignty
Commandments
Kentucky
lordship
Keturah
Gir@@
Xbox
1868
ord
everyday
Construction
Der@@
Arah
tram
chronic
comparatively
ft@@
Zor@@
enburg
Ahiman
trash
consecutive
anna
conflicts
112
-based
preservation
Jeri@@
erous
genetic
damages
Beethoven
enlightened
participation
lea@@
1856
cocoa
awhile
Bobby
streaked
Forces
Abel-@@
Mass
Shimri
separately
170
fossils
clad
agu@@
Thyatira
Syn@@
Vul@@
aver@@
opo@@
3–@@
legacy
ED@@
Ephemerides
Elder
Hawaiian
Working
Sele@@
Arms
unt@@
Oboth
Steel
policies
volcanoes
Gustav
oration
Prior
factories
hips
manufacture
sowing
weld
suffer@@
striker
Rab@@
Zacchaeus
mim
violate
Stars
Electric
aces
death@@
Tob
hangs
Indu@@
patrol
Associ@@
Underground
eagerness
Says
disgraceful
ods
static
goings
lan
Essex
stunned
carvings
chemist
eves
Merarites
Bil@@
fathoms
firewood
The_
loving-favor
Ephod
'Bring
ero
Moladah
—one
Luther
Shimshai
Socoh
'From
rivalry
blood@@
Elhanan
wide-@@
Ashan
knocks
ami@@
`This
managers
struggles
Ou@@
missionary
itude
sympathetic
inti@@
Samar′ia
fig@@
orderly
Malaysia
Henadad
Ali@@
Zeboiim
Campbell
Kedemoth
overpowered
Scha@@
Appoint
absurd
3-5
Anglican
recalled
Hup@@
Village
old@@
102
gushed
rot@@
exac@@
asts
stubbornly
wadi
Haw@@
Record
Full
someday
surroundings
bereaved
Agency
ant-@@
partnership
ile
ila
unusually
strained
involvement
Undertaker
coalition
_Proceedings
announcing
uplifted
ote
offenses
166
cupbearer
nobility
ewe
turing
vocalist
inflict
closes
Population
mayst
south-west
irs
sauce
tape
guile
regardless
Jan
discernment
surpassed
Psalms
faith@@
Shemiramoth
Big@@
ales
inte@@
Economic
carcase
unted
stately
happier
Est@@
foreskins
gauge
Strength
Louison
liable
Close
Staff
ballot
tehsil
Undated
accordingly
children@@
precept
'Whoever
saw@@
detest
cracks
Geshurites
sitcom
subdivision
robbing
astronomers
Tun@@
lumber
hunters
gur@@
Tah@@
°F
yields
storing
fits
counter
hypocrite
chet
Amazon
crafty
blush
ached
tland
Justus
Eliada
Melech
burneth
hop
explorer
Background
roast
Discovery
Achsah
Brandenburg
Cities
Puah
prisons
Description
sharpen
sat@@
Accept
sermon
four@@
pope
utterance
wine-@@
immortality
perfumed
gloomy
modest
Chad
raiders
Hand@@
Sharezer
1877
heave
estimation
Us
meekness
Paddan-aram
s/@@
mocks
4-6
restaurants
Incline
Luis
attract
,000@@
Jashub
charter
grasslands
laboratory
—God
requ@@
arians
Shuhite
Ras@@
Maine
Newton
Kate
replacement
manure
Elizaphan
bucket
shifted
download
Pes@@
*he*
brute
pigeon
Robinson
beef
kindreds
oy@@
dus
Peninnah
Canton
theatres
elect@@
ctivity
forgets
Eli′@@
comparable
adulteress
entation
whereupon
mie
gie
Dumah
bapti@@
platforms
manifold
Adolf
forgetting
atom
llin
almonds
adju@@
ence@@
ses@@
Sell
Deuel
Joiakim
omer
escort
llen@@
Core
openeth
sher@@
howling
Geshem
sprouted
Mertz
7½
trails
Hume
blasphemies
adviser
Heal
fourscore
def@@
backwards
thicker
Weimar
ever-@@
flushed
advocate
chaos
tedly
fifty-@@
Serbia
worshippers
Bude
Energy
thresh
inci@@
Urijah
civilized
Giddel
reflection
speck
'May
Lim@@
Democracy
emptiness
'Sir
monuments
Fleet
town@@
hereby
Frankfurt
citizenship
blockade
Pit@@
Kadesh-barnea
Reed
brink
Lyn@@
Multi@@
lashes
pose
Citoyen
Gan@@
Fac@@
thr@@
novelist
velocity
aqu@@
Where@@
kim
resembled
22,@@
Marriage
esteem
ghosts
yana
Hampshire
insect
hub
flutes
togra@@
soundtrack
passages
hereditary
Booths
tetrarch
automatically
progra@@
Sela
Fountain
translations
Comedy
ABC
kite
copied
hospitals
Mizpeh
rib
Ast@@
automobile
Addar
abortion
bursting
awaiting
memor@@
pling
ette
equals
Ish-Bosheth
objected
boasted
Shemariah
Mosque
Dream
Mijamin
Mahan
Lib@@
geographic
sided
temporarily
restrictions
rob@@
dd
protective
throats
interference
habits
Newfoundland
Made
alistic
Pic@@
oneself
north-east
angular
brains
D.C.
facility
thornbushes
Baltic
10:@@
ssus
battering
Software
fire-@@
replacing
OP@@
Vit@@
far-@@
unseen
Salma
Hear@@
promoting
ables
connections
libation
ß@@
audiences
deri@@
Zarephath
veins
six@@
beginnings
diesel
melo@@
aph@@
Blind
anian
lis
grafted
nit@@
Nixon
Prin@@
winding
scorned
organizing
'See
reindeer
dges
Mallow
depot
sternly
hair@@
option
stering
slothful
sunny
pencil
yarns
Omar
metric
tubes
gg
Bach
uro
Azgad
NBC
Ok@@
an-American
NO@@
disciplines
Iceland
Mademoiselle
engravings
rier
Rhodes
legislature
undertaken
dell
172
maimed
vet
ap
ular
Coll@@
Hazlitt
1790
examining
ech
Pontius
kes@@
trespassed
vale
UP@@
alize
Turning
UEFA
Abinoam
Ernst
possibilities
emphasis
penguins
Barbara
Mica
thistle
batch
Confederation
Eugene
Naples
Ton@@
conf@@
independently
overtaken
Westy
Truxton
gar
gad
flux
Inst@@
alia
tourism
Chen@@
1844
untie
rog@@
genes
By@@
wrong-doing
horseman
right@@
Port@@
overcomes
lize
Hearing
Cit@@
manslayer
dup@@
mur@@
lium
unblemished
Benjamites
scraped
lookin
gown
Adin
infirmity
twisting
barred
deficiency
comprising
cations
conservation
desireth
Cau@@
Russians
Baden-Württemberg
restoration
chy
eus
monarchy
Swear
gazelles
seven@@
revere
imit@@
pac@@
gerahs
figured
Merab
Sherman
Israel@@
ratio
sham
stupidity
housetop
300,000
Canterbury
bench
reproved
Herr
asse@@
spl@@
gins
Jay
ator@@
mating
aromatic
Marx
graceful
Diana
soothsayers
tire
watering
unnecessary
grin
Athe@@
Ephraimite
adopt
lif@@
lders
beautifully
rainy
realised
Inspector
alienated
banners
bandage
il-@@
Jairus
retreated
sent@@
las
Row@@
zah
baldness
cleaning
Ian
great-grandson
gated
rail@@
Globe
anthem
rip@@
feudal
'unclean
Adoni-@@
pants
sepulcher
MB
remedy
Georg
troughs
stain
encyclopedia
chemicals
snared
playoffs
Shime@@
leadeth
Pun@@
Petersburg
rho@@
charioteers
ub
surgery
vacant
Gaash
romance
pha
incl@@
king-@@
fo
North@@
desperately
rolls
extra@@
aerial
kernel
voluntarily
Paseah
kg
Baalath
quaked
daring
Nan@@
mess
cleft
nus
openings
north-west
Hebronites
ov
Below
,500
radius
Leonard
magazines
'O
Naarah
hero@@
oping
Everywhere
bishops
suited
yal
idolaters
1-5
sages
whoso
Greene
commemor@@
mb
genres
Gener@@
tenderly
assuming
strap
potatoes
whomsoever
cially
sim
Baby
commerce
ezer
Lil@@
scholarship
Universe
T-@@
juniper
smiting
premi@@
sentences
nal
13-@@
geometry
Zeresh
Version
Nat
depicted
overpower
sadly
Smoke
ramps
twenty-first
learns
unstable
fortieth
candidates
Li
ley@@
Indus
him—@@
O.
purged
Alemeth
championships
utters
pretending
diag@@
comrades
+@@
Berekiah
perfor@@
direct@@
Zoe
anxiously
Miletus
prote@@
lentils
demon-possessed
Pethahiah
exceed
ostrich
sprung
niece
Gladys
Ox@@
col.
inevitable
induced
money@@
shai
willed
Descendants
mented
Siloam
Gö@@
lb
forty-one
Alb@@
allow@@
heth
Priesthood
creek
esh@@
Declaration
footmen
sity
Tattenai
-+
shiny
Hushathite
nave
Forbes
phosp@@
enn@@
Hanamel
stony
scoff
Chamber
Perizzite
ñ@@
deity
reck@@
kne@@
aga
Rowling
valve
ander@@
Slaves
pedi@@
pond@@
archive
valid
reservoir
Pathros
Germanic
flav@@
delicacies
tips
Shemer
cals
Yours
cade
Fir@@
justification
Pan
Windsor
digits
dismay
poisoning
Original
Sanctify
Bell@@
Hello
S-@@
corruptly
discoveries
oft
er_
Dawn
moonlight
ffing
gene
Non-@@
seacoast
fiftieth
quet
head-@@
Thames
crieth
Noble
Manderton
rein@@
Move
appro@@
Garton
bond@@
shudder
depi@@
chopped
Inca
surname
dun@@
1872
wich
Lydda
fulfilling
lap@@
Blues
ase@@
converts
undone
Skull
Front
jewel
continu@@
8,000
stry
adequate
Jose
Singles
Sinn
politicians
bony
30-@@
Endlich
Tom@@
Wang
ade@@
Gw@@
ologists
Ish-bosheth
Shadow
tty
25-26
Senir
thrice
shrink
leton
acious
cci
onne
aff@@
clu@@
brood
stered
stakes
fodder
pious
ing-place
Episode
autonomous
dah
lation
astronomy
centered
nment
trim
Additional
lining
feareth
eration
115
corrects
Barn@@
UTC
Airlines
exul@@
Marine
OM
elbow
introduce
buildeth
two-thirds
thermal
anim
budded
beth
Shubael
denominations
unionism
hatch
Tree
persecutors
mas@@
lay@@
Valais
spac@@
sorcery
kine
Maachah
Weeks
asha
best-known
sails
porter
denarius
Collins
sof@@
exhibition
unchanging
ex
Vengeance
homo@@
Wes@@
Luci@@
liken
aris
photograph
Ches@@
histories
par
est-@@
consequently
Yor@@
gasped
Urban
enterprise
faculty
ouring
Flag
groaned
mpe@@
veils
vate
punishments
adher@@
ami
forbear
Zered
Rolling
Hermes
Wilma
Whither
hemorrhages
Tir@@
percentage
Zar@@
Tasmania
ising
Peri@@
1842
opposes
suspicious
Genaro
awaken
lts
queried
Mongolia
similarly
Hararite
Samo@@
Tour@@
powered
lattice
scores
shamefully
Panama
Warsaw
whiter
EU
obligations
oars
fran@@
debtors
turbans
revival
heeded
willows
lius
Figaro
domination
nian
ska
Tie
cache
Tel
telescope
teraphim
suffice
infirmities
inwardly
Van@@
Reserve
audio
smu@@
és
observ@@
Christi@@
non
1852
—even
'Hear
Run@@
immigrant
aux
ry-@@
cry@@
fighters
every@@
adjure
skilful
East@@
reigneth
Regan
manhood
rup@@
Tr@@
Bristol
Ahohite
ense
eighty-@@
Divine
smoothly
diction
soluble
predictions
couriers
seemeth
Unfortunately
servile
probability
ordain
2–@@
casteth
icy
sevenfold
detected
Robson
disposal
Galileans
E.@@
Rosa
monsters
uz
Meri@@
Kore
din@@
hind@@
rul@@
kidney
prim@@
advancing
formul@@
fordshire
Cher@@
Learn
Lanka
flared
predecessors
Jeshimon
liquor
stam@@
Cul@@
narrative
Coo@@
custo@@
exit
revealing
mercy-seat
Arimathea
Mini@@
tment
iter
Bloo@@
reef
attackers
Imnah
Rest@@
odour
—who
Wel@@
DP
Suffolk
amused
creditor
chases
fig-tree
enrollment
Debian
Convention_
mockers
Vampire
cloaks
surge
errors
underfoot
prostrate
-and-@@
Guardian
yeth
carelessly
minerals
iro
test@@
Abu
humbly
rendering
Odette
phy@@
twood
descends
breathes
Barcelona
Fire@@
Beijing
stiff@@
trips
vindication
broth
ppe
mentary
tanks
6-8
Saddam
Brussels
subsided
whirling
dealer
light-@@
2010
xed
packages
Hushim
cottage
Gabrielle
taunted
deposits
stown
X-@@
newborn
Pedro
bothered
arisen
deci@@
ridiculed
abated
apes
contaminated
ür@@
Nekoda
mask
worshipping
west@@
Nick
scandal
deceptive
accuracy
Bin@@
religions
Dol@@
ais
denies
float
21-@@
kar
precisely
inian
B.@@
clave
publi@@
Duchy
dagger
Pontus
cket
comple@@
tailed
Scotch-Irish
anim@@
ziel
Die@@
Shilonite
dwellest
discarded
salty
certificate
04
natura@@
goalkeeper
fusion
bear@@
sche@@
nay
eyebrows
Chang@@
Stur@@
Mak@@
demonstration
extremities
disabled
dares
Harvey
Dothan
loth
employ
clefts
petitions
Cabinet
Similarly
Agu@@
Sallu
casual
straightened
Phoenicia
birthplace
shar@@
Avoid
lting
autonomy
theology
annoyed
marking
shewn
Climate
Wiki@@
Hay@@
formations
â@@
ims
deposed
red@@
Nova
illumin@@
19-@@
vivid
—no
avail
Train
cus@@
Sev@@
vie@@
bewildered
she-@@
amethyst
predecessor
quick@@
dumped
Comics
reflects
compe@@
hs
tracked
Quite
dier
reci@@
Bud@@
rubbing
participants
disposition
Java
denying
Stor@@
Goldman
raids
diplomatic
Divide
seventy-two
Strengthen
dible
aro@@
binary
Cardinal
athite
Lacoste
practicing
supervised
sledging
springing
Dri@@
browser
Sc@@
shackles
suits
onwards
excellence
battered
magn@@
gos
reporting
understand@@
Dave
Venezuela
stating
tenderness
vipers
Jose@@
29-30
maintaining
vis
regiment
IPCC
Tuesday
Denis
grate
chained
off-@@
Preparation
regained
Grande
Ow@@
ent-@@
short-lived
invading
routine
Bul@@
Touch
Caucasus
sparkling
Sco@@
stall
Independent
purely
boot
weaving
Really
Anderson
guil@@
other@@
consciences
aves
peaceably
short-@@
quarry
22,000
avi@@
ineth
Entry
SA
poin@@
Wellington
realizing
ão
assuredly
aven@@
Barry
marshes
psychic
tex@@
changers
Easter
corridor
charcoal
Gallio
lieutenant
Bat
Mongol
4:@@
roses
mainstream
gloat
1883
crude
Champions
ements
sures
morality
involve
Overbury
raged
Hearts
braided
foretold
ake
solely
resemblance
veiled
Pine
grin@@
eater
cow@@
rebukes
Gy@@
chews
insu@@
Wayne
notation
Scre@@
slack
evangelist
_with
Lulu
Rav@@
mans
lens
refu@@
spectacular
aught
erie
demolish
Boursier
theft
vapor
seas@@
weakening
Edmund
navigation
kilo@@
succeeding
loosely
U-@@
regiments
care@@
perils
objection
arri@@
forthwith
Sul@@
cep@@
Brow@@
conversion
abb@@
ghts
workmanship
Marlowe
concer@@
spacious
Isabella
rejoiceth
vas@@
charming
alabaster
Bouches-du-Rhône
lawyers
Demetrius
queens
scription
11.@@
Kö@@
Hat@@
profile
Trek
ptions
tambourine
wer@@
ly._
spouse
shepher@@
inder
invention
Cele@@
Remain
Dragon
Rod@@
ruddy
mists
fangs
Shelomoth
Paddan
Encyclopedia
streaming
develops
Lah@@
amusement
Ludwig
fright
midwife
murdering
legendary
uninhabited
bursts
contentious
Clif@@
territorial
Servants
th-century
conquers
Cainan
dose
ean
enlisted
Tyler
killeth
Normandy
pioneer
gravely
Theory
explo@@
fee@@
Ashtoreth
individually
harlotry
Odessa
competent
export
cigar
sixty-five
out-@@
decreased
purest
craving
Argyl
cky
Vari@@
posing
Proc
Drive
thal
Ing@@
dest@@
Arnold
ult
ager
gies
decorative
oppressing
perception
consented
iler
pastors
Bundestag
Player
Rick
attire
extant
Richmond
Nap@@
Ab′salom
Freedom
Cemetery
'Master
Wy@@
noses
experimental
scru@@
Tibet
strait
lava
UNESCO
resisted
insi@@
Fourth
inasmuch
Ishvi
obscene
mmers
hurriedly
lifeless
distresses
feat
Rim@@
meteor@@
besieging
Simpsons
wheeled
Serie
eful
devious
Morocco
explosion
whitewash
Golgotha
delivereth
vered
entangled
Bel
resignation
Plant
ggy
landmark
Regi@@
wall@@
proportions
muddy
shearing
diving
Buz
generate
brother@@
vial
summ@@
Hob@@
theoretical
alling
ouse
adan
Nau@@
Movie
adjoining
magter
`Jehovah
paws
leman
Ry@@
yx
nau@@
Titan
referendum
supposing
Fav@@
Hull
atro@@
Jokneam
discourse
statesman
Emily
ial
ias
llings
reverent
pump
aims
Patri@@
Juni@@
pulse
sweeter
equator
manufacturing
Fon@@
Mish@@
ctives
toll
war-wagons
debuted
circled
penetrated
patho@@
hope@@
plural
Tehsils
capitalist
Homo
'Have
om@@
Wolfgang
bein
pronoun@@
constru@@
staffs
aly@@
pilots
striped
Howbeit
Gl@@
Bohemia
Zep@@
crac@@
ani′ah
Bat@@
shovel
Olympi@@
chicken
Kol@@
watch@@
worn-out
admired
atar
speakest
ony
tton
servitude
WH@@
draweth
omy@@
nos
advantages
Togarmah
requiring
lifteth
TION
horrors
parade
Tristan
Rights
Across
grudge
Nazirites
turn@@
Advance
tramp
grades
scho@@
exalts
terrestrial
Synagogue
vibr@@
affirmed
Esh@@
supervisor
Religious
nesses
eks
protests
Vor@@
tax@@
activist
Mackay
railways
buckler
heaven@@
vent@@
endowed
Cross@@
charms
projected
eding
glove
flesh@@
'Now
passer@@
m_
3/@@
loading
Shelters
Musical
Perth
internationally
scarce
debris
Utah
compas@@
friction
kan
Alfonso
Azerbaijan
103
Presidency
bergs
Baden
provisional
downstairs
cture
White@@
game@@
toy
Gang
Syl@@
Eri@@
alas
cartoon
Whe@@
flown
thirty-@@
bau@@
Whereas
clause
10-12
Olive
Sony
publishing
tary
incest
sville
Powell
elementary
aniah
Hananel
llas
tributaries
brother-in-law
slapped
Viking
Medi@@
Congo
aco@@
absor@@
aster
publisher
uncomfortable
great-@@
watchful
Offering
Zimmah
regain
Soccer
Komodo
anne
tas
Zuph
traitors
wires
cheth
Read
ø@@
documentary
Baghdad
foam
broo@@
Berkeley
inflammation
admonish
Limburg
ores
lica
Prison
broom
meats
Maac@@
salted
warrant
Agnes
cover@@
presidency
ewes
Governor-General
Tobijah
eighty-five
Genocide
indicating
Timid
1920s
rumbling
Anath
Becher
Janeiro
reception
Victor
Miami
sandy
richest
terrori@@
conspicuous
Feed
sement
galleries
Ed
Jen@@
prai@@
Reich
Nas@@
Ebiasaph
Knowledge
undertook
OU@@
suggestions
jet
publications
topped
Separate
gent@@
Simeonites
cran@@
class@@
Revelation
gan@@
Ibleam
couches
Mahath
recount
RNA
enchanters
toured
Plot
stamps
sinneth
sie@@
Dim@@
sleeves
quarterback
servers
apparatus
26-@@
lae
mode@@
termin@@
Intercontinental
Review_
ramp
investigated
Guinness
fru@@
a.m.
bal
Given
resolve
hostages
carbide
Various
Study
Birds
molded
Asa@@
marches
Market
cht
Bam@@
effected
Nam@@
step@@
crevasses
noti@@
fairy
pper@@
ired
functional
uri
insolent
prayeth
XV
pamphlet
chs
pardoned
Cran@@
trend
trod
Pulitzer
breakers
unbeliever
home-@@
Masters
Understand
Clem
numb@@
Jerobo′am
Bren@@
fling
rebelling
1876
deciding
Current
aman
ido@@
Wear
Chedorlaomer
pathway
'Yahweh
thirty-eight
cubic
rub@@
Parents
free-@@
Queens
integrated
Shua
geography
bud@@
oo@@
sable
Lav@@
hr@@
larvae
wl
180@@
gardener
1,7@@
persistent
battle@@
enced
hart
atures
prepares
savages
Arabians
bounty
wanders
Top@@
Galal
cock@@
Server
desolations
extortion
dreamer
rons
unjustly
kissing
dealings
bothering
expand
ariah
Naval
lar
tham
erred
Evolution
seless
fearsome
Neely
grammar
switch
totemism
Ba′@@
wildly
dump
rick
hal
Ma
swir@@
enjoys
dame
slaughtering
icus
Darwin
gratitude
guessed
enriched
actively
trumpeters
SI
prevailing
proto@@
Wyoming
battery
aided
overlooked
Ivan
NBA
conne@@
blasts
Mibsam
rivals
Hid@@
Bab@@
Pari@@
upheld
Based
uti@@
shment
halls
Shaw
vocabulary
Abdi
kish
dialects
body@@
eu
flattery
SU@@
å@@
kingly
Dav@@
odi@@
U.S
35@@
Claude
Knowing
diel
stool
Jalam
penetrating
rabbits
H.@@
bargain
Title
refle@@
stumbles
hesitation
rous
hypothesis
ave
prompted
′el
hurl
Slayer
perfe@@
cio
movable
campaigns
wild@@
strangely
Lark
Mail
Thor@@
ffy
ciphers
Plains
`A
Seventy
107
mina
meanings
8-10
hang@@
zz
automatic
outfit
orchestral
associations
necklace
135
maintains
reporter
Rawnsley
sam
brotherly
Zipporah
Vin@@
Andy
laboured
Farm
bere@@
far-off
ply
prefects
unfit
Baladan
Legion
Buenos
'Saul
Morris
covert
dio
precise
Wh@@
nings
Dallas
contracted
Absolution-Offering
severed
Louise
lement
two-edged
reproaches
111
firm@@
Operation
Dire@@
sums
odors
unprofitable
NATO
Wine
gum
sibly
1858
1859
exciting
ballet
Webb
ankles
Johannes
motto
Massa
saurus
Pearl
preserves
vascular
Piccadilly
Sardis
possesses
witch
occurrence._
Banks
beaches
eminent
rally
wrist
1884
gall@@
Hori
asis
eti@@
canvas
Hell@@
*thou*
expedient
judicial
murmuring
smar@@
tortured
forgives
indifferent
Kreis
Rig@@
ei
obe@@
bian
lder@@
assistants
spectators
strapped
27-28
Len@@
handbreadth
hl
Soundgarden
Bernice
equi@@
llation
respectful
Hez@@
love@@
Chuck
arouse
And@@
Beli@@
creep
authorized
Yucatán
coined
minus
age-@@
collective
advi@@
listing
dioxide
Denver
acu@@
Burke
ggling
gleaned
swearing
Antarctica
Flu@@
scur@@
warmth
Baba
echo
diagnosis
Shamar
Gertrude
cardiac
detect
spark
unts
ppings
astro@@
Fred
your@@
but@@
Vegas
,5@@
notorious
Rugby
solic@@
slo@@
avoiding
peaked
transmitted
Flor@@
hus@@
fleeting
rowers
Hudson
sessions
enberg
privileges
spectrum
Pere@@
steamer
′a
Chenaanah
ceasing
spine
Shah
Secret
flawless
torrents
Shuah
retorted
Chun
ratings
pepper
poss@@
ital
biography
drawings
convicts
sius
Jad@@
invoke
Ron
paralytic
cooling
vel
manife@@
Phil
marvellous
Frazer
Eli′jah
famili@@
Known
Apostle
maintenance
pounding
projecting
bestow
rebellions
Back@@
peasant
Maurice
invariably
liah
Adiel
alon
comfortably
Walker
Lucius
impose
good-looking
Karachi
a′@@
Zürich
Bismarck
logue
polls
Album
Gimnasia
eccentricity
Scanlan
Tax@@
Grameen
25-@@
chord
harem
unwise
suite
colonel
104
sojourned
endangered
law-keepers
Professional
volunteer
Express
submarine
listic
alah
Augu@@
lization
mitting
referee
itable
'Prepare
Macquarie
rejecting
forty-eight
Standing
Bros.
Kirby
1,3@@
UC@@
exits
mation
Malchi@@
evol@@
paw
Laboratory
scalp
Burma
genitals
Slaughter
intact
Horace
lace
harmless
framework
accent
Hann@@
ized
Tiberias
verified
overboard
open@@
fades
shortage
conclude
engrave
swamp
Adoniram
fatty
evil-doer
TS
gloves
oracles
passionate
Continue
epic
Commissioner
penance
pipe@@
envied
Absolutely
BE
fast@@
saffron
Livingstone
TER@@
Peking
D-@@
Alberta
intensely
Greatest
Tibetan
goo@@
ness@@
flexible
i-@@
furiously
Pul
bidden
Alpes-Maritimes
sawest
rigid
retribution
Princeton
meadows
old-fashioned
Emmy
Perazim
intestinal
staggered
befallen
figur@@
statistical
Rogers
river@@
ordin@@
.5
1893
grumbling
violation
Kiriath-@@
106
ised
effe@@
Blu@@
phar@@
forty-four
judgeth
Europeans
11-@@
diplo@@
champions
conden@@
spin-off
Down@@
eloquent
Gone
deceiver
wald
0,000
aliah
butchered
apiece
feud
ör@@
doubtful
sinews
centres
zai
AI@@
mper@@
nominations
shaven
nucle@@
manufactured
ingu@@
volunteered
mint
twenty-six
320
madman
define
aste
avenging
fetched
Mission
1863
1869
well@@
1830
screaming
Hele@@
Sword
onies
perishes
manga
Ahu@@
Berea
maturity
Tear
exploit
tless
envoys
lowering
factions
diagnosed
148
Mobile
colleges
doubles
Wednesday
cho
tense
Pow@@
reclining
separ@@
Amal@@
lism
nucleus
Rob
Reading
big@@
Brighton
Waco
—from
Erastus
llus
burg-@@
stepping
Kaiser
cin@@
spor@@
eval
1/4
Dy@@
neh
desirous
Students
Evening
tile
entity
encompassed
—will
Nome
Burton
atmospheric
papyrus
indirect
kan@@
ashi
Edition
'clean
Habor
hewed
socialist
1875
jurisdiction
carnal
Good-@@
sixty-six
resembles
holdeth
Shin@@
accumulated
stus
Jezer
flourishing
Demas
poorly
week@@
appeals
thouse
JEAN
Hamul
twi@@
proceeding
hammers
partake
block@@
1849
yle
Onesimus
attentively
Segub
windstorm
rian
9-11
Ae@@
Warde
Derby
ounds
recru@@
Hop@@
marker
igns
moaning
towering
Holon
extract
Copenhagen
colorful
roam
crawls
presidents
hop@@
8–@@
exceptional
Reich@@
editing
—because
synthesis
top-@@
catastrophe
Short
traits
storyline
dearest
Nadu
endor@@
internet
retains
unwalled
raisin
liv@@
Portland
Lorenzo
flatter
decked
competing
00s
ponds
coup
air-@@
feminine
spri@@
condemns
peace@@
scorbutic
Honest
discovers
Monte@@
crumbs
towel
aps
boastful
requirement
heav@@
Future
ttin
shifting
algorithm
dressing
geo@@
Epaphras
Rat@@
Manahath
tial
productions
Notable
vani@@
Cretaceous
Aeneas
sculp@@
Trophimus
cleanness
1873
NHC
Bind
A.D.
Planet
fertility
edly
veranda
stains
Halah
alternate
hare
fix@@
enticed
Maxwell
Omega
pes@@
oo
49@@
foreman
electron
FF@@
Roy@@
mely
leness
opes
22-@@
raced
Hey
Japhlet
17-@@
ne-@@
impatiently
Constantine
acht
booth
Bloc
type@@
bamboo
conceit
cers
install
snor@@
1847
zier
unexpectedly
Hang
Jarib
saws
lès-@@
vinedressers
forevermore
le_
zib
scars
decorations
menstruation
Baana
Add
Cassini
scen@@
concei@@
nap
deliver@@
kettle
whelps
unworthy
manufacturer
Weep
unsuccessful
Anakites
serial
Romanian
tia
Giant
xing
Bryan
untying
Belial
118
poplar
wind-@@
Mich@@
,6@@
preference
pple
floated
thrive
Beside
anne@@
navig@@
canon
lur@@
disorders
Sky
viewers
wits
contri@@
Pac@@
aha
impaled
apartment
CL@@
Honour
ting@@
chill
contracts
appreciation
Aires
comments
Zillah
cip@@
Bavarian
Chart
DO@@
vert
quarreled
salary
offereth
Oi
Jerub-Baal
predi@@
too@@
Who@@
det
waged
kon
Phan@@
entertained
thesis
dishon@@
Certain
prosper@@
Parker
CBS
satellites
ice@@
refreshing
dual
survives
pulls
Jour
let@@
reproduction
babes
victuals
itz@@
leisure
1812
treasurers
Fol@@
18,000
Rivers
Englishman
kas
Cologne
boroughs
Mu
Yale
pharm@@
butcher
accessible
dem@@
safe@@
Pelet
magical
Huldah
counsellors
_Records
Production
gettin
imitators
frightening
trampling
clue
processors
gaunt
12-14
sperm
Bis@@
legitimate
Mitchell
sibility
deemed
Sund@@
smoked
excel
seizing
mega@@
vindicated
affects
preliminary
Marcus
lure
Mali@@
itching
comforters
5/@@
Marco
ices
rocket
-trees
Daddy
MA
mirrors
zon
fel@@
Hena
mbles
obli@@
Ibhar
imaginary
Stryker
Gallery
Phrygia
freshwater
Kittim
apologi@@
vings
interfere
payments
146
dison
fornic@@
Elpaal
Administrative
Aner
asserted
am-@@
AF@@
Chari@@
iel
Bilgah
ffin
Kabzeel
suggesting
seal@@
ligh@@
productive
Pay@@
sands
possessing
portra@@
basi@@
ii
appoints
fleeth
priv@@
figh@@
platinum
bored
Gatam
variation
brushed
shutting
humiliate
Classification
quail
Greenland
Terry
itting
'T
pag@@
Va@@
Physics
favourite
infe@@
lle@@
Kis@@
admission
Rho@@
Chanaan
Jashobeam
sheltered
gna@@
armorbearer
installation
Ministers
108
akim
boarding
suc@@
originating
dog-@@
Shimeah
ori
childish
pounded
grieving
Kiriath-arba
promi@@
Computer
Chan@@
intellect
skater
swo@@
firing
plunge
Jag@@
Indies
hon
ato
battlefield
hello
HO@@
longitude
MO@@
ik@@
gle
bread@@
conserv@@
trophy
Deal
Ashbel
pomp
newly-@@
Complete
Pursue
Ottawa
pitied
prohibited
ten-@@
Chairman
fortify
requesting
fireplace
rap
trio
ssy
deposited
Seal
Moreh
desi@@
Kanah
lance
osis
Fernando
milli@@
unfruitful
Owens
lively
peaceable
archipelago
synchron@@
despiseth
gence
schi@@
jac@@
vault
Gotha
blades
hurrying
CON@@
passageway
uncertainty
intends
esia
Ahava
Igal
honorary
socks
Achzib
Shoot
DE@@
prints
Bunni
blesseth
1801
Mattan
doubting
sue
blight
obstacle
Madre
valiantly
IT
introducing
conductors
telegram
Oper@@
Booker
strode
psaltery
polite
popul@@
é-@@
glori@@
Phillip
knots
meanwhile
adored
Gird
sdorf
cist
Kellner
Fear@@
template
insides
Orlando
wizards
lded
Fall@@
girlfriend
Algeria
kov
Versailles
Hermann
Wives
7-9
holies
28-@@
casualties
Swi@@
ala@@
'Surely
open-@@
Jacqueline
turquoise
rell
Ahi′@@
Nav@@
producers
Nigeria
asing
Companion
descri@@
'Friend
denounce
Mizzah
Systems
Round
mbers
present@@
350
quieted
Grass
Reagan
Ascribe
vable
harass
Itali@@
protagonist
carving
Travel@@
minimal
thresholds
Ijon
hara
False
wardrobe
acclaimed
Dwelling
seduced
cope
Scor@@
Traditional
_C@@
Calvin
—is
simul@@
Soci@@
Basilica
Dubai
troublemakers
Horesh
ragged
administratively
uding
strokes
Yard
leased
doorways
Jour@@
perverseness
anime
Vision
negro
enlargement
och
analogous
Baalim
climbs
'Suppose
ond
Jonas
squeezed
sco
hash
reactions
virus
outermost
Nash
Nobah
immortal
Cond@@
appreciated
Escape
disclosed
1855
Bros
smiles
kiah
fond@@
langu@@
calmly
digs
aller
Ard
Naamathite
Tel@@
nap@@
testicle
Jetur
outdoor
unsearchable
plastered
muscular
builded
swaying
nite
smi@@
paci@@
erated
critic
donated
sur
Gibe@@
youthful
disclose
itioned
sympathi@@
ctic
reducing
bare@@
may@@
Pole
sew
acquitted
crafted
sellers
eyesight
Abiel
copyright
submission
exhibit
Colin
sheepfolds
mix@@
Manila
USSR
Dance
Iri@@
Rey
Asenath
hum
Imlah
Sheshai
bid@@
smelled
betrays
comprehensive
Tibni
'Our
Hamutal
Perga
entries
ile@@
taker
swallowing
PL@@
yah
Gareb
fringe
mable
Ephesians
who@@
jar@@
threshing-floor
Kav@@
Trojan
beho@@
confuse
Soldiers
Start
Carchemish
mania
50-@@
ablaze
gusts
ests
Dogs
Joss
Tagore
Ts`ao
ophone
Churchill
molecular
allu@@
Currently
Ged@@
scraps
anite
convincing
1835
posterior
1200
TE@@
Railways
libraries
BA
chrysolite
Nan
remo@@
celestial
lookout
inous
You@@
philosophical
ras
—what
Transportation
27-@@
relate
riddles
sculpture
114
117
death-@@
llows
transported
dusty
Cromwell
balsam
Rehoboth
luxurious
Spencer
initiated
testament
indifference
blizzard
membrane
P.@@
tangled
electrons
Wind@@
annals
repeating
Post@@
glu@@
Durham
Cen@@
Salam@@
Stone@@
carni@@
fit@@
1803
Fischer
Adoni@@
oppresses
Territories
Neariah
ment-@@
ounding
22@@
Organi@@
import@@
Bermuda
spat
Shor@@
Volume
tian
wailed
Defence
CS@@
candy
governmental
Zephon
commentary
reali@@
Lo-@@
Aud@@
untrue
Home@@
Bapti@@
Gartside
cyclones
unch
efs
securing
Pro
Demo@@
Writing
Ronald
shrubs
Zalmon
blasphe@@
Stephanas
Conservatory
Cari@@
calcium
logo
encing
Berg
Hazar-@@
constellation
Knowles
fatigue
manifestation
ing-places
supernatural
Gui@@
calcul@@
enchan@@
109
Put@@
06
electromagnetic
Rapha
glorifying
Tragedy
Ithran
Trinity
geological
Ig@@
tolerable
valence
ding@@
Kemuel
1845
-minded
'That
sac
TS@@
collie
tyrants
manger
Attorney
03
ttest
him—
Ithrite
undertake
Northampton
3/4
hundredfold
Hadid
membranes
CC
165
Slovakia
maidservants
cise
ame@@
Control
peradventure
ribbon
ela@@
scall
deiah
trava@@
curves
phases
Shabbethai
Gall@@
Bakbukiah
Cairo
comb
Beauty
Bedford
competed
Harsha
crater
tundra
reputed
dav@@
hearers
grinned
stillness
heaviness
seasoned
appeareth
communal
wait@@
snar@@
dece@@
accoun@@
stled
specialized
merger
dation
Goursac
confirming
Hirah
Mattenai
cheerfully
protocols
whales
fas@@
ounded
centi@@
structural
'All
engagement
Miss@@
Physi@@
affecting
Harvest
relented
Naphish
instituted
ê@@
lush
Inner
Bond
com
mocker
backsliding
Ezem
timbrels
Ziha
sleep@@
Rud@@
finance
colli@@
rich@@
somethin
prose
deep-@@
hireling
Emb@@
adorn
agencies
pertained
stilled
entious
Ass
summons
respectable
incited
encampment
Thu@@
Stock
Hen
honor@@
Nah@@
anticipated
crag
Politics
Ikkesh
rinsed
spray
crystals
buck@@
Devon
sharp@@
stimul@@
Lonesome
Darkness
Oded
unlikely
per-@@
aking
sister-in-law
enforced
Azriel
teacheth
like@@
compel
Fore@@
vich
eda
maternal
139
Fleming
hyster@@
sceptre
thic
Rad@@
L.@@
Beverly
Spo@@
Kind@@
awa
ample
butt@@
downtown
busiest
encryption
cteth
mour
dians
vand@@
undefiled
samples
Lakes
BE@@
tray
body-@@
dispo@@
1831
Caroline
Heres
on_
Kul@@
restoring
gol@@
Minna
terminal
illustrate
extol
Jah
paneled
Howl
hite
Webster
Achi@@
itis
stal
sashes
Ezion
hawks
D.@@
restores
freezing
conventions
satisfying
Governments
Orson
Avi@@
anomaly
lington
overheard
choke
ahs
pork
reaped
bable
Ign@@
plows
dissolve
Kelita
wast@@
identification
bbled
Annual
matched
surplus
keyboard
propose
anten@@
Extreme
mariners
Gali@@
holocausts
zard
iners
1874
thirty-one
businessman
releasing
Lugano
capturing
disappointment
ono@@
drin@@
overshadowed
dining
Net@@
Belarus
desecrated
One@@
addressing
Jeshurun
Azaziah
slid
pawn
frank
dia@@
illustrations
enacted
Mill
Stuttgart
moni
Siddim
Nemuel
baking
enables
inventor
09
clings
hotels
palate
personnel
Leaving
sparrow
berger
t—
splashed
Shiph@@
shined
Tesla
Oslo
1843
Sibbecai
Jaddua
1824
Leopold
lem
wisest
MAN
Gur@@
Shemida
asc@@
north@@
hemi@@
Morrison
chancellor
Mith@@
Azmon
Matthias
pay@@
uan
acre
trilogy
broadcasts
Gol@@
rai
advances
encourages
s—they
Global
Plan
secu@@
Leon@@
Care@@
nav@@
appointing
Colombia
accessed
tyranny
Asriel
Tales
60,000
Hobab
periodic
Tren@@
defin@@
haunt
lifestyle
gny
Diet
fa
intervention
advertising
fifty-four
housed
exploits
line@@
sheriff
Forget
Divi@@
Einstein
Scot@@
it—
`When
144
elephants
WW@@
ury@@
predominantly
Strauss
ín
escence
Haywood
_She
Kuwait
honey@@
native-born
suspense
vey@@
duck
1500
environments
Water@@
ups
Dow@@
Sheb@@
dwarfs
McLean
Shihor
agate
Expedition
kreis
forecasts
commitment
is-@@
Edgar
Beer-@@
Maharai
sweeps
endo@@
rum
Zebul@@
121
Poles
Twenty
Articles
Archite
Malcolm
suburban
Elsie
refrained
Sle@@
panel
num
Tremble
Rotterdam
wea@@
applying
Vladimir
screenwriter
kh
shima
miner
vities
conveyed
man-made
severity
neighbourhood
Tap@@
taskmasters
mons
exca@@
ungodliness
fications
procedures
Eph@@
grasshopper
crouched
Genesis
Web@@
I-@@
awe-inspiring
blunt
lute
tants
eder
ô@@
moist
trays
Inf@@
Welcome
prestigious
pm
revile
trivial
llis
rap@@
ual
'She
Torres
—And
brows
vomited
iture
Villa
Mana@@
permits
pancakes
Uzz@@
'By
168
reaping
developments
shopping
Troy
Lisa
holiest
th—@@
Ulv
Medal
sett@@
puppet
Scandinavia
Forty
bunk
ña
Musi@@
Ashkenaz
bed-@@
executing
ticket
stedfast
Ped@@
'Are
obje@@
FL@@
gger
Slipknot
practise
bre
llow@@
Salzburg
excrement
Hoshaiah
philosophers
een
les-@@
Lucas
Hate
stles
jer@@
145
Hamlet
`Take
.org
incur
frankly
accessories
28-29
entertain
Rules
virtues
lov@@
artisans
Hyde
aggressive
Tig@@
airship
turb@@
Tel-@@
Gedi
fi
Pleiades
Hanover
Besor
endorf
tou@@
volu@@
assass@@
Tag@@
1840
'er
desktop
Mus
Ukrainian
resu@@
Respect
archer
Season
Slavic
Ziza
Josaphat
lends
cency
needlework
vex
strong-@@
decoration
DA@@
Aval@@
stalks
aft
Azzur
Apo@@
Songs
poll
Preacher
mach@@
Ax@@
lemon
gau@@
steep@@
tyrant
Pet@@
myth
sworth
dignified
Bamoth
SN@@
vats
avia
languish
stuffed
shly
essness
Indonesian
Duchess
Leeds
Dame
barrels
pet@@
Animal
Mehetabel
asser@@
magician
dra
initiative
flourished
Bethphage
alizing
Sad@@
Passion
sneer
`Who
drinketh
tiger
hurst
pony
1,4@@
—if
Senior
printing
ridiculous
dless
Pr@@
Lud@@
Hurley
volunteers
32-@@
castles
again@@
observance
Corinthians
bies
thian
dimly
Dean
anias
MIT
then@@
addresses
cies
scopic
Mecca
impulses
lab
mare
Barrier
inviting
hearty
policeman
ortho@@
ignores
Flo@@
Mira@@
“I
rape
scour@@
tish
113
disobeying
Advanced
Laura
refre@@
interrupt
intensified
hetero@@
aver
harvesters
directs
bri
Lé@@
Break@@
Floyd
thoughtful
40-@@
Wells
fantastic
aeroplane
Car'lyn
leopards
cancelled
Sebastian
1792
near-@@
superintendent
overlooking
noises
forsaking
11-13
chests
wid@@
Henri@@
Lü@@
—your
temptations
up-@@
proofs
Salome
slow@@
seventy-seven
Few
diadem
revised
aca
Concerto
customers
percussion
evolutionary
rest—a
Gennesaret
Catholics
45,@@
rugged
coverage
sapphires
entereth
ía
Ihjel
accuser
scrape
undisturbed
asting
investigations
,4@@
halves
MP@@
wakes
enthusiastic
Origin
13-15
uncommon
Legend
kness
colon
pruning
Observatory
Gilbert
Indo-European
propag@@
irri@@
ru
hasted
Maakah
modi@@
warmly
ij@@
Adversary
soo@@
resi@@
live@@
Firefly
Seventh
calculate
uni
diaphragm
potato
2007-@@
framed
strategic
Vlad
Design
shrub
inmost
Parti@@
bag@@
err@@
i.e.
ente
Trautmann
Towards
laus
spur@@
Flames
smiths
loathed
syste@@
twenty-@@
McCar@@
refine
1836
Delhi
Victorian
Schu@@
loosened
mical
recesses
warns
Burn@@
illegitimate
meon
Baldwin
Leslie
abnormal
seam
sorceries
porches
lingered
compromise
31-@@
scoffers
convey
groo@@
expect@@
hint
Play@@
synthetic
master@@
PO@@
Edwards
Reformation
178@@
38@@
ön@@
Mé@@
Glacier
clasped
mau@@
wand@@
banish
pies
Sche@@
f-@@
gate@@
Punish
Gent@@
speculation
gad@@
defective
constitute
_you_
tunnels
Reli@@
agon
147
cates
time@@
communist
elastic
Pirathonite
Achab
Soldier
ahu
chang@@
confirmation
Grand@@
Presidential
sms
belongeth
teau
ght@@
marriages
qua@@
Nitro
Grove
buttocks
G.@@
compli@@
Isolde
patent
epistle
south@@
FR@@
guaranteed
Medici
digged
peered
foliage
neat
curled
Basketball
Seleu@@
inders
k_
Henderson
gest@@
ggle
Shephelah
Der
contentions
tten@@
ß
Daberath
hud
cumin
ea@@
188@@
amphi@@
thal@@
ardo
Mün@@
usa
comrade
west-@@
fting
expel
fishers
Flora
Mik@@
tempting
giver
vacuum
edst
`My
convulsions
Abaddon
licensed
sped
how@@
1815
seaside
Benjamite
God-fearing
Tiberius
flank
successive
linguistic
Foolish
—do
harlots
combinations
unlawful
evap@@
Private
san
kit
Shawn
Malchiah
Will@@
Scotia
Naz@@
assessment
lit@@
profaning
federation
bourne
viol@@
Monte
clear@@
worlds
irre@@
grievously
Collection
shrugged
broadcasting
ts—@@
asketh
indie
Hewson
UL@@
graphics
basement
Phillips
globe
FOOTNOTES
Economics
Josef
approximate
threshed
pained
flow@@
tual
Newcastle
seduce
haraim
beak
Pluto
antag@@
GS
Campaign
haired
Bero@@
Pel@@
hau@@
Sport
Bird
Nearly
knot
Ball
miss@@
Mizraim
givest
minas
ers—@@
variant
babe
realizes
Weather
perceiving
CARMODY
Burn
gus
furthermore
scum
Earlier
sym@@
mentation
Brad@@
operators
Stanford
notwithstanding
STEINDOR
120@@
gha@@
goodbye
living-place
Nuclear
hem@@
orium
Torrance
infrastructure
'Blessed
annihilate
Arri@@
ravaged
Shalmaneser
andy
Hill@@
time-@@
ver-@@
entre@@
leagues
sometime
vigorously
rom
yokes
Etymology
lus
compressed
Stru@@
Guy
Six@@
scoffer
township
gle@@
accounting
B-@@
Chimham
eless
Vronde
Review
Poli@@
Larry
Romance
bloodthirsty
floodwaters
underwear
boast@@
aloof
Jude
skinned
cedar@@
Acacia
Vie@@
intestine
marsh
Continental
duction
gor
well-watered
Crusade
zations
where@@
flag@@
CBE
Letters
apportioned
Baltimore
substitutes
eous
153
negotiations
constituted
Macbeth
employers
resource
3000
Direct
golf
twenty-fifth
2011
Montana
recompensed
unrest
behoveth
exercises
Foster
logi@@
Zarethan
Bit@@
Georgian
rational
convul@@
wrestlers
crafts
ate-@@
stride
Libyans
Iv@@
-day
Industry
war-carriages
assassination
dark-@@
erase
combining
Canadiens
socket
bicycle
23-@@
clapped
Hilton
Mill@@
uncontrolled
Shaaraim
radiance
Pelaiah
flights
wines
mam@@
shameless
Shanghai
Stinnes
retire
treaties
Peter@@
buses
OD@@
Eleven
decl@@
voltage
Miniamin
fing@@
triangle
Yunus
ME@@
twigs
llman
1864
Smyrna
campa@@
119
bour@@
thanking
photos
Fig
investment
civilians
Frances
stoning
analog
Consecrate
thaim
Marina
sergeant
pier
alternating
melan@@
Pres@@
henna
competitions
inda
Metro@@
tsman
oms
Elect@@
damned
fraction
spheres
newer
thick@@
Kas@@
MA@@
Ces@@
meta@@
Jehosh′aphat
despoiled
Face
coupling
chro@@
maj@@
horned
cheered
necessities
nish
phi
recovering
cot
confi@@
Dundee
breeds
observers
doubted
Rezon
francs
evenly
wizard
offences
thereto
pilgrims
stonecutters
piercing
80,000
powerfully
thorny
iron@@
Edmonton
jerked
Contro@@
contrite
'Yes
Saxon
imitation
Ner@@
compositions
uttering
Productions
Jeriah
phal@@
Mistress
menace
constra@@
alu@@
ATION
Tsu@@
vul@@
llon
illnesses
algae
5-7
Ruach
astronomical
critici@@
hypo@@
fungi
dot
05
orn
topics
Lions
Auckland
lyri@@
splash
Raymond
timid
playoff
pence
sop@@
navel
mistre@@
bull@@
hunts
Oak
Prayer
recognise
Overall
ckles
Echidna
darkest
stere@@
occupying
hoe
Dah@@
emphatically
Jekamiah
Treason
tional
Perry
carriages
kle
clamation
Mered
Starting
triple
full@@
dictated
curds
transparent
calculus
pets
contemptible
Domin@@
appreci@@
1940s
sse
abstract
chir@@
thar
folklore
wayside
Power@@
steeds
Turk
mor
yi@@
obtains
T`@@
macro@@
Kerioth
pio
Bry@@
Bondsman
shafts
penetrate
Data
Ir
Lightning
ster-@@
reduction
lengths
Ivvah
tiers
Seme@@
116
Chester
ALICIA
designing
projection
net@@
administer
printer
00-@@
wafer
broader
eri
thundering
ulated
Trial
Harbour
Nabuchodonosor
silver-@@
disputing
conceals
founders
pleads
earns
Rochester
Chakwal
thunderstorm
firstling
Ced@@
discord
zites
spokesman
Gha@@
revolver
orial
herald
prizes
Deputy
suspicions
Throne
owski
heaped
e′@@
grape-@@
Brandon
Setting
prece@@
boun@@
contrac@@
Gon@@
sinks
Hed@@
vitality
mies
polar
exclude
shop@@
declaration—
detached
mornings
controlling
retail
vulgar
gatekeeper
enz
Asi@@
Hero
tuberculosis
stling
Joanna
Block
Smo@@
armory
leans
pher@@
galloping
ancestor@@
heretofore
glaci@@
Off
Origins
sanctifies
ascribed
concentrate
Grammar
Philo@@
numerals
jacinth
tape@@
Jotbathah
Ros@@
Judges
yu
unnatural
Tho@@
El-@@
smells
Fiction
ologic
cones
Simple
Whatsoever
circumstance
mats
Santo
Batt@@
Sleep
self-controlled
vity
incapable
seasonal
tery
Hung@@
Duck
Accordingly
storm-@@
pneumonia
echoed
recomm@@
Similar
realization
ggled
Terri@@
resin
corro@@
aldo
incorpor@@
Broken
anging
wreaths
gums
proposition
blasphemous
scu@@
Carmelite
dominate
CRASSUS
expressing
failures
eight-@@
covenants
depend@@
Sichuan
offering@@
captures
inspect
ign
Susan
Dresden
envelope
impart
anyhow
ght
bby
oting
spiders
Pre-@@
forasmuch
cuisine
PR@@
Work@@
Verde
congratulate
`Ye
1851
Wherein
pledges
MW
exo@@
Alle@@
debtor
ao@@
teenth
jacket
perspective
Adi@@
Mede
two-tenths
Tennant
Alba
laun@@
mum
'Therefore
practi@@
Maple
Basque
Wonderful
Disp@@
cousins
Shake
expi@@
Culling
politically
—with
plagued
cance@@
categories
staf@@
aka
servant-@@
petty
Fab@@
unitary
Jav@@
Meshezabel
asy
transformation
unchanged
124
1784
pint
blacksmith
confirms
Neigh@@
execu@@
Archipelago
Hubble
'Thou
Meon
ed—
vindicate
ICRC
Honey
Less
aten
Acha@@
alled
inserted
overflowed
penguin
'After
Honduras
saluted
Baptizer
inexperienced
anarchist
cryptography
mexic@@
Rhy@@
hardest
irons
Zidon
Hobart
Fields
Got
elli@@
draw@@
elephant
ught
Ezion-geber
instructing
mmer@@
futility
Adventures
Adelaide
Fortune
Americ@@
main@@
Jeho@@
slips
vest@@
Oil
gymna@@
cowboy
Sheffield
noticeable
emerge
rented
tax-@@
remarkably
Toi
Papua
Range
lizards
need@@
hue
journeying
Britten
swallows
nasal
eigh@@
zio
athlete
craters
combine
Low@@
Wallace
delegate
Virtual
bbling
quad@@
carpet
wounding
Rising
Kenizzite
murmurings
temperament
horde
Stro@@
Cry@@
deca@@
scorner
24-@@
publishes
Indo-@@
Ebenezer
tah
uda
sexes
Reign
Wed@@
smeared
Antilles
balanced
clinical
Date
Humans
1832
locate
ground@@
Chinaman
15,000
lash
denial
Lebo
Two@@
wouldst
overjoyed
Abba
p.m.
31-32
SE
Lic@@
Cli@@
unrelated
inius
ravenous
thology
dit@@
Phicol
dissension
shatters
subsidiary
Dennis
compose
Richter
distr@@
dispatched
-r@@
finals
thirtieth
tassels
Cushi
waistband
15-17
bough
ske@@
Finance
pleas@@
trenches
Harri@@
detachment
nocturnal
pioneers
bordering
neu@@
workingmen
mote
Toward
Lap@@
Chel@@
Unni
Bezai
foaming
mentally
interface
robed
·
jersey
Shal@@
hr
Vatican
sepulchres
Lahore
housekeeper
abolition
Rev
ject
Diemen
Dürer
retrograde
implements
amber
designate
revered
orbiting
sculptor
boring
Document
-house
156
co-operative
Tahpenes
dart
cumb@@
axles
Silence
mole@@
uk
preaches
erest
baptised
1817
Gru@@
northernmost
perseverance
agreeable
patriotism
trou@@
Roberto
individu@@
oro
shod
Peru@@
manu@@
mightest
devastate
acknowle@@
Juli@@
foll@@
thorough@@
gallon
vis@@
discerned
Pack@@
BS@@
Mort@@
railing
Anatomy
fidelity
Wilbur
,7@@
z-@@
1829
fashions
Shomer
Beth-aven
Rich
Rice
Suffer
Primary
Horonite
revoke
Recently
altern@@
36@@
Zak@@
Joses
“The
destroyeth
fetal
Rock@@
BO@@
Adra@@
Met@@
watery
unauthorized
crawled
25th
Immanuel
Histor@@
investig@@
Bruins
Twin
overlook
unfairly
provo@@
registration
inal
Burgundy
betraying
Byrne
Lac@@
udd@@
Jehi@@
lawsuit
feather
westerly
illusion
palm-trees
cooler
fleshly
dome@@
Frei@@
Tul@@
Batman
astonishing
Randy
Aug.
exhorted
Join
umb@@
1776
thinner
Commerce
expressions
Wonder
Stam@@
delusion
jan
tomy
Dro@@
attractions
Scurvy
rims
ror
ape@@
Race
decor@@
Located
Hendrix
Supper
olithic
lette
Secre@@
Albums
Manitoba
Silvanus
advisory
Bronson
Engineering
crowding
faintly
rubbish
index
oth-@@
Rous@@
Quir@@
allocated
Dani@@
thier
postmortem
repose
Mask
comprised
textiles
then-@@
antiquity
stin@@
poorer
ripened
interpretations
archaeological
Dup@@
deserting
Warriors
scand@@
Doing
omens
underlying
Salecah
provi@@
Sara
voy@@
Bachelor
oth@@
Mahalath
land-@@
departs
Prague
Nashville
intri@@
Keynes
waists
dock
chastised
Memucan
constellations
Nev@@
bidding
Thorns
covetous
hospitable
prone
buckets
Low
Riches
simpli@@
mam
cephal@@
Celebr@@
Ahisamach
Beneath
Dáil
Scri@@
miscar@@
Attatak
spitting
ady
acids
humb@@
mending
mortality
inspe@@
alm
Janoah
One-@@
elongated
Inc
risks
Jamaica
pro-@@
Belt
Tabitha
Daughters
hull
insurrection
condemning
suppressed
Rephaites
vention
zia
perversion
gued
schedule
tickets
Eye
comin
receiver
Kir-@@
snowy
Human@@
dancers
embracing
Voldemort
creeps
Sett@@
sponsored
chronicle
enchantments
Pos@@
Exchange
scourged
crushes
cartilage
handmaids
gno@@
Bath
Bulletin_
trades
hound
exhi@@
Helsinki
yell
`For
Ha
pagans
Elishah
confesses
seemingly
treasurer
learnt
rin
Adrammelech
Uzal
Initially
HER@@
affiliated
Abyss
humbles
zoo
practised
sane
quicker
Faso
3D
dawning
haunted
Distribution
Naha@@
snorting
resided
ceases
locomotive
_New
Franco
pictured
undergone
fol@@
stab
intrigue
ference
Somebody
cans
Statistical
assets
rafters
quarrelsome
See@@
Burkina
scorpion
Chephirah
chastisement
KING
sium
preserving
lair
disturbing
chron@@
cloudy
slaying
inability
Era
limestone
requite
stries
Champ@@
wink
vacation
ret@@
periodi@@
promo@@
167
notion
dt
2,0@@
Thebez
Publishing
Kebar
1791
bathing
Heldai
accuses
Grimes
ravished
Wentworth
yelling
dwellers
erable
teen-@@
fatted
extinction
esophagus
Servant
hater
tuous
Brigade
fauna
Northumberland
Ninnis
Style
levi@@
linking
robust
fortunetellers
Units
runneth
indication
Peak
lawn
Phelps
evacuated
1816
ums
creative
Rid@@
Lit@@
Demographics
Aro@@
weakest
Beat
Fantasy
scha@@
ignoring
regretted
gland
common@@
swayed
Giants
bin@@
militant
conformed
essions
infantry
bluff
Negro
savour
Prof@@
Sociali@@
Elisabeth
transform
9–@@
glutton
craftiness
yland
evildoer
Kung
Wester@@
Urdu
II@@
vat
Are@@
moon@@
truck
Pica@@
Adonikam
shearers
embassy
shouldst
SI@@
fibers
Ruben
Jehonathan
Pul@@
Gormley
observes
Rhône
switched
supernumerary
wear@@
Egypt—@@
inqu@@
sancti@@
Pirathon
Lysias
linear
Steph@@
airline
decisive
pou@@
metre
Nancy
Necho
Vill@@
gel@@
estranged
infancy
Mind
Historically
`Why
unsuspecting
iles
185@@
Fritz
Thre@@
mper
pup@@
dire@@
exploded
litter
EI@@
metry
English-speaking
Outer
perpetu@@
Spurgeon
secon@@
recognizing
secular
Offi@@
nowadays
gang@@
sna@@
petrels
Rufus
ratified
Chau@@
Azad
Joan
Lancashire
Beast
ubs
answ@@
repudi@@
Thile
gem
gel
ères
nationality
breastplates
reviling
aggre@@
Dio@@
principally
atorial
displaced
recommendation
similitude
Nun@@
abdi@@
Surrey
Cramoisin
dining-room
Pink
Senecan
tenant
tying
nether
Rocks
atch
uttereth
doub@@
expiation
esting
long-term
Moabitess
Clear
Telescope
Yang
shel@@
soils
Chinnamalai
triumphed
depri@@
modu@@
despising
beau@@
sweareth
To-morrow
moderni@@
Speed
betrayer
Congre@@
acoustic
playwright
stiffened
Roy
Colonial
wiping
ults
Lang
Ach@@
widowhood
skaya
restri@@
localities
Rudolf
Pand@@
glancing
door@@
ENT
Senegal
thre@@
identi@@
rath
Hé@@
Husbands
pilla@@
cess@@
spiral
slides
narrower
rituals
Section
gentiles
defiance
taunts
Scribes
Non@@
winepresses
hinges
Moons
reco@@
licenses
courtesy
invites
Knights
iny
German-@@
boar@@
Occasionally
Dec.
masts
ylene
Marc
Proud
toys
quarantine
wart
trusteth
workshop
ventri@@
grabs
coding
sector
chastening
buttons
vels
Comfort
NH@@
2/@@
sheds
Bhu@@
simile
rens
Soul
choirs
forbade
optical
Frenchman
militia
132
isolation
atters
'Oh
ATA
roadside
IV@@
infer@@
omni@@
aug@@
deformity
stack
Hub@@
scrub
weaken
Speech
fervent
propiti@@
Sorrow
unn@@
stine
Hir@@
distributions
Gren@@
surnamed
mism
Cav@@
ulate
Lycoming
Ochran
Animals
gra
parcel
Berg@@
wrongfully
ppo
lip@@
Sawyer
Hath@@
Forsythe
cast@@
Recab
violinist
Tehsil
fornications
mma
Hard@@
mits
mith
lightened
simp@@
one-fourth
pig@@
plough@@
collectively
agitation
tasting
Dryden
Sever@@
candlesticks
slandered
Ibzan
Form
Tang@@
hideth
Zealot
entrust
Gas@@
obligated
beg@@
limitations
circul@@
subordinate
athletes
Kerethites
prevents
vite
lapped
Lad@@
waking
dramas
Guph
toxic
rodents
laugh@@
edo@@
mortally
jokes
arius
discovering
shorn
nettles
paralysis
Pav@@
tensions
_A
ech@@
acity
cassia
cherished
Matthat
Apoll@@
Braille
managing
contemporaries
McC@@
sighs
relaxed
dislike
reproduce
installment
bunches
Binea
assu@@
ount
quartz
Ward
awed
webs
14-16
rub
embarra@@
2-4
joys
alpine
zur
invent
world-@@
stoop
adulteries
TER
Arena
Leicester
Tale
calmed
vaguely
Colony
athed
xim@@
expe@@
ministration
gling
Grac@@
transition
tres
origin@@
strewn
Norton
151
theaters
Sepher
sq
drow@@
cite
uterine
hew
tain
steering
potent
consistently
happ@@
segment
Thunder@@
posed
boxer
capped
selects
View
xt
Mozilla
Revol@@
_I_
committeth
simpler
Liberty
GE@@
wreck
comforter
planetary
Strip
7/@@
bravely
exquisite
Case
Siberia
villa@@
Dedi@@
Dante
All-@@
ross
Mathemati@@
fees
happen@@
Siena
Curtis
bble
vah
grati@@
Basic
guinea-pigs
heartily
oli
lities
friend@@
prostituted
Past@@
abolish
undertaking
puff
cinema
marketing
`We
substanti@@
poetic
intercede
Cd
alty
EL
nomin@@
dal
disregard
proximity
portable
toilet
Opposition
comb@@
ta-@@
principalities
Manassites
Blessings
Mahler
counci@@
Dist@@
consoled
sorted
postal
seating
saidst
art@@
charmed
Lonely
Jinnah
Kirjath
cons
s—a
snout
anas
jolly
mulberry
fier@@
enforce
wra@@
truth@@
stag
mammal
Giving
Feli@@
gourds
Action
clou@@
hydr@@
distributing
ONS
Capit@@
unfamiliar
som@@
web@@
Ground
patriotic
spurned
acheth
startling
bourgeois
shie@@
autobiography
650
clip
Actress
Sugar
telegraph
famed
Apart
Yar@@
Hazar@@
meteorological
indoors
determines
Ranger
luncheon
assi@@
Fifth
surpri@@
Sukkoth
sier
quota
Refle@@
Goodwin
mobilized
Israeli@@
loving-pity
knitted
Grain-Offering
ecliptic
Tol@@
rez
Anti-@@
horse@@
Performance
mean@@
ng
Proceedings
stock@@
oks
RAN@@
—those
cultivate
But@@
Biblical
locking
Veracruz
K.@@
thirty-ninth
Soto
gateways
Angel@@
fawns
Buck
pow@@
adah
Drama
Reverend
Tigris
Written
illustr@@
v.
pretense
presenter
Stu@@
Plymouth
kat@@
Scale
followeth
_International
Zaphon
Arch@@
clods
longsuffering
4,600
Cohen
sober@@
Sabeans
skating
,8@@
ventured
devastating
clinic
tera
wanton
intervened
laughingstock
goldsmiths
curi@@
palsy
Kru@@
elev@@
mounting
BR@@
tours
wavering
input
`Come
suffragists
theori@@
u-@@
humor
Cardinals
ater@@
1834
horse-@@
Kenneth
Sixth
drawers
Galileo
Encryption
splendour
handi@@
gleanings
Phili@@
staggering
textile
terebinth
improvements
Mou@@
deb@@
30-31
screenplay
Trees
sso
perspiration
spinal
spends
Different
ecstasy
starved
timbers
1839
dwind@@
idly
wholesome
variable
sponsor
encies
Eura@@
forty-@@
brotherhood
stallions
beverage
antichrist
carriers
scripts
peer
Dir@@
heart-@@
Night@@
confinement
embroiderer
frontal
Flying
multiplying
rift
weekend
Forever
142
enquired
drenched
Assuredly
conven@@
left-handed
deacons
Betty
Physiology
annihilated
Nov.
—how
treatments
42-@@
Tou@@
arium
directors
Goldfield
cott
porting
Jura
doin
mene
FO@@
ae@@
Davies
racial
sick@@
DES
chin@@
Arkansas
erial
graph
ronites
feats
honours
Vaucluse
adap@@
Clar@@
advisor
notices
vector
corporation
invaders
Wond@@
ffer@@
chal@@
wiki
tub
Acade@@
German@@
attle
annexed
equilibrium
arean
profit@@
granite
1819
denounced
1827
right-@@
invoked
votive
ership
rimmon
surgical
tec
equation
jumps
Try@@
Peniel
commented
Drac@@
exposing
155
158
ority
Boy@@
Habakkuk
zahab
Jakin
fours
admi@@
Ferguson
scribed
thon
Swinnerton
aground
accompaniment
tali@@
triumphant
chun@@
Kad@@
shooter
gleamed
Kub@@
edification
pic
Italians
Appe@@
245
Regional
Township
Andrea
pau@@
Santos
canoe
warmer
constitu@@
bulwarks
rudder
myriads
Estonia
glances
migr@@
crews
decorate
Chalde′ans
omyscus
twin@@
Colter
slower
Ever@@
ahn
mour@@
Judahites
133
fami@@
Institution
linger
mys
Ron@@
disagreement
third-@@
Mark@@
publicans
sau
alls
tto@@
Kla@@
fortune-tellers
Hattaavah
ahi@@
prosely@@
offici@@
Thir@@
vehemently
swelled
multi-sport
Melina
186@@
TON
utility
saic
tolerance
162
zen
Féin
Hart@@
inspector
methane
Opeth
Introduction
postage
hernia
isle
materi@@
Brunswick
tai
law-@@
ting-@@
interpre@@
LC
silver@@
Donovan
angu@@
Sas@@
green@@
ointments
pard@@
extrac@@
fifty-three
enforcement
phan
rhythmic
prope@@
erman
flaws
Onesiphorus
ERS
Ichabod
labours
taxi
1854
Julie
prohibitions
Bez@@
wy@@
hilltops
Meunites
Fellow
hito
profess
bearded
question@@
ens@@
Racing
waiter
Provide
trespass-offering
neut@@
purifi@@
cub
dresser
lengthe@@
Mig@@
Elea′zar
1806
mination
corrup@@
tasty
Eternal
plaza
leveled
Former
oux
feigned
176
bled
road@@
spect@@
set@@
Deb@@
reas@@
Explain
preventing
valuables
revel@@
Treasury
xton
zel
llowed
tains
thi
susta@@
Sib@@
Pablo
Illu@@
reven@@
Speaking
drowning
proceedings
Northwestern
oles
Eigh@@
Roden
terrace
spreadeth
funding
ming@@
humanitarian
Beerothite
flanks
tresses
rea
dorsal
Liter@@
Additionally
geon
Hera
Electronic
Ceres
Electro@@
Bertha
tee
sticking
necess@@
Duc
Const@@
Zeboim
XVIII
believ@@
frail
ather@@
875
antelope
Zicri
supervise
Patriarch
deliberate
distorted
Portsmouth
Wer@@
Parliamentary
spleen
frenzy
persist
ises
6/@@
arsenic
seven-@@
kidn@@
Schwarz@@
prise
aters
cycles
consci@@
afore
Publius
obtaining
invades
endeavor
Woods
witn@@
Railroad
lai@@
meri@@
vac@@
Shan@@
30th
misled
consol@@
kneading
1⁄2
outlet
Minneapolis
Bayreuth
hoth
Eisenach
unloved
mmi@@
shua
1778
nin
I.@@
1833
Gul@@
mon-@@
Store
yon
Ashhur
Writers
animal@@
rampart
cough
sharper
predict
coroner
cub@@
electoral
U.@@
Lebo-hamath
landmarks
Montgomery
Gat@@
recite
concent@@
kit@@
ov@@
GP@@
Double
improvi@@
IC
lavish
fax
laments
collateral
peeled
itudes
—his
Novel
destinations
1838
mel@@
oba@@
Lu
Oracle
grasping
perfumer
persecu@@
Ec@@
inex@@
upper-level
Tidal
Ald@@
Oct.
blocking
stration
inde@@
reserv@@
bot@@
Nazar@@
obah
insomuch
functi@@
diment
barri@@
Intelligence
presumptuously
Anu@@
precip@@
kicking
bowstrings
bor
sav@@
convened
km2
swamps
anathema
Id@@
Jim@@
patriarchs
Bennett
Gary
ér@@
black-@@
exceeded
prosecu@@
dry@@
medals
atta
Paphos
brigh@@
shillings
ories
conspire
psychedelic
Croatia
frowned
warring
Irijah
oweth
muti@@
integral
CPU
funnel
sliding
27th
veteran
Shade
seeming
click
publicity
Calgary
nat@@
shriveled
16,000
needful
Elishua
stewards
Kinton
ssion
Ness
Thousand
Vai@@
agit@@
dez
odds
deities
sors
var
152
Cruz
Cornell
Spar@@
outrage
Annie
Methodist
oblations
1853
shaping
tamarisk
Danny
Need
checking
command@@
propri@@
uk@@
savory
Scene
scan@@
unified
acles
mond
leftover
Terrors
Catarina
Haro@@
28th
.=
.3
sullen
cellular
ateth
Popular
coated
damn
David@@
doe
02
vaginal
exhorteth
Clement
atics
hearer
parody
smear
USE
comparing
assumption
marty@@
abad
Meh@@
Want
—everything
sentimental
du-@@
Symp@@
Ebed-melech
Biol
exhorting
dowry
grow@@
Punk
Baroque
118@@
23rd
240
falcon
ket@@
oda
repu@@
Tertullus
lal
Presbyterian
Hig@@
ponder
ily
Roberts
athaim
Harding
hia
smoo@@
undo
scoring
acquit
M-@@
164
Forasmuch
occupies
Week
43-@@
Tonight
Aran
correspond
relativity
Pam@@
rist
admir@@
10½
sens@@
combustion
Locarno
abhorrent
awkward
realistic
Minnie
ggi@@
1.2
huts
unfaithfully
tality
`Is
jected
Sach@@
sedition
ves—@@
Hay
Dung
dded
dden
admire
underwent
flush
Leafs
emblem
én
essor
burdensome
correspondence
sight@@
pse
97@@
impres@@
tine
rad@@
zers
Rechabites
fillets
XX
abi@@
Lutheran
Textile
optimi@@
flavour
Francesco
phies
Higher
mod@@
snatches
pretext
Chri@@
Roi
McCo@@
monstrous
conclusions
Xi@@
Judith
Kes@@
People_
wove
wheel@@
cabbage
sleds
defe@@
aviation
geology
aki
Jack@@
Side
chastened
Armstrong
Falling
incidents
venison
frown
Alex@@
verb
XL@@
performers
voters
ensued
constrained
horribly
vius
Malchishua
`He
communicated
vals
terri@@
prefect
hedges
Fallen
mu
Chapman
millennium
lenses
day—@@
Begin
cutter
compulsion
ratt@@
pu
saturated
noi@@
Roll@@
brutish
Tabernacles
hog
east-@@
Constance
Beat@@
inter
Nahum
Progress
Guang@@
shortest
enda
vein
Management
paces
dles
cas
willow
nutrition
Coburg
fifty-five
persuading
_O@@
.7
Amp@@
bakers
song@@
eal
Davenant
FA@@
Fraser
Monroe
impurities
simplest
Municipality
ason
arbitr@@
tern@@
compilation
gai
singly
rallied
spelt
athy
Henri
mort@@
grasses
Il@@
firepans
stomachs
carnelian
pos
premature
lites
pond
Types
compiled
Shinto
pon@@
artery
steadfastly
Preserve
*we*
granting
eson
Altamira
Hotham
congregations
sacked
caus@@
ddy
pic@@
ingenious
tle
roman@@
Icelandic
Rica
terrific
cycling
approves
Southampton
database
Chinnereth
moder@@
sorely
chalk
disqualified
duo
recruited
Paltiel
217
Studio
editorial
Kh@@
comedies
monks
wing@@
servant@@
Jez@@
Mickey
PAR@@
Ming
young@@
Rep@@
IOC
flare
perennial
Marvel
'With
Tin
37@@
tap
sks
acade@@
Micmash
fic
Generally
Eredivisie
abase
alig@@
gni@@
extravagant
Tali@@
kab@@
preci@@
vern
cylinder
cooled
banquets
tman
Spot
ees
sketch
Off@@
determining
Owen
Shane
Bio@@
Evi@@
returneth
Zepho
traversed
transl@@
Beth-lehem
collision
mmy
oes
packing
Zoo
Meholah
welded
Ginnethon
Merarite
wanderer
Quin@@
men-servants
Jada
Sur
similarity
Hooper
Bed@@
prophesieth
alter@@
forefront
Jon
esi@@
pant
asylum
18-20
symmetric
deputies
fragile
lending
Fel@@
melancholy
youngster
digg@@
gigantic
fore
sities
vores
OT@@
ulty
enveloped
fou@@
assignment
Andrews
Istanbul
35,@@
writhe
Huppim
shrank
Quarter
guer@@
displeasure
Seer
east@@
kil@@
Fanta@@
undergarments
affections
Bow@@
weak@@
Aristotle
Basin
funded
inflamed
sele@@
ctured
prompt
Dis
Lesser
Rene@@
hathites
550
judi@@
Fru@@
athletic
anew
cam
Oce@@
eb@@
banana
Hiz@@
Cedar
sport@@
Enri@@
Butter@@
Gileadites
Plautus
grunted
conquering
photo@@
transgressor
butt
Mol@@
_no@@
Odysseus
es—the
weth
escorted
Bruges
án@@
pect@@
Mattathias
excuses
collabor@@
mata
zen@@
RAF
Charlemagne
deeps
tful
adop@@
crustaceans
tanner
sucking
inaugurated
née
pleas
favorites
138
OBE
Plata
atl
incomplete
annah
wentest
certi@@
Tao@@
Flair
eta
garage
imperi@@
Swan
satisfies
thyroid
Cambri@@
loid
conscripted
mpl@@
ians
Sei@@
crevasse
diversity
hosting
Matred
forfe@@
one—@@
Éireann
Esarhaddon
Ishmaelite
Fighting
Edo
Joseph@@
proteins
yest
forecast
yman
merit
faileth
prevalent
patched
lib@@
moose
pseud@@
leather@@
Lob@@
ize
premiere
Á@@
six-@@
Wings
withstood
lengthen
Instantly
shame@@
Principal
Notice
Fate
'0@@
1600
430
'David
Everett
Patt@@
gree
'cause
rattling
costume
Shebuel
Enter@@
glare
Straight
tucked
uth
Training
dress@@
Tears
cellar
Pisa
prized
fooling
Cushites
haughtiness
Environment
proconsul
emphasized
twit@@
edible
Amer
peaking
Cornwall
enig@@
yaw@@
Provinces
day-@@
paste
'Tell
sulphur
acclaim
plight
Saf@@
aw
Humble
Potiphera
sleeve
ported
Mikoto
spill
ptic
mption
Presidents
nove@@
Chaldaeans
horus
34-@@
enny
poureth
rewar@@
Hey@@
Fini@@
1795
missile
recognizes
ju
drainage
unthinkable
cists
dolls
enton
caravans
hugged
sic
marvelled
grumble
Phy@@
teries
Curitiba
algorithms
reflecting
misleading
EST
realise
musi@@
amend
screens
three-year-old
onah
NA
fon@@
Untie
symphony
Giotto
Gazette
improving
Copper
insolence
Reef
Leading
quer@@
Cere@@
Cove
Leg@@
gain@@
nered
1814
genous
re-elected
Conservation
psalteries
Legacy
indecent
oti@@
positioned
Powerful
Ano@@
enting
Ana
tiles
Wear@@
isolate
stockings
tat@@
dependable
iter@@
Married
harassed
denarii
serv@@
thornbush
tow
Confederate
Sephar@@
Austro-@@
refusal
Psyche
Diamond
orchestras
Catholicism
dramatically
Nab@@
reversed
sequences
sojourning
French-@@
Tim@@
Amelia
Helkath
tidal
derive
essed
Guin
lantern
avo@@
Sexual
bolted
photographer
Izharites
Amzi
Bü@@
Aca@@
Lun@@
lender
MRS.
st_
16-18
habitats
glowed
additions
Gorge
unting
deformed
Bonham
laz@@
fragment
repulsive
Classic
Pahath-Moab
sever@@
executes
partition
Bradshaw
compression
éri@@
lications
Bucking@@
toiled
Paterson
Sean
trust@@
ène
engineers
Practi@@
broadly
kam@@
Nergal-@@
smelling
prefer@@
Fat@@
implies
Bered
Meilhan
civilizations
'To
rememb@@
suffi@@
World@@
Din@@
Shamgar
Shuppim
Herodians
nouri@@
rence
collects
architectural
sparing
chip
Model
Skin
shrill
Meteorological
growled
outlook
default
ruleth
pact
Allow
constitutes
`Because
noun
5000
racti@@
advertisement
three-quarters
SW@@
ambushes
cherry
Augusta
donations
MVP
prejudice
chner
confiscated
Arrest
Shire
Jiz@@
zias
artillery
are-@@
Gederah
Wilhel@@
cheers
HMS
imagery
corresponds
iz
Pot@@
Bonn
Rush
whereunto
exhaustion
lads
woo@@
Clarke
injure
chop@@
outrageous
lition
likened
summer@@
Tahan
Ingolf
tokens
facto
Survey
hewers
gestation
Bologna
pel
Buddha
electronics
environmental
Terogloona
Ep@@
heral@@
17-19
à
flor@@
unawares
thermometer
Tulsa
fen
spur
Qui@@
Imri
contam@@
shipped
Glo@@
mane
experim@@
Derbyshire
parallelism
systematic
T.@@
slim
vivi@@
mitt@@
slave-@@
xi
Alc@@
instrumental
yl
Vezina
farmland
compatible
tribulations
syndi@@
,0@@
Broad
aya
Characteristics
mixes
hideous
ssen
malignant
circling
superficial
Aboriginal
Curi@@
lapse
o'er
ct-@@
ideals
gloriously
Kids
paved
bountifully
archives
recounted
PS@@
axi@@
Tou
Alexand@@
rightful
ensign
tropics
flea
plow@@
Wittgenstein
Zab@@
Cole
hol
seri@@
ished
cently
Anton@@
Pisidia
Palestine
Bay@@
diff@@
adjusted
Sno@@
Good-bye
avoids
Continu@@
bath-@@
dishonors
arrondissement
overcast
surveyed
Conaniah
obstacles
BY
devises
perdition
updated
deep@@
Choice
finer
plump
drawer
rema@@
duchy
tle@@
ranged
favourable
Pelonite
NY@@
boulders
sleek
oste@@
confron@@
pitiful
Anni@@
lamb@@
Spread
fiber
Sirs
burgh
Kibroth
390
ornamental
darics
sermons
edged
24th
miah
mournful
cool@@
thriller
Inte@@
Individu@@
perishable
inged
bereave
rint
losses
spring@@
nothing@@
soweth
TA
Netophathites
Libanus
kinson
discreet
Ba′al
Deuteronomy
Graubünden
Ay
old-@@
ah-@@
Student
Rhode
Cassilis
intermediate
cavern
Gallim
Billina
Vale
coitus
irritated
Assos
Agabus
sequ@@
tenure
bulus
nourish
ention
relax
Soc
Kingston
Jochebed
Keith
gons
Cameroon
Shil@@
clocks
defines
Kirjath-@@
beckoned
bree@@
Scy@@
footprints
400,000
traffi@@
ault
Fifty
edema
winnowing
cyst
Instru@@
Officers
sted@@
acqu@@
puzz@@
ASS
Nehelamite
126
Elbe
Hinduism
chants
reno@@
ddle
DR
pavilion
congestion
daughter@@
Rulers
kor
alog
paralle@@
Pag@@
Bill@@
Ahar@@
supporter
sky@@
rals
wark
Bohan
nell
holi@@
ICE
Male
dum
ckets
dyna@@
unites
Duane
'Well
house-@@
rickets
ctively
Neph@@
dawned
strolled
Danube
**
Metho@@
tenor
au-@@
mightiest
oxide
full-grown
truthfully
intercession
recipient
Amadeus
pain@@
communed
aj@@
amounted
sals
Sacramento
withal
Bron@@
Doc
Spaniards
pornography
humorous
ograph
Ill@@
CEO
jack
Poet
Ellis
enon
o'@@
Gim@@
Ela@@
Ciudad
Theophilus
Cherubims
disse@@
Gellar
llum
Meas@@
Olympiad
findings
sah
canoes
deceivers
Encyclopædia
ody
Galli@@
efully
before@@
Sirion
clues
nis
evidences
etz@@
Bang@@
Caphtor
CN@@
Interstate
kel@@
blindly
Understanding
journals
repays
Vas@@
carve
169
Nisan
crane
stretcher
sno@@
disregarded
Sac@@
Lenin
bean
Bright
Sey@@
disap@@
tique
ensnared
fret
jambs
Slovenia
muster
Kab@@
symbolic
fly@@
corpor@@
calamities
hamites
Jr
zza
dill
Dat@@
dictionary
fier
Lanarkshire
raiseth
genesis
boarded
beneficial
Estab@@
33-@@
bandits
seminal
Chil@@
Bunyan
sin-@@
conceptions
obliter@@
clients
irrit@@
entities
leftovers
Artist
boro
attorney
wav@@
brightest
inter-@@
merciless
Traditionally
Johns
popularly
kem
cene
adulterer
Thunder
quartet
emul@@
defen@@
caterpillar
Bahamas
loa@@
Father@@
swoop
48@@
Rogel
love-@@
composing
Strangers
Romanesque
lintel
129
surf
Bombay
revolutions
Capitol
seventy-@@
fortnight
Website
hamshire
mund
ppers
Mithredath
2,700
Ref@@
bends
Aven@@
deg@@
exports
straining
Elasah
vou@@
formidable
-shaped
Madon
rehear@@
Bear@@
Plead
Circumcision
forge
Glad@@
sons—@@
vs.
flogged
millstones
much-@@
scrap
oil@@
Fisher
Deutsch@@
non-Jews
Ain@@
aperture
clergy
thought@@
Scots
gical
minate
oriented
impro@@
ank
Lachlan
Esp@@
chuckled
30s
faculties
eared
thians
1763
disdain
snap
ström
logically
scratched
liberation
perpetually
bloodguilt
Donkey
Lines
Isma@@
scratch
panting
ppi@@
burnished
19-21
abhor@@
Explorer
copy@@
abor@@
arity
inventions
attributes
wave-offering
Gob
penit@@
fair@@
Shup@@
sturdy
coher@@
feller
issuing
dukes
Hak@@
verti@@
orph@@
scolded
Atar@@
ruptured
slung
Archer
gah
surging
ado
complexity
jungle
Raven
disliked
Arkite
alai
Main@@
Scienti@@
Pull
Inn
1789
Madigan
hil@@
luc@@
Aladdin
ID@@
Shillem
Trac@@
beset
us—
Important
Pascal
locally
fted
ziz
Bull@@
beatings
07
Tikvah
hike
miniature
nic
DJ
box@@
guitars
counsellor
trifle
thirty-seventh
Ammi@@
Cherry
Observ@@
Stand@@
eron
onitis
Telem
cautiously
cruci@@
shou@@
bab
dang@@
licity
pal
Sonora
abi
arteries
Helper
Anjou
incre@@
errand
ampli@@
ord-@@
he'sa
uno@@
G-@@
escent
flakes
Came
Remind
Juliet
evacu@@
store-houses
priest@@
positively
mbs
Merom
carrion
superiority
grub
Beyoncé
Brit@@
buffe@@
Wak@@
Jehoiarib
shittim
Maxi@@
Ordin@@
forty-six
Merckx
RC
Jeff@@
rine
Led@@
anchored
hoisted
Broadcasting
consistency
reviewed
mucous
role-playing
Burg@@
bee-line
Epaphroditus
voice@@
barbarians
Sag@@
149
Plague
Shepham
Dele@@
Jaakan
cryptographic
slanderers
bath@@
Deut@@
Schwe@@
Iraqi
ces@@
prophe@@
Anarchi@@
Alexandra
tress
dairy
Providence
inians
regulated
precision
kangaroo
farm@@
vap@@
cerebral
obscurity
nourishment
173
lawgiver
Shakespe@@
Cease
groweth
definitions
Düsseldorf
hypertrophy
harvest@@
pression
cott@@
Near@@
337
Elu@@
thiel
disapproval
earth—
Award-winning
anga
Tiger
selfsame
Nepal
Lockwood
dregs
Psycho@@
nearing
Sometime
asu
Navarre
CM@@
consultation
vir@@
Oth@@
inherit@@
nea
enclosure
albedo
75,000
Cappadocia
avai@@
enan
certified
spirited
Georges
Kle@@
Hali@@
retrieved
tent-@@
Mei@@
Ré@@
Altogether
culars
—when
participating
Areas
moat
Speci@@
forbidding
deployed
Competition
Penny
Hier@@
presume
dise@@
Bartholinus
Hodge-Lathrop
adventur@@
sprouts
Cushan-@@
Warwickshire
Juttah
legged
whirled
scoundrels
inju@@
husband@@
qualify
vertebrates
respiration
Holocaust
32,@@
fixing
olive-@@
resign
pleasantly
authenti@@
Shirley
money-@@
wal
slap
Sum@@
enly
assert
advisable
soot
generating
oners
Reorganization
illy
Furby
levitical
Exalt
apprenti@@
overflows
garland
robs
paras@@
conqueror
wipes
perver@@
Dane
kidnapped
lds
Nimrah
excused
Unclean
für
monkeys
bandages
incarnation
Kangaroo
clearer
inflation
'Abdu'l-Baha
pts
Jak@@
critically
suckling
orate
holidays
hesit@@
specialist
Basil
upgraded
Holmes
Virgil
arized
man-servant
rh@@
ffer
new-@@
resume
Pauline
Bastille
Stein@@
reveal@@
terrorist
Atro@@
Digital
decidedly
gatherers
indul@@
,9@@
llar
placenta
affe@@
Soco
sundown
circum@@
ram@@
Mason
flora
gasoline
jection
Sax@@
Tin@@
Beth-shean
sift
dishonestly
bius
argues
pah
Stacey
grac@@
lecture
Ether
royalty
Stat@@
Flash
anese
summoning
Contest
Jew@@
Welfare
iga
Lyca@@
mme
albeit
font
selfishness
zzi
centurions
entary
congrat@@
Bali
rotting
wooded
Hammath
morally
Person@@
universally
haz
WIL@@
partments
suspension
Alicia
Clean
seed@@
Pale@@
Cabell
Grain
Cin@@
idleness
Madai
even@@
wring
Warrior
phon@@
plumage
Lomb@@
Liebknecht
Helleni@@
guous
foregoing
Ship
verbal
he-lambs
protruding
Preston
saveth
vampire
—whether
cataly@@
affli@@
accidents
modification
Rue
geons
rattle
1770
Romantic
plen@@
det@@
peppers
consul@@
Interior
Nord@@
lais
terly
well-fed
envi@@
1809
forearm
Madame
Municipal
fic@@
Shaaph
Nib@@
Media@@
cautious
Rod
Cheshire
Belfast
Heli@@
draining
twenty-second
exce@@
bodyguards
Sky@@
Nephilim
invent@@
Alberto
winkle
infections
slang
se_
secretaries
wrung
Republicans
Tampa
deno@@
cheering
usen
circuits
Conne@@
Helek
quest@@
Destiny
Hurwicz
adverti@@
Adna
cherubs
Judy
Byron
pad
impoverished
Comple@@
tackle
Chili
delighteth
floe
'Leave
ESS
washes
1828
vious
induce
Gadi
statu@@
Canst
Half-@@
neurons
Aztec
discourage
Zan@@
nier
embarrassment
cutters
Players
Forty-@@
theological
desecrate
ordinarily
diagram
Carol@@
Sah@@
Jakim
Hammond
Croydon
Kirjath@@
eled
Accessed
vail
ckout
use@@
modern-day
attered
lite
overlooks
Gether
Nottingham
Jeuel
disper@@
Communic@@
apprentice
grain-@@
experiencing
brokenhearted
Hermione
Kath@@
sewing
quotation
mitre
32-33
Teresh
roy@@
Hap@@
husks
Cultural
Avith
Alcock
Tirhakah
gens
exploration
reserves
Emirates
eper
Riding
naught
itus
Spani@@
outdoors
Zel@@
Augustine
food@@
destru@@
outwardly
Crispus
Maggie
mutant
1798
Manuel
Labor@@
hof
addicted
spinning
Victory
power@@
itous
dainty
choral
haus
eclipse
commercially
Palestinian
Whereupon
sojourneth
dop@@
verte@@
Beelzebub
prospers
Refu@@
oppressive
Luc@@
Azazel
scriptions
Jeho′@@
Jetheth
Helam
cruise
Gaul
Euro@@
Selby
hoods
Murphy
evil-@@
whisper@@
3,600
disastrous
fruit@@
Grow@@
Medan
contradiction
Bath-@@
Lie@@
explanations
arming
positi@@
Miranda
utes
clenched
Jehosheba
Raj@@
liqu@@
gifted
esa
hoarse
Israel—
kiln
stimulus
breathless
unlimited
shad@@
fect
onions
candles
zh@@
Fuller
Chiefs
Self-@@
complications
cooks
liance
steam@@
merci@@
Pepper
Communi@@
ceramic
invol@@
190
iding
delicately
face-to-face
opti@@
doorpost
jam
Head@@
Berkshire
Nere@@
travellers
sieve
increaseth
TA@@
Sabat
ST
boweth
predators
porcupine
gions
Abim′elech
21-23
pto@@
Sie@@
Crystal
triangular
Austr@@
ingredients
resistant
targets
Seville
Montenegro
trams
husbandman
distracted
Pahath-moab
35-@@
Albany
translate
dign@@
Malchiel
thou@@
Administr@@
Thyself
Fortunately
shrew@@
Mathilde
psychi@@
Lancaster
Carlo
wood-@@
Armed
Teko@@
bandit
instructor
shaded
rottenness
dev@@
Sul
carrier
repute
Bolivia
scoffed
corp@@
Zac@@
Hul
refining
rages
Ripley
RAID
Cork
sparingly
Rein@@
analogy
ad-@@
zite
momentary
wildlife
clergyman
zeh
expanding
tossing
Adriel
Dama@@
Youn@@
tree-@@
comics
anos
billows
asm
Mibzar
ctly
lish@@
Cly@@
synthe@@
ally-@@
jack@@
Dorcas
batter
copying
quick-@@
Streets
rung
cooperation
shuttle
Houses
Emerald
Aramaeans
lage
ninety-@@
Elzaphan
Countries
Rex
cloven
poli
Corne@@
Letter
Linus
Reynolds
Singh
Enjoy
chaste
Bedad
impress
Unity
addeth
raining
elegant
blasphemes
strate@@
157
ped@@
Centa@@
demonstrations
Baha@@
quin@@
Bithynia
ticism
Limited
Fahrenheit
chario@@
evacuation
Program
Haggi
versus
incess@@
erson
—then
pertain
uneasy
Reach
le—@@
Yerevan
erection
Ithream
quie@@
virtuous
literacy
strengthens
Meunim
mischievous
Liberals
Kun@@
erosion
43,@@
Macedonian
lease
diti@@
tenons
lter
stedt
Oxfordshire
Anab
arising
tarian
Generation
lesions
wonder@@
minary
Tiglath-Pileser
Salt@@
Evi
Eva
clutch
butterflies
Hydro@@
UCI
medicines
Irishman
appeased
136
badger
eau
Def@@
eping
Heights
1,9@@
Summon
intimately
gliding
aide
reassured
Regarding
Miguel
mollus@@
Strange
charred
Pohjola
bier
Pithon
jn@@
sandstone
anca
skyscraper
Game@@
lim
Grow
dialogue
compla@@
nites
undy
Melek
lured
waterless
rock-@@
dites
nectar
appetites
mouth@@
Azor
'ye
Swa@@
nano@@
Eldad
vina
reson@@
Zedad
ists
collap@@
acknowledges
rugs
enslave
cape
sycamor@@
burn@@
tock
originates
mill@@
Uthai
churning
tren@@
wny
Oakland
denti@@
Petro@@
displeasing
privileged
glacial
an—@@
prospector
swa@@
sons-in-law
Abimael
Dai@@
Eliam
professors
Ulai
Archippus
quicken
untouched
All-powerful
carbon@@
Irad
worshi@@
Zerahites
Eshban
zhou
portraits
erer
sour@@
Rezeph
import
psy
discer@@
Electri@@
reformed
masturbation
aprons
dissip@@
Ashnah
ame
Milton
liers
Saddle
1775
Gutenberg
Archive
141
Guatemala
Luigi
sensiti@@
staged
griddle
är@@
auri@@
cafe
Sahara
eur
aked
monopoly
tranquil
tumbled
Shilhi
Ephra@@
militari@@
Telt
CC@@
um-@@
tura
treas@@
mara
Eri
Zophah
Democrat
Wesley
tournaments
Kenath
dotted
invested
impul@@
jur@@
Balti@@
Doctrine
genic
Sheleph
Abda
ses—@@
ength
joy@@
Jessica
insti@@
Forum
send@@
al_
ppe@@
Ashpenaz
squadron
hotter
Hethlon
scaffold
Elzabad
goose
Gazez
objective
flattened
splitting
Sainte-@@
f.
gasp
GHT
Habsburg
Métis
evaluate
Palti
Scarberry
Ozem
Chelsea
Noadiah
progre@@
TUR@@
zon@@
bili@@
Pinon
ickers
Luhith
kindnesses
kirchen
Timb@@
Diklah
ider
leaf@@
Sarid
citadels
Rose@@
Dress
Lucky
LS@@
Zetham
dera
Airways
Hezir
Chemical
abounded
Calling
Paramount
gaps
45-@@
1821
devoid
modes
armor@@
Nebula
Adbeel
debated
2.0
3.5
3.0
drink-offerings
Exam@@
mined
Feder@@
Times_
Orpah
thrilled
Timor
agne
seamen
sleepy
utter@@
contributing
som
magnetism
Atonement
Alvin
unveiled
corruptible
O.@@
table@@
Sosthenes
sorrowing
François
blaspheming
graduating
menu
retina
Yesterday
watchers
Isa@@
anatomy
ght-@@
methath
repents
yim
mone
Asc@@
Magdiel
crab
clouded
Relations
Nimrim
Pethor
exhibits
Jemuel
crimin@@
Catal@@
conduit
yu@@
Thanksgiving
inhabit@@
All-Star
habitable
vice-@@
dinosaur
Ishbak
cop@@
obsolete
'Son
Mud@@
three-tenths
hauling
cyl@@
′rah
Mysia
Meshillemoth
liter@@
tius
viola
umbilicus
Universit@@
ALL
ALS
Shuni
igning
Andreas
digit
Plato
Abishur
Historic
ambitions
Seled
Famous
Tong
epiphy@@
blinds
resentment
Anglia
Comb@@
imb@@
Sered
Dig@@
invalid
Decapolis
dissol@@
laboring
Gonz@@
Harrisson
govern@@
ttles
Ubuntu
lateral
Zenas
retri@@
cking@@
Helah
emerging
employee
maraud@@
Co
manual
bers
FIA
Stalin
influ@@
fuller
Gethsemane
abo
Amok
Hern@@
displease
Bangui
famished
Ohad
Na′@@
dietary
Shashak
Pomer@@
Ezbon
Medad
rhetor@@
empires
discomfort
connectors
incorruptible
hijac@@
Zedeki′ah
abandoning
Rogelim
orable
Hammon
fearless
Gomor@@
Gittaim
applause
attitudes
branded
Giuseppe
ush@@
Jerah
Chemistry
Nogah
anno@@
odo@@
273
dream@@
acon
Zabdiel
ont
Besai
195
Nero
abandons
dder
spiny
harnessed
XVII
Roo@@
rapper
Jake
silversmith
`Son
anta
Frank@@
ferocious
acle
loneliness
luggage
non-profit
Franks
Radi@@
Shobach
Twi@@
Areli
pulp
ocese
safer
accredited
ulating
commentators
drach@@
enquire
Calah
Manager
Adullamite
1804
differential
Jahleel
Burning
Kue
mercenaries
span@@
equations
commit@@
Ranch
pyra@@
attah
Abital
thirsts
Laugh@@
oud
Dise@@
los@@
ultra@@
iron-@@
cter
bi-@@
Sheva
developers
calculations
guinea-pig
Amphi@@
mountaintops
breakdown
affection@@
dson
Mills
ardi@@
Franci@@
Aramites
Hend@@
Zen@@
gement
ights
Norris
darted
heroine
Kirk
ici@@
atting
liking
nel
clinging
Chamberlain
ovens
Conductor
12:@@
c.c
kok
bellies
Dob@@
knight
shta
bran
surpass
lionaire
Aha@@
moment@@
gou
AFC
hold@@
right-hand
Enemies
Liszt
Lieuten@@
rar@@
Armageddon
Zabbai
Shaalbim
ckling
Erin
imperishable
zy@@
Lincolnshire
Joac@@
Bernstein
creed
Kolaiah
154
159
sp
pronunciation
mant
Milwaukee
MISS
quarter@@
foot-@@
forefathers
listeners
fatlings
defraud
prune
Beeri
ail
ain
progressed
crossings
fish-@@
-ha@@
elli
anarchy
tendencies
rectangular
understandeth
Sedecias
stuffs
Hahiroth
apostleship
withdrawal
lectures
Rever@@
kneeled
Glorious
strasse
eae
Waterloo
implemented
Athletic
MIN@@
achi
ennes
ante
Overseer
half-hour
Murder
dgment
Tunisia
apolis
jointly
Azaliah
Diagram
Glen
Yang@@
Chenaniah
lustful
cupied
imposing
joking
despoil
Clan
bystanders
Melchi
const@@
Vanity
holden
Babyl@@
clatter
labels
turtle
quits
shivered
Formerly
summed
Nauvoo
darken
defends
meg@@
surpassing
zin
cke
š@@
McDonald
Wool@@
mud@@
insufficient
cleaveth
Siege
airplane
1837
favoritism
mp-@@
Jehoad@@
Lemuel
Assistant
kinsfolk
time—@@
chartered
Mourn
Bronze
www.@@
subfamily
omen
people—
pat
Kaz@@
gore
mornin
fea@@
downcast
enjoined
GN@@
opher
50th
Feature
e.g.
Adnah
ferences
Wimbledon
venue
Rakk@@
detained
vanishes
perversity
exclamation
esome
multiplies
Eglah
Bethe@@
anvil
padd@@
cummin
lengthy
Fund
Leon
Jeshimoth
constituent
'At
epithe@@
Was@@
best-@@
ppeth
`It
jing@@
food-@@
rag@@
Pekod
surged
ball@@
tracking
Mishal
Ski@@
sarca@@
metri@@
'sa
controversies
Regent
matrix
Madmannah
Iram
Estates
Structure
confusing
airing
Smi@@
communicating
pirate
Fan@@
Encourage
UM
Quickly
indirectly
aero@@
dismiss
refiner
squad
bushranger
Nell
Tanhumeth
-tree
fus@@
sated
LIN@@
ditches
caribou
ssar
Eli′sha
282
ston@@
fainting
spin@@
assembling
Mello
Sli@@
Mainz
Fabi@@
Merodach
thra@@
Bulgarian
teness
Peters
esca@@
puni@@
ringing
Dau@@
Era@@
quails
restriction
commemorate
amu@@
fast-@@
Moriah
extraction
Amraphel
Hazarmaveth
shroom
combines
er—
promp@@
earnings
peas
Heli
visc@@
Grosso
accep@@
intru@@
dur@@
angs
Sex
indictment
unharmed
Monument
supposedly
IB@@
Vaud
chief@@
Sap@@
Greg
tici@@
turtledove
ologi@@
ulti@@
fronts
greenish
screams
indulge
tryin
Jarha
Esperanto
Tex@@
Candid@@
Audio
transit
cultivation
Candice
Hymenaeus
nished
Sidney
Condu@@
Ares
manship
Reu@@
Sheariah
eng
ó
court-@@
Unter@@
hua
interfered
advo@@
maacah
peering
spines
Uz@@
laiah
lamp-stand
Josias
dipping
Schulz
pleaseth
saliva
piri@@
Cindy
sobbing
confid@@
Asher@@
Naharai
Sandell
Rosh
Eshton
Eun@@
darts
Jekameam
0–@@
Harhur
Zeru@@
Bulletin
yellow-@@
Haven
tings
vs
ree
sea-ice
Ahihud
Karnataka
projections
Pou@@
rabble
cosmo@@
reliability
Zibiah
beggars
Amittai
tches
decayed
behaving
.4
Appaim
Lennon
`Be
Matthan
heim@@
Body
Clu@@
utili@@
sabotage
Ananiah
Spirits
Potts
inn@@
plantation
Hauran
marital
Leaders
forty-three
differing
proletarian
Achshaph
nine-@@
Pliny
that@@
Zimran
bandaged
unbroken
Dinhabah
tness
Hachilah
Snow@@
gust
sery
plate@@
tanned
fortification
slowed
chickens
Bilshan
Halak
Zh@@
131
store-@@
Thurgau
Bahrain
pedal
gutter
banded
Akrabbim
admirable
Joha
Hakk@@
Ithaca
Daw@@
renewable
Merton
Acting
Marcell@@
With@@
centralized
dark@@
Horite
inning
lux@@
uah
hot-@@
Uruguay
Almodad
mingle
stewardship
Masrekah
state@@
presumably
dawns
Pardon
_History
Johnston
th—
half@@
crouching
Brisbane
liner
mastery
beautify
sastrugi
composite
Festivals
Birth
disappearing
Eltolad
Tiras
gradual
sound@@
salutation
herit@@
guillotine
Aeschylus
celebrity
Actually
Baha'i
Reba
Fly
immovable
geal
opoli@@
Jahzah
brides
solo@@
rag
Ashley
licking
Gederoth
prowl
cigarettes
Pano
Guitar
theorem
43@@
lé@@
Ephlal
indulgence
rhyth@@
headbands
deteri@@
Jabneel
Lak@@
corporate
MS
Assisi
straighten
patriarch
sects
Heroes
Named
inting
Sl@@
Pass@@
Eldaah
depraved
inadvertently
fastening
erem
tetra@@
Maaziah
legisl@@
instinctively
Evelyn
he_
Anathothite
growths
Giles
wonder-@@
painters
Piano
climax
bonus
Mesa
lanterns
Ara
Heat
men—@@
FOX
Colo@@
s'@@
strung
Y.
Celsius
Zemaraim
settles
prefecture
drowsy
Sadoc
moveth
yoked
plying
Chilion
missioners
Sign
Key@@
Sears
replies
ywood
walden
buzz@@
Brave
asa@@
wreath
employing
untied
h—@@
Spandau
bonnet
tracts
foun@@
Jub@@
charted
sm_
Clearly
inated
Dodai
Wallachia
manufacturers
haiah
peace-offering
ble-@@
unciation
lex
stees
maggots
protruded
Wand@@
mulus
Marqu@@
irritation
Chal@@
Worker
Mor′decai
abrupt
mole
Walton
forfeit
Campus
Journey
swor@@
chicks
descriptions
tica
relocated
corral
Califor@@
Wen@@
Adummim
Cyber@@
usur@@
wallet
tily
Bozkath
Somme
stful
antism
je
Jehdeiah
Spect@@
eland
Endor
resolutions
Porto
coloring
Susquehanna
upstream
mest
mesh
ë
Platinum
add@@
365
ze-@@
opus
weird
distribu@@
Donnell
caul
competitive
integer
shness
Seasons
linguistics
admonished
Islamabad
Richardson
Anaiah
memorable
'Love
cure@@
barber
Umb@@
seam@@
Locus
tro
expresses
fractured
hibition
graphi@@
Bolshevi@@
configuration
Wash@@
chez
serveth
1818
Revenge
phed
rifles
Cel@@
dominance
assail@@
try@@
Ravine
eran
drains
Taji@@
ions
.2
wig
Statu@@
Fitz@@
weeps
Schne@@
Massacre
esman
iser
exacted
01
embroidery
fluttering
vous
Nephtoah
switching
RP@@
DR@@
Pasha
64@@
Dry
ovary
Shop@@
Resurrection
picture-@@
Ribai
_a_
Psy@@
COM@@
huddled
blan@@
Amat@@
Machine
constructing
oce@@
anthropo@@
embalmed
cit._
collaborated
Dom@@
Act@@
sert
Foot@@
Wehrmacht
Cozbi
Punon
Metis
esseth
Fili@@
Grieg
Cherubino
134
publishers
apost@@
overturn
look@@
outcast
Hast@@
Arvad
angelic
maid-servant
consulting
prediction
Rosalie
XIX
ilers
bravery
strand
freshly
pland
cardi@@
devising
forcibly
Carthage
phon
racks
scoundrel
whispers
handkerchiefs
respectfully
B.C
tragi@@
Speaker
Tiphsah
sket@@
sso@@
simulation
radioactive
eyewall
capti@@
maxillary
dun
segments
Mehujael
Factor
163
bery
remake
sobbed
instin@@
exhaust
drink-offering
die@@
characteri@@
Vene@@
laps
Spiri@@
unction
abstr@@
thunderstorms
archae@@
ktor
Gebal
Ster@@
Jap@@
Soph@@
Fort@@
Custard
“Oh
Jogbehah
tamed
absur@@
Approximately
Eski@@
biscuit
Knowest
knights
dive
1.0
1.3
burner
syndicalism
amer
Gibraltar
boom
wayward
subdivisions
fashionable
Nehu@@
4-7
essays
vindi@@
blended
hiah
Michel
Render
unwittingly
produ@@
JBL
commandant
undergraduate
aur@@
menstru@@
quivering
AES
attacker
thirty-four
anted
Eighth
fifty-six
ceded
caldron
rina
Might
Blaine
Barkos
Joas
successors
grimly
Sik@@
archa@@
Counselor
busy@@
Investig@@
consort
plowshares
X-Men
clin@@
spontaneously
Sis@@
lich
synonym
unofficial
croo@@
insur@@
hundredth
embraces
drifts
Carlson
coast@@
guidelines
persu@@
Carefully
mur
Haggi@@
Bridge@@
sils
Merriam
exchanging
bodied
salt@@
dishonour
'Peace
viri@@
Eloi
ventricle
adulthood
buffalo
Ships
ante@@
Bash
Dewey
dorf
_I
Keros
Havvo@@
171
mens
Pur
greg@@
subway
Mikneiah
Inquire
amputation
fam@@
disorganized
Ligh@@
hornets
Thy@@
velled
ás
Ape@@
adoles@@
alised
blossomed
ousing
froward
Brigham
Darkon
There@@
half-way
Artists
Fried@@
institute
Ahi
Smite
Mato
impatience
recommend
exported
skip
anticip@@
Gazzam
tum
Plans
gangs
thefts
dispat@@
es._
dem
dec
clamor
onset
optics
dimini@@
Scala
intra@@
first@@
loosen
spade
satis@@
26th
Heathrow
Shimeath
debates
Atad
Alone
lamenting
Bash@@
Bears
weighty
Recent
liation
Catalan
amusing
Vel@@
erectus
substituted
cleaved
oper
Witch
dismounted
awaited
softer
amendment
²
athites
Rit@@
modesty
cord@@
painfully
gores
occup@@
precedent
Headquarters
deficient
Pinckney
chestnut
Taberah
Sismai
til@@
vering
Previously
.C
Nicho@@
eccentric
Rebellion
Pfaff
Thousands
Padon
dunghill
c.@@
superstition
verge
zzez
pheus
Nebraska
fatt@@
6,500
lable
dons
incredul@@
Templ@@
chatter
techno@@
canoni@@
Mal
Thou@@
TRA@@
hill@@
culti@@
seriousness
phiah
55@@
heavyweight
Teotihuacan
Areopagus
frying
exterior
marvel@@
cork
great-grandchildren
fis@@
mbered
reduces
Conserv@@
Zelek
Zaavan
itary
1787
Albania
cino
lingen
bacon
Defin@@
hor
int-@@
olo
terraces
Hiro@@
clari@@
215
Ishmaiah
motors
consumer
tea-@@
logists
Didymus
Werner
Hothir
loincloth
Mahazioth
Gas
meas@@
dynam@@
Slowly
Hatipha
charger
Maacathite
'an
enger
workingman
Wolf@@
unquenchable
scrambled
eternally
Hattil
stretcheth
symptom
symphon@@
Protocol
promiscuity
lden
Bakbuk
jan@@
dious
fing
Fe
pil@@
insisting
lesion
ude
cereals
articul@@
smic
reminds
expressive
Olga
itate
exuber@@
ferry
levy
advent
Molo@@
bindeth
carbo@@
Jamie
Gahar
gue@@
Umayyad
Benedict
ammunition
Titoff
tism
tist
Chi
repetition
co-operation
unfortunately
Christiania
mbo
nas@@
Matamoros
perfu@@
gestures
tigh@@
market-@@
Foxes
Emim
Ayuctle
organisations
esthe@@
Norwich
infamous
thmus
Alien
wedge
eship
blac@@
common-land
culation
refugee
ems
householder
fuss
Jaaziah
pelet
maxi@@
conditi@@
duced
Hist.
foal
Premiership
scoffing
poor@@
ville-@@
230
Eurovision
fairest
unfinished
Wireless
steaming
Disan
stad
Corsica
Ocran
sleeper
lobsters
iously
you—the
wearily
shofar
Almon
Dream@@
Hampton
sweetly
9/@@
winnow
Fresh
Eliseus
Elamites
Correll
Seneca
Etruscan
mustache
starch
36,000
bramble
good-for-nothing
neurosis
toms
marri@@
y._
Dod@@
orous
di-@@
Promised
borrower
Madagascar
bate
Gup@@
Hohen@@
Axel
engraver
Ginath
aways
Philosophi@@
Lilo
Dab@@
ædia
cel@@
inheritances
sensory
Trou@@
Nicaragua
Tula
economically
1-6
implore
zell
Tabbaoth
evalu@@
sec
ensis_
Concert
formats
Å@@
impudent
Ellen
len
Ashter@@
zabad
airs
city-@@
VO@@
stillborn
arai
rescu@@
Desol@@
Anoint
staircase
sugar@@
essence
congress
Hyderabad
Consid@@
arezer
Giloh
cicatri@@
resorted
rue
owest
1793
Ithiel
Isabel
commerci@@
regardeth
Lub@@
DA
ducts
Ahiam
ernity
Pati@@
opium
184@@
reminding
uprising
GO@@
Harkings
Meshu@@
Chosen
doll
quakes
arranging
re_
Abed-nego
alleys
Koz
Cuban
contamination
southernmost
ung-@@
bubbles
susceptible
compartment
Georg@@
Brittany
Alush
god-@@
studios
burners
grandeur
shoot@@
Harosheth
León
standardized
Ursula
20-22
Sotai
lids
battalions
Altenburg
ruby
Herald
ethics
Blue@@
Abiud
F-@@
Technical
yells
aim@@
Hash@@
Selene
Gene
Emperors
Rupert
phes
Agriculture
stings
BSD
touch@@
delu@@
Milk
chimney
Neill
Migron
fell@@
gush
bucks
Gou@@
Hatita
Dut@@
pill@@
tribu@@
agreeing
archi@@
rival@@
Hoffman
coveted
ï@@
ongoing
Leonese
ois
rably
bountiful
Tahi@@
Steven@@
Philosophy
gat
doorkeeper
Pash@@
upcoming
Kai@@
thrill
birth@@
rhy@@
coronation
veri@@
fleshy
Abo@@
delays
commodity
Abida
metabolism
Vista
magne@@
affrighted
scented
aloft
ok@@
attaining
bard
Timnath
sigh@@
Misrep@@
Active
Mars@@
Invasion
coward
brittle
velvet
Debar
nervously
Slo@@
Hanniel
viewing
thermodyna@@
consensus
aton
illustrates
MAR@@
Dophkah
appealing
Zalmonah
Any@@
Societies
broken-@@
disappoint
sharks
Radical
tionary
perplexity
syndica@@
partaker
Blair
mutiny
Cincinnati
nae
Frisco
hushed
't_
armrests
cuttings
principality
forged
dramatists
Bar
logarith@@
graduation
intensive
philosophi@@
clockwise
morpho@@
excelled
genital
workings
Ahlai
Chopin
banker
Essen
exploring
cken
Prophe@@
muffled
kily
Tube
Docum@@
Hasupha
Nagorno-Karabakh
recited
Link
faultless
Millie
Catch
Neziah
venti@@
sabachthani
Moresheth
mba
safeguard
own@@
Sudanese
ctable
texture
Klaus
Nahalal
John@@
Hadda
rapidity
watcher
puppy
1802
olly
87½
Names
revision
Zanzibar
ez@@
psychiatric
Register
taxed
Kag@@
terminated
Myanmar
Harod
Marshal
ascribe
Motion
Domingo
alton
licate
Goth@@
surpasses
terrain
Hallohesh
vulnerable
Peleth
_me_
contraction
progen@@
competitors
tins
washbasin
ramparts
600,000
takin
achal
mored
1797
subsi@@
landowner
salad
Zach@@
Piedra
begetteth
Threat
iso@@
ONE
amin
Goodness
soda
Matilda
eting
eld
arrow@@
fers
descend@@
lever
Wray
Valera
Rodri@@
enlarges
gnash
pass@@
Adventure
chmen
Mining
resists
scheming
fifths
contribu@@
256
commonplace
cum@@
Mn@@
imaginations
Nebuchadnez′zar
`Speak
paraly@@
aughty
conci@@
af
detectives
generic
pap@@
disintegr@@
Tac@@
Damn
ty_
Vermont
lez
grou@@
microscopic
Blue-gum
1.00
Kid@@
xion
sest
Inasmuch
Manifesto
ís
Bride
Tik@@
ers@@
Sud@@
compani@@
Tiglath-pileser
ctory
ethical
Barker
Ivor
heres
conjunction
Kishion
vents
Carmody
Cape@@
Antoine
hybrid
verted
Joshbekashah
remorse
Diplo@@
Isaias
autopsy
oval
rought
conform
scrutini@@
hearest
insert
Heinz
cors
circulated
Terrible
Sept.
urian
athletics
Weeping
Purah
woman@@
Beryl
Oxley
persuasive
cketh
rafts
literal
Holl@@
forty-seven
speeds
1768
spilling
caboth
Obededom
renal
Possibly
hiding-place
enstein
small-@@
resolute
Nahaliel
Browning
soft@@
Silent
FM
manuscript
herders
tellin
treadeth
predominant
lis@@
offshore
atum
sealing
confeder@@
Aub@@
monk
jab@@
Cricket
Handel
3166-1
acha@@
baptisms
Eliud
marketed
remini@@
Monter@@
dreamers
Humb@@
Nice
ina@@
tte@@
Trinidad
Pastor
Vä@@
bruises
nock
Shali@@
mington
Silva
fain@@
triumphantly
conspirators
Mallothi
Dana
lda
ldt
finishes
Auschwitz
wheresoever
ennial
Lumber
savings
Nisroch
pocke@@
Mehida
Stock@@
abbey
Asherim
gou@@
mechanically
carcino@@
Dib@@
pottage
whale
Mandy
roller
pondered
grandparents
Dionysius
—let
GH@@
1820
ligaments
Wide
guar@@
salts
land—
givings
timbrel
fitt@@
Rapha@@
Ramoth-Gilead
Malki@@
renounced
GM@@
22nd
mark@@
Aye
coriander
traveller
Adult
se—
vacc@@
empha@@
Brotherhood
inorganic
tingle
relinqui@@
selessly
spas@@
exceptionally
Hakupha
overthrows
Nicolaitans
ardent
obstruction
catt@@
undergoing
blackened
CA
223
pina
unconsciously
Fed@@
Genubath
Hariph
Hillel
Constitutional
hailstorm
Guards
thereupon
wrink@@
Day@@
lurk
Trent
dedicates
repri@@
Moving
closet
bucklers
continuation
fables
5.5
Highest
zzy
Candle@@
Linn
Trans-Euphrates
bbe
Fat
'King
domesticated
athan
mountainside
Them
grain-floor
outlived
growling
approxim@@
plunderers
ileth
examinations
suppression
Emmanuel
gency
greenhouse
bared
peel
non-spherical
text@@
Pain
Disc@@
ffled
tini@@
Ey@@
′lah
acro@@
ms@@
plenteous
accomplishing
usive
aquatic
29-@@
80s
thinkest
proposals
sweating
Joktheel
narrator
203
hailed
FOR
annulled
outh
ldering
Thaddaeus
hey
MT@@
ferti@@
Jurassic
Spre@@
reparation
window-@@
Eup@@
reaper
intu@@
Granada
inate
presumed
exert
_b_
Brewster
submerged
detests
Mecklenburg-@@
Woo@@
longevity
Guild
negoti@@
Appi@@
spar
aias
fund
clutched
wrongly
munitions
incidentally
Jahzeel
Rang@@
stung
io
sist@@
Qing
partridge
Jahze@@
nitrogen
Oilers
Pi
Exodus
KRISTRUN
—only
Hovell
vre
Hushah
judg@@
discontent
three-day
guys
IST
Toscanini
Kedorlaomer
pment
Bundesrat
infi@@
lumber@@
OUR
incision
medium-sized
commentator
rejection
fine-@@
eroid
Seize
specifications
plaintext
exploited
Jhelum
Course
Hole
jubilant
rout
Manchuria
an-born
meyer
sittest
morals
Gillett
digestion
_Per@@
Stati@@
spra@@
sentry
Rhee
dwelled
omys
Trains
hose
Song@@
Shut
diplomat
Ted
coven@@
worshiper
endant
clarity
Confu@@
dots
Fortun@@
accomplishment
mascot
Anointed
duchies
molecule
Share
Nel@@
sucked
lovest
glorying
Albion
outlines
coal-@@
nett
Anno
unification
confer
crags
inquiring
_Re@@
xy
troublesome
Zillethai
Broad@@
esthetic
offender
absinthe
elson
Everton
Beri@@
full-length
renewal
clitoris
advocates
lightenment
afore@@
defilement
akin
invest@@
Concer@@
Eyes
gradient
garlic
transc@@
inspected
interred
Rain@@
Pavarotti
oid
Gerald
Short-beaked
sby
Anyway
Abba@@
Gardiner
ldy
Cash
`Thy
Magi@@
s—to
Oceania
elabor@@
swings
Juno
decreasing
Thomson
scher
appease
civic
cauldron
furt
estuary
dist
wakened
profited
Bene@@
postp@@
gene@@
a.@@
frantic
scabs
Lass
Iph@@
petrol
fowler
chips
frustrated
ciency
achable
erius
shriek
Tudor
presiding
Jules
distinguishing
34-35
decks
Myr@@
25-27
Prim@@
Tabeel
s'pose
Tad@@
ttes
overgrown
ouri@@
seventy-three
Chorazin
explosive
ographical
skir@@
decimal
Jaasiel
affir@@
recessed
formers
gible
'Will
exc@@
161
Auntie
parcels
—we
zee
Eliathah
Peth@@
dn@@
Giddalti
mids
Aurora
wicke@@
soun@@
finity
Derek
Abra@@
mentioning
Maacathites
expressly
kens
dic@@
Compar@@
Shore
headache
heli@@
earnestness
endemic
vies
Thinking
William@@
Dustin
steadfastness
brea@@
stream@@
Asiatic
vict@@
Bukkiah
tightened
domin@@
grounded
1807
fuls
bypass
enh@@
Protector
Knickerbocker
reassur@@
zzled
Sofia
Scientific
messaging
splintered
Galeed
Jezaniah
drench
needles
Greek-@@
chie
taxonomy
amino
arena
Atlas
idolatrous
Ide@@
ninety-five
cradle
CI@@
mek
slices
porti@@
Thereupon
ella
acce@@
straigh@@
magnificence
Founded
That@@
imag@@
investigating
exasper@@
caravan
needing
exi@@
distru@@
HS@@
fermentation
dition
mol@@
museums
contradict
22-24
Joahaz
Spring@@
Cort@@
reconci@@
icon
TR@@
interviews
capill@@
Anhalt
buri@@
frog
Dumas
Soli@@
ist@@
lifeboat
bedded
milled
,2@@
McDougall
nai@@
174
Smith@@
Zechari′ah
oats
Marsh
—my
ve_
Become
epilepsy
unacceptable
petroleum
festival@@
focusing
Kyoto
smashing
leaps
comprise
firms
Jere@@
Rithmah
Kibroth-hattaavah
parie@@
famously
pension
distort
Pelopon@@
potentially
microscope
pulpit
comparative
raim
hilly
ma'am
cherish
roun@@
Caliphate
langui@@
eg
merri@@
inquiries
credits
Legisl@@
fined
drea@@
orated
kindles
Epsilon
pursueth
Eliahba
Euph@@
tely
unities
Uttar
Someday
iss
censor@@
knewest
atian
Lucca
ahite
Reser@@
filed
blurred
Evangeli@@
devoureth
fresh@@
Ahimelek
dishonesty
800,000
proportion@@
igned
stead@@
Cabul
Inno@@
Goiim
heah
displaying
constructive
nodding
chastity
kam
recital
poised
Redwall
Wade
Izrahiah
adder
Ghi@@
proprietary
spying
obo@@
Meshe@@
hanan
Mackenzie
exposition
Josi′ah
jure
Nebu@@
mused
music-maker
ava@@
sling@@
Ami@@
hostess
Holly
Yuan
cit
deviate
Gibson
skulls
shuddered
Wig@@
Shelo@@
nag@@
mansion
consequent
templates
burlap
Bois
itted
bras
exemp@@
Caldwell
respiratory
SR
madam
taxation
cheer@@
Midwest
Overman
snuffed
registers
exer@@
socialism
degra@@
symbi@@
Joey
eminence
wary
dedi@@
swer@@
fren@@
pendants
crib
1,254
Sichem
Withdraw
tology
inception
mir
Examine
stip@@
Rissah
casters
spanned
hamlets
Hei@@
puzzle
Magazine_
Tod
Phantom
announ@@
disappearance
repul@@
strands
flood@@
Genevieve
acquires
Edu@@
Rinpoche
69@@
Lyon
Caspian
Josh
immune
Honourable
taire
corre@@
Camp@@
Whole-Burnt-Offerings
pedia
Hyrum
endu@@
Jehoaddah
bally
ror@@
hes@@
latticework
overrun
Hit@@
Ice@@
sewn
DE
cryp@@
reluctantly
Chola
trainer
climates
solving
uta
deaf@@
olan
haircloth
spit@@
Answ@@
Bere@@
0.1
Mall@@
economies
modifications
easternmost
duous
thand
Walking
coura@@
secrecy
gossips
straightforward
bio
aptive
Shepherds
spectro@@
Worker_
appropri@@
swam@@
Root
Europa
Alar@@
Ziv
oted
Secon@@
House@@
Yugoslavia
ambu@@
cucumbers
Shropshire
Seat
Mandarin
gali
navigator
occul@@
bosses
Cyre@@
Sullivan
'An
hovering
ARD
stat@@
Andhra
pigment
NE
crouch
LA
7-10
Poseidon
Mt
Mere
trauma
EP@@
Harbor
therapy
mystic
Astro@@
Fra
mian
vos
obscured
victor
Columbian
Goo@@
phar
Baal-hanan
stati@@
1860s
Crusaders
Abi
dings
Anne@@
gleaning
lounge
thag@@
propped
`In
Released
terrifies
Andal@@
informal
consoles
Apparently
Gudgodah
temporal
inhabiting
Hori@@
pist
mage
iniqu@@
Raiders
Publications
DS@@
winters
appla@@
anticipation
seventy-four
drags
Hareseth
Ken
thearted
cius
Tsar
spikes
Spielberg
Increase
VHS
habitually
Kedemah
marsupi@@
treatise
-el
Jal@@
Briti@@
Thick
345
midway
Finals
sharpens
Conservatoire
stices
Smithsonian
Boulogne
Whilst
pillows
flap
Basi@@
Stoker
scabbard
Cotton
pseudo-@@
weal@@
ee@@
Zikri
syndrome
Tobin
fü@@
Béla
kneaded
dors
best-selling
outlaw
retaining
sociology
AF
`O
ext@@
revert
Inver@@
cutteth
sentinel
z′zar
straitened
Astarte
apportion
PC@@
erupted
tally
Ingrid
warran@@
lio@@
rioting
soundness
residential
sly
Afri@@
defected
manned
Conrad
Safe
concerto
breeches
—every
nodes
Parish
flatters
Avvim
Tate
anomalies
Ultimate
oversee
sali@@
—both
centen@@
logging
Corners
PH@@
resurre@@
massacred
Baal-Hanan
bravest
Sophia
kt
Kingdoms
Brett
MM@@
fervently
Harper
Peppers
ning-@@
ali′ah
thinkin
blasted
TV@@
Hygi@@
fallow
accumulation
transcription
Me-@@
1823
Mahseiah
Beechworth
Disa@@
-looking
richness
Bacon
Pick@@
colonists
Gibb@@
Budapest
crou@@
ück
s=
behavi@@
Spiritual
waver
carri@@
reliance
turi@@
targeted
ulation
sorcerer
racy
Measure@@
solidarity
warred
disbanded
field@@
vere@@
exempt
pical
1810
peacocks
Rural
dled
llor
heron
eral
banishment
Truman
Matt@@
Beer@@
courteous
broughtest
dian@@
zu
wis@@
counterpart
Bet@@
E′@@
sprouting
Question
mounts
Puni@@
suppress
hypothe@@
interchange
conferences
anist
excep@@
goads
barbarian
chieftains
tail@@
stellar
ceaseth
conjecture
Financial
alous
fluctu@@
desecr@@
attested
Leu@@
Tw@@
nex@@
sionately
Abiezrites
rance
outlaws
Secondary
annim
outpost
Clay
extravag@@
batteries
internally
aides
'Long
'en
calamus
Tai@@
Huygens
noteworthy
Shantung
spiri@@
secretion
predestined
mpan@@
plank
roof@@
Tchaikovsky
energetic
Machi@@
Ambassador
Turin
shun
Ahmed
Principles
Shophach
discre@@
bowel
jearim
ft-@@
Helena
princely
caly@@
contentment
ear-@@
2,8@@
sufficiency
squir@@
Beu@@
monetary
generators
ulous
anders
Brown@@
bacterial
Dylan
Redeem
discharges
sequels
Canyon
Essjay
scou@@
Odyssey
smoother
disturbances
infin@@
kites
aus@@
pollution
Judah—@@
Debby
0.5
sheba
Ley@@
Camden
handwriting
Dha@@
Franco@@
poker
parch@@
Beaumont
taine
paternal
Patrol
Protestants
penal
meet@@
ravage
aright
arial
implored
THER
vested
Enaim
contributors
Tub@@
vertebrae
Sr.
Eastward
Ruhr
litt@@
transgressing
Dover
Senaah
Isles
Aristo@@
Sitting
jured
Deutsche
Jokmeam
crossroads
Zeph@@
Buzite
Males
host@@
NH
go-@@
colleague
shocking
calculation
politely
edu@@
embarked
Brooks
cine@@
quickened
Hooker
Chess
Nirvana
bilities
ema
infirm
57@@
dynasties
_Mr
dependencies
Cumberland
Jehu@@
Hac@@
hesitating
Coptic
Mama
controller
sinew
Moder@@
dean
Animated
cathedrals
offer@@
Tas@@
kled
stupor
archangel
ptive
to_
percepti@@
yer@@
mbre
pinions
blindfolded
procure
Yama@@
welcoming
tteth
ya@@
tolerant
Twice
thless
disadvant@@
tumultuous
ferring
acquiring
Numerous
Mann
Thessalonians
obediently
||rowspan=
icon@@
ges@@
Turned
windy
Staunton
concludes
concessions
duce
near@@
Pretoria
facial
Andes
protesting
wedd@@
'Israel
selle
fool@@
Marxi@@
mmon
widowed
technically
Gand@@
Pharao@@
prin@@
Ishvah
clutches
hornet
Om@@
330
distill@@
fai@@
Esc@@
counter-@@
ch_
Worcester
round-@@
Led
lewd
bombings
averted
hamstrung
crackling
comet
dispatch
Mattanah
Naph′tali
dab@@
gray@@
Beth-El
Fern@@
Hashmonah
NWA
rug
focuses
Martin@@
ule
exclusion
Dr@@
bemoan
Beerah
will-@@
balcony
Harker
Nordic
ensnare
revolting
Creative
Philippine
Bee@@
i_
shin
ribbons
veled
Shen@@
neg@@
iless
Springfield
Diony@@
itarian
kow
Moseroth
dispensation
Mongo@@
programmes
purses
Calneh
Lombardy
misty
softened
teen@@
Moritz
Ephes@@
inspire
peasants
Quartet
Pearson
1825
violates
extortion@@
prolific
memb@@
Abishalom
LES
1,000,000
2.2
spir@@
infiltr@@
Layfield
potassium
Treas@@
summers
rashly
_the
Finlay
hoar@@
Track
parap@@
lotus
Edith
actic
molds
scrutiny
rescuing
chewing
Moun@@
punctu@@
lei@@
Sox
cipher@@
pelvis
sad@@
Azotus
Carr@@
bott@@
unspeakable
hort
Hardly
filming
Baxter
Lenzburg
motorway
anu@@
crumble
thest
squee@@
bbe@@
Pilot
circumci@@
Zeppelin
.6
said@@
distor@@
kland
tracted
virtual
handiwork
Schrö@@
haze
Romeo
dox
tians
32@@
chri@@
manages
expulsion
Napoleonic
Fifteen
standpoint
correspondents
ail@@
ctional
common-lands
Abide
chond@@
harming
pice
ele
coon
ende@@
Rememb@@
—like
reacheth
algebra
Acti@@
fice
Commander-in-Chief
Car
chanced
Eug@@
DI@@
nickel
gium
sustains
hob
tango
ambitious
irresistible
menservants
1700
Kehelathah
quity
whir@@
Dominion
substitution
objections
succ@@
ruining
Jehoiakin
Arezzo
U.S.@@
prospects
quo@@
anov
sitting-room
Saarland
visa
M'@@
uns
Gott@@
age@@
pierces
amo@@
Stan@@
Georgy
ttled
Hess
lumps
righteous@@
Ple@@
colour@@
—just
Color
Darling
comprehended
Hou@@
nape
valent
encircling
note@@
Barlow
Foucault
tapped
pad@@
68@@
pists
iv@@
_E@@
Alla@@
tose
WB
build@@
girt
Wav@@
stacked
sioned
Joint
Makheloth
taxono@@
Now@@
Savings
NICHOLLS
papa
negotiated
photography
bus@@
barking
F.@@
sab@@
chapiters
rish
creepeth
Scandinavian
`To
naive
sickly
classed
rede@@
submissive
Haradah
Melissa
skeletons
wield
Toulouse
rious
coll@@
unnoticed
Newport
cyclist
Mate@@
Bath@@
sians
rookery
sues
merits
BER@@
ophi@@
knob
neglecting
fatally
repertoire
inae
stamping
strate
ministries
14:@@
ßen
islets
Humph@@
Antes
impressions
steamed
discou@@
sternum
ungrateful
fermented
sels
tability
Care
sock
prowling
monotonous
villagers
Minnith
Somewhere
defrauded
mph@@
sojourns
accomp@@
Goat
nod
winks
ordinate
corps
ce_
asco
Linkin
Boll@@
furrow
mi²
Fas@@
Noe
ace-@@
scoop
gion
lega@@
Fran
McKin@@
well-defined
mea
pasteurized
deathly
etary
Stitch
End@@
storeroom
ome
1772
ception
Session
177@@
choo@@
Biz@@
woodland
Autumn
Glen@@
chronic@@
Impact
reaps
Spare
breast-@@
Punch
Lond@@
Czechoslovakia
Linda
proceedeth
Swords
rump
port@@
sei@@
01-@@
Charter
1954:@@
sionist
ciano
moor
brier
Johor
Concord
bout
orah
Bohemian
bluegrass
Brah@@
perpendicular
symp@@
11,000
disagree
mir@@
initiation
onga
melons
E-@@
attracts
llars
forsakes
AO
crocodile
lurking
Drake
misses
executioners
compu@@
pist@@
Heavens
languishes
Solid
inlaid
crumpled
Rut@@
Hogan
kins@@
flaw
_Vide_
distinguishable
omitted
Po
undertakings
42,@@
Florentine
bias
ware@@
Ulrica
'Honor
Sheh@@
trailer
666
Seven@@
plough
Honecker
shaw
760
pedestals
oon
jewe@@
onis@@
Helmut
sticky
regeneration
Sea@@
Emi@@
daubed
phyl@@
enas
cheaper
presu@@
Lithuanian
LP@@
beetles
×
[...]
